#ifdef __has_attribute
#define HAVE_ATTRIBUTE(x) __has_attribute(x)
#else
#define HAVE_ATTRIBUTE(x) 0
#endif
#if HAVE_ATTRIBUTE(aligned) || (defined(__GNUC__) && !defined(__clang__))
#define DATA_ALIGN_ATTRIBUTE __attribute__((aligned(4)))
#else
#define DATA_ALIGN_ATTRIBUTE
#endif

const unsigned char wine_model[] DATA_ALIGN_ATTRIBUTE = {
	0x1c, 0x00, 0x00, 0x00, 0x54, 0x46, 0x4c, 0x33, 0x00, 0x00, 0x12, 0x00,
	0x1c, 0x00, 0x04, 0x00, 0x08, 0x00, 0x0c, 0x00, 0x10, 0x00, 0x14, 0x00,
	0x00, 0x00, 0x18, 0x00, 0x12, 0x00, 0x00, 0x00, 0x03, 0x00, 0x00, 0x00,
	0x54, 0x00, 0x00, 0x00, 0x48, 0x00, 0x00, 0x00, 0xa8, 0x00, 0x00, 0x00,
	0x08, 0x00, 0x00, 0x00, 0x50, 0x00, 0x00, 0x00, 0x0d, 0x00, 0x00, 0x00,
	0x80, 0x3b, 0x00, 0x00, 0x7c, 0x3b, 0x00, 0x00, 0xe0, 0x39, 0x00, 0x00,
	0xa4, 0x38, 0x00, 0x00, 0x30, 0x38, 0x00, 0x00, 0xb8, 0x2d, 0x00, 0x00,
	0x54, 0x06, 0x00, 0x00, 0xa8, 0x03, 0x00, 0x00, 0x60, 0x3b, 0x00, 0x00,
	0x5c, 0x3b, 0x00, 0x00, 0x58, 0x3b, 0x00, 0x00, 0x54, 0x3b, 0x00, 0x00,
	0x4c, 0x00, 0x00, 0x00, 0x01, 0x00, 0x00, 0x00, 0x84, 0x00, 0x00, 0x00,
	0x02, 0x00, 0x00, 0x00, 0x10, 0x03, 0x00, 0x00, 0x30, 0x01, 0x00, 0x00,
	0x01, 0x00, 0x00, 0x00, 0x0c, 0x00, 0x00, 0x00, 0x08, 0x00, 0x0c, 0x00,
	0x04, 0x00, 0x08, 0x00, 0x08, 0x00, 0x00, 0x00, 0x08, 0x00, 0x00, 0x00,
	0x0c, 0x00, 0x00, 0x00, 0x13, 0x00, 0x00, 0x00, 0x6d, 0x69, 0x6e, 0x5f,
	0x72, 0x75, 0x6e, 0x74, 0x69, 0x6d, 0x65, 0x5f, 0x76, 0x65, 0x72, 0x73,
	0x69, 0x6f, 0x6e, 0x00, 0x9a, 0xc6, 0xff, 0xff, 0x04, 0x00, 0x00, 0x00,
	0x10, 0x00, 0x00, 0x00, 0x31, 0x2e, 0x35, 0x2e, 0x30, 0x00, 0x00, 0x00,
	0x00, 0x00, 0x00, 0x00, 0x00, 0x00, 0x00, 0x00, 0x0f, 0x00, 0x00, 0x00,
	0x4d, 0x4c, 0x49, 0x52, 0x20, 0x43, 0x6f, 0x6e, 0x76, 0x65, 0x72, 0x74,
	0x65, 0x64, 0x2e, 0x00, 0x00, 0x00, 0x0e, 0x00, 0x18, 0x00, 0x04, 0x00,
	0x08, 0x00, 0x0c, 0x00, 0x10, 0x00, 0x14, 0x00, 0x0e, 0x00, 0x00, 0x00,
	0x44, 0x00, 0x00, 0x00, 0x38, 0x00, 0x00, 0x00, 0x2c, 0x00, 0x00, 0x00,
	0x14, 0x00, 0x00, 0x00, 0x04, 0x00, 0x00, 0x00, 0x04, 0x00, 0x00, 0x00,
	0x6d, 0x61, 0x69, 0x6e, 0x00, 0x00, 0x00, 0x00, 0x04, 0x00, 0x00, 0x00,
	0x24, 0x02, 0x00, 0x00, 0x70, 0x01, 0x00, 0x00, 0xd8, 0x00, 0x00, 0x00,
	0x54, 0x00, 0x00, 0x00, 0x01, 0x00, 0x00, 0x00, 0x0a, 0x00, 0x00, 0x00,
	0x01, 0x00, 0x00, 0x00, 0x00, 0x00, 0x00, 0x00, 0x0b, 0x00, 0x00, 0x00,
	0x30, 0x3a, 0x00, 0x00, 0xc0, 0x39, 0x00, 0x00, 0x74, 0x38, 0x00, 0x00,
	0x44, 0x37, 0x00, 0x00, 0xe8, 0x36, 0x00, 0x00, 0x6c, 0x2c, 0x00, 0x00,
	0x08, 0x05, 0x00, 0x00, 0x38, 0x02, 0x00, 0x00, 0x64, 0x01, 0x00, 0x00,
	0xc8, 0x00, 0x00, 0x00, 0x50, 0x00, 0x00, 0x00, 0x00, 0x00, 0x0e, 0x00,
	0x18, 0x00, 0x08, 0x00, 0x0c, 0x00, 0x10, 0x00, 0x07, 0x00, 0x14, 0x00,
	0x0e, 0x00, 0x00, 0x00, 0x00, 0x00, 0x00, 0x09, 0x01, 0x00, 0x00, 0x00,
	0x1c, 0x00, 0x00, 0x00, 0x10, 0x00, 0x00, 0x00, 0x04, 0x00, 0x00, 0x00,
	0x7a, 0xc7, 0xff, 0xff, 0x00, 0x00, 0x80, 0x3f, 0x01, 0x00, 0x00, 0x00,
	0x0a, 0x00, 0x00, 0x00, 0x01, 0x00, 0x00, 0x00, 0x09, 0x00, 0x00, 0x00,
	0x2e, 0xfe, 0xff, 0xff, 0x00, 0x00, 0x00, 0x19, 0x01, 0x00, 0x00, 0x00,
	0x5c, 0xc6, 0xff, 0xff, 0x30, 0x00, 0x00, 0x00, 0x0b, 0x00, 0x00, 0x00,
	0x18, 0x00, 0x00, 0x00, 0x30, 0x00, 0x00, 0x00, 0x04, 0x00, 0x00, 0x00,
	0x02, 0x00, 0x00, 0x00, 0xff, 0xff, 0xff, 0xff, 0x03, 0x00, 0x00, 0x00,
	0x08, 0x00, 0x00, 0x00, 0x49, 0x64, 0x65, 0x6e, 0x74, 0x69, 0x74, 0x79,
	0x00, 0x00, 0x00, 0x00, 0x02, 0x00, 0x00, 0x00, 0x01, 0x00, 0x00, 0x00,
	0x03, 0x00, 0x00, 0x00, 0x44, 0xc6, 0xff, 0xff, 0x7a, 0xff, 0xff, 0xff,
	0x00, 0x00, 0x00, 0x08, 0x18, 0x00, 0x00, 0x00, 0x0c, 0x00, 0x00, 0x00,
	0x04, 0x00, 0x00, 0x00, 0x5c, 0xc6, 0xff, 0xff, 0x01, 0x00, 0x00, 0x00,
	0x09, 0x00, 0x00, 0x00, 0x03, 0x00, 0x00, 0x00, 0x08, 0x00, 0x00, 0x00,
	0x06, 0x00, 0x00, 0x00, 0x03, 0x00, 0x00, 0x00, 0xd0, 0xc6, 0xff, 0xff,
	0x40, 0x00, 0x00, 0x00, 0x0a, 0x00, 0x00, 0x00, 0x18, 0x00, 0x00, 0x00,
	0x40, 0x00, 0x00, 0x00, 0x04, 0x00, 0x00, 0x00, 0x02, 0x00, 0x00, 0x00,
	0xff, 0xff, 0xff, 0xff, 0x03, 0x00, 0x00, 0x00, 0x1a, 0x00, 0x00, 0x00,
	0x73, 0x65, 0x71, 0x75, 0x65, 0x6e, 0x74, 0x69, 0x61, 0x6c, 0x2f, 0x64,
	0x65, 0x6e, 0x73, 0x65, 0x5f, 0x32, 0x2f, 0x42, 0x69, 0x61, 0x73, 0x41,
	0x64, 0x64, 0x00, 0x00, 0x02, 0x00, 0x00, 0x00, 0x01, 0x00, 0x00, 0x00,
	0x03, 0x00, 0x00, 0x00, 0x6c, 0xc8, 0xff, 0xff, 0x00, 0x00, 0x0e, 0x00,
	0x14, 0x00, 0x00, 0x00, 0x08, 0x00, 0x0c, 0x00, 0x07, 0x00, 0x10, 0x00,
	0x0e, 0x00, 0x00, 0x00, 0x00, 0x00, 0x00, 0x08, 0x1c, 0x00, 0x00, 0x00,
	0x10, 0x00, 0x00, 0x00, 0x04, 0x00, 0x00, 0x00, 0x4e, 0xff, 0xff, 0xff,
	0x00, 0x00, 0x00, 0x01, 0x01, 0x00, 0x00, 0x00, 0x08, 0x00, 0x00, 0x00,
	0x03, 0x00, 0x00, 0x00, 0x07, 0x00, 0x00, 0x00, 0x05, 0x00, 0x00, 0x00,
	0x02, 0x00, 0x00, 0x00, 0x68, 0xc7, 0xff, 0xff, 0x58, 0x00, 0x00, 0x00,
	0x09, 0x00, 0x00, 0x00, 0x18, 0x00, 0x00, 0x00, 0x58, 0x00, 0x00, 0x00,
	0x04, 0x00, 0x00, 0x00, 0x02, 0x00, 0x00, 0x00, 0xff, 0xff, 0xff, 0xff,
	0x32, 0x00, 0x00, 0x00, 0x32, 0x00, 0x00, 0x00, 0x73, 0x65, 0x71, 0x75,
	0x65, 0x6e, 0x74, 0x69, 0x61, 0x6c, 0x2f, 0x64, 0x65, 0x6e, 0x73, 0x65,
	0x5f, 0x31, 0x2f, 0x52, 0x65, 0x6c, 0x75, 0x3b, 0x73, 0x65, 0x71, 0x75,
	0x65, 0x6e, 0x74, 0x69, 0x61, 0x6c, 0x2f, 0x64, 0x65, 0x6e, 0x73, 0x65,
	0x5f, 0x31, 0x2f, 0x42, 0x69, 0x61, 0x73, 0x41, 0x64, 0x64, 0x00, 0x00,
	0x02, 0x00, 0x00, 0x00, 0x01, 0x00, 0x00, 0x00, 0x32, 0x00, 0x00, 0x00,
	0x1c, 0xc9, 0xff, 0xff, 0x00, 0x00, 0x0e, 0x00, 0x16, 0x00, 0x00, 0x00,
	0x08, 0x00, 0x0c, 0x00, 0x07, 0x00, 0x10, 0x00, 0x0e, 0x00, 0x00, 0x00,
	0x00, 0x00, 0x00, 0x08, 0x24, 0x00, 0x00, 0x00, 0x18, 0x00, 0x00, 0x00,
	0x0c, 0x00, 0x00, 0x00, 0x00, 0x00, 0x06, 0x00, 0x08, 0x00, 0x07, 0x00,
	0x06, 0x00, 0x00, 0x00, 0x00, 0x00, 0x00, 0x01, 0x01, 0x00, 0x00, 0x00,
	0x07, 0x00, 0x00, 0x00, 0x03, 0x00, 0x00, 0x00, 0x00, 0x00, 0x00, 0x00,
	0x04, 0x00, 0x00, 0x00, 0x01, 0x00, 0x00, 0x00, 0x00, 0x00, 0x0a, 0x00,
	0x0c, 0x00, 0x07, 0x00, 0x00, 0x00, 0x08, 0x00, 0x0a, 0x00, 0x00, 0x00,
	0x00, 0x00, 0x00, 0x09, 0x01, 0x00, 0x00, 0x00, 0x38, 0xc8, 0xff, 0xff,
	0x54, 0x00, 0x00, 0x00, 0x08, 0x00, 0x00, 0x00, 0x18, 0x00, 0x00, 0x00,
	0x54, 0x00, 0x00, 0x00, 0x04, 0x00, 0x00, 0x00, 0x02, 0x00, 0x00, 0x00,
	0xff, 0xff, 0xff, 0xff, 0x32, 0x00, 0x00, 0x00, 0x2e, 0x00, 0x00, 0x00,
	0x73, 0x65, 0x71, 0x75, 0x65, 0x6e, 0x74, 0x69, 0x61, 0x6c, 0x2f, 0x64,
	0x65, 0x6e, 0x73, 0x65, 0x2f, 0x52, 0x65, 0x6c, 0x75, 0x3b, 0x73, 0x65,
	0x71, 0x75, 0x65, 0x6e, 0x74, 0x69, 0x61, 0x6c, 0x2f, 0x64, 0x65, 0x6e,
	0x73, 0x65, 0x2f, 0x42, 0x69, 0x61, 0x73, 0x41, 0x64, 0x64, 0x00, 0x00,
	0x02, 0x00, 0x00, 0x00, 0x01, 0x00, 0x00, 0x00, 0x32, 0x00, 0x00, 0x00,
	0x44, 0xc8, 0xff, 0xff, 0xe2, 0xc9, 0xff, 0xff, 0x04, 0x00, 0x00, 0x00,
	0x58, 0x02, 0x00, 0x00, 0xda, 0x21, 0x68, 0x3e, 0xa3, 0x91, 0x8e, 0xbd,
	0x4f, 0xa1, 0x95, 0x3c, 0x3d, 0x18, 0x3c, 0x3e, 0x58, 0x35, 0xf7, 0xbd,
	0xee, 0x89, 0x01, 0x3e, 0x77, 0x87, 0x81, 0xbd, 0x33, 0xc6, 0x2b, 0xbe,
	0x6e, 0xff, 0x40, 0x3e, 0x37, 0xd9, 0x7e, 0x3e, 0x42, 0x49, 0x1f, 0xbd,
	0x0e, 0x00, 0xd7, 0xbd, 0x83, 0xf3, 0xd7, 0xbd, 0x36, 0xbd, 0x52, 0x3d,
	0x64, 0x39, 0xb9, 0xbe, 0xd2, 0x69, 0x08, 0x3e, 0x06, 0xf7, 0x42, 0xbe,
	0xc6, 0x0a, 0x45, 0x3e, 0xd8, 0xb3, 0xb0, 0xbd, 0xf8, 0x87, 0xcd, 0x3d,
	0x5a, 0x23, 0x63, 0x3e, 0xf2, 0x9c, 0x20, 0x3e, 0xcb, 0x94, 0x71, 0xbe,
	0x66, 0x5d, 0x15, 0x3e, 0xd2, 0xa8, 0xf7, 0x3d, 0x1d, 0xaa, 0x9c, 0xbe,
	0xcd, 0xae, 0xb9, 0x3c, 0xdb, 0xcc, 0x98, 0x3e, 0x9b, 0x8b, 0x80, 0xbe,
	0x26, 0x33, 0xbc, 0x3c, 0xd5, 0xb8, 0x29, 0xbe, 0x44, 0x66, 0xd8, 0x3d,
	0xc7, 0x93, 0xaa, 0x3e, 0x5e, 0x87, 0xce, 0x3a, 0x8d, 0x92, 0xa5, 0xbc,
	0x71, 0x5e, 0x38, 0xbe, 0x99, 0x19, 0x66, 0xbe, 0xf0, 0x9d, 0xa4, 0x3d,
	0xd0, 0x99, 0xa0, 0xbc, 0x3a, 0x21, 0x2b, 0x3e, 0x92, 0x77, 0xfe, 0xbd,
	0x3a, 0xcd, 0x61, 0xbe, 0x29, 0xd1, 0x29, 0xbe, 0xef, 0x6a, 0x8e, 0xbe,
	0x80, 0x8f, 0x82, 0xbd, 0x00, 0x43, 0x90, 0xbb, 0x59, 0x42, 0x92, 0x3e,
	0xbd, 0x83, 0x5b, 0x3e, 0x88, 0x38, 0x1a, 0xbd, 0x82, 0xba, 0x0f, 0x3e,
	0xb0, 0xbf, 0x8d, 0xbe, 0x7d, 0xc3, 0x26, 0x3e, 0x60, 0xc3, 0xfd, 0x3d,
	0xf2, 0x33, 0x68, 0x3c, 0xd0, 0xd7, 0x50, 0xbe, 0x66, 0xca, 0x7b, 0x3e,
	0xbf, 0x37, 0x95, 0xbe, 0x41, 0x44, 0x51, 0xbe, 0x3e, 0x9d, 0x56, 0x3e,
	0x69, 0x9b, 0x14, 0xbd, 0xb7, 0xeb, 0x1e, 0x3e, 0x10, 0x03, 0xb4, 0xbd,
	0x1c, 0xeb, 0x23, 0x3d, 0x58, 0x6a, 0x47, 0xbe, 0xc1, 0xc8, 0x06, 0xbe,
	0x21, 0x01, 0x5a, 0xbe, 0x9d, 0xb3, 0xa5, 0x3e, 0x7a, 0xbd, 0x7d, 0xbe,
	0x58, 0xba, 0x65, 0x3d, 0xba, 0x22, 0xa5, 0xbd, 0xd0, 0xca, 0xab, 0xbc,
	0x3c, 0xf0, 0x9e, 0xbd, 0x30, 0xfb, 0x3e, 0xbe, 0x05, 0x8e, 0x91, 0x3d,
	0xa3, 0x59, 0x0f, 0x3e, 0x07, 0x52, 0x4d, 0x3e, 0x56, 0xd6, 0xf2, 0xbd,
	0x45, 0xc5, 0x4d, 0xbe, 0xb2, 0xb1, 0x0e, 0x3e, 0x3c, 0x50, 0x60, 0xbe,
	0xdf, 0x80, 0x33, 0xbe, 0x6b, 0xbb, 0x43, 0xbe, 0xe0, 0x40, 0x6f, 0xbe,
	0x84, 0x41, 0x30, 0xbe, 0x8f, 0xbb, 0x14, 0x3e, 0x5d, 0x7d, 0xa6, 0x3e,
	0x52, 0xd1, 0x41, 0x3e, 0x66, 0x6d, 0xdc, 0xbd, 0xd4, 0xaa, 0x30, 0xbe,
	0x40, 0x67, 0x89, 0xbc, 0x1f, 0x36, 0x99, 0xbe, 0x49, 0x8e, 0xdf, 0x3d,
	0x14, 0xea, 0x8c, 0xbd, 0xe8, 0x87, 0x35, 0x3d, 0x9b, 0x1d, 0xac, 0x3e,
	0x16, 0x1f, 0x55, 0x3e, 0x7e, 0x1b, 0xe8, 0xbd, 0x2a, 0x7c, 0x84, 0xbe,
	0xd1, 0x44, 0x8c, 0xbe, 0xa7, 0x80, 0xa1, 0x3e, 0x8b, 0x13, 0x00, 0x3e,
	0xbf, 0xbb, 0x2c, 0x3e, 0x87, 0xb0, 0x97, 0x3e, 0xde, 0x5b, 0xbf, 0x3e,
	0x23, 0x54, 0x88, 0x3e, 0xf8, 0x97, 0xaa, 0x3d, 0xb2, 0x3c, 0xbf, 0x3d,
	0x60, 0x68, 0x40, 0xbd, 0x4c, 0x0c, 0x17, 0x3e, 0xe6, 0xc6, 0x80, 0xbe,
	0x02, 0x4c, 0xd3, 0x3d, 0x22, 0x8a, 0xa2, 0xbe, 0xfe, 0x71, 0x32, 0xbe,
	0x0d, 0x75, 0xd7, 0x3c, 0x22, 0xf9, 0xce, 0x3c, 0xfb, 0x98, 0x4c, 0x3e,
	0x66, 0x94, 0x72, 0xbe, 0xb7, 0x38, 0x9b, 0x3e, 0xe8, 0xcf, 0x9a, 0xbe,
	0xef, 0xfd, 0x8d, 0x3c, 0xf3, 0x34, 0x58, 0xbe, 0x82, 0xc0, 0xa0, 0x3e,
	0x76, 0x20, 0x58, 0x3e, 0xf7, 0x61, 0x11, 0xbd, 0x3e, 0xff, 0xe5, 0xbd,
	0x52, 0x1c, 0xac, 0x3d, 0x5f, 0xc2, 0x15, 0xbe, 0x48, 0x11, 0x84, 0xbe,
	0xc0, 0x2e, 0x9c, 0x3c, 0xbb, 0xa6, 0x44, 0x3e, 0xee, 0x21, 0x85, 0x3e,
	0xaa, 0x7b, 0xca, 0xbd, 0x8d, 0x87, 0x84, 0xbe, 0x8f, 0x0c, 0xaa, 0xbd,
	0x88, 0x28, 0x37, 0xbe, 0xa0, 0xb7, 0xaf, 0xbd, 0x1c, 0xfe, 0x1a, 0xbe,
	0x4a, 0x9f, 0xe4, 0xbd, 0xb6, 0x77, 0x2e, 0x3e, 0x60, 0xca, 0x24, 0x3e,
	0x47, 0x58, 0x53, 0xbe, 0x7f, 0x61, 0x83, 0xbd, 0xf8, 0x33, 0x99, 0x3d,
	0x9b, 0x11, 0x12, 0xbe, 0xcd, 0x98, 0x92, 0xbe, 0xee, 0xb4, 0x37, 0x3e,
	0xb4, 0x5d, 0x0a, 0xbd, 0x01, 0x72, 0xa3, 0x3e, 0xae, 0xb8, 0xfc, 0xbd,
	0x49, 0x79, 0xda, 0xbd, 0x6a, 0xcb, 0xff, 0xff, 0x30, 0x00, 0x00, 0x00,
	0x07, 0x00, 0x00, 0x00, 0x08, 0x00, 0x00, 0x00, 0x30, 0x00, 0x00, 0x00,
	0x19, 0x00, 0x00, 0x00, 0x73, 0x65, 0x71, 0x75, 0x65, 0x6e, 0x74, 0x69,
	0x61, 0x6c, 0x2f, 0x64, 0x65, 0x6e, 0x73, 0x65, 0x5f, 0x32, 0x2f, 0x4d,
	0x61, 0x74, 0x4d, 0x75, 0x6c, 0x00, 0x00, 0x00, 0x02, 0x00, 0x00, 0x00,
	0x03, 0x00, 0x00, 0x00, 0x32, 0x00, 0x00, 0x00, 0xec, 0xca, 0xff, 0xff,
	0x8a, 0xcc, 0xff, 0xff, 0x04, 0x00, 0x00, 0x00, 0x10, 0x27, 0x00, 0x00,
	0x55, 0x7b, 0x87, 0x3e, 0xd6, 0xe3, 0x86, 0xbd, 0xe3, 0x93, 0xfc, 0x3c,
	0xb0, 0x20, 0x94, 0xbc, 0x47, 0x7e, 0x60, 0xbe, 0xfa, 0x95, 0x60, 0x3e,
	0x2c, 0x0a, 0x59, 0xbe, 0x39, 0xae, 0x21, 0x3e, 0xe3, 0x7c, 0x59, 0x3e,
	0x3e, 0x93, 0x88, 0x3d, 0x36, 0xf1, 0x42, 0xbe, 0x78, 0xcb, 0x92, 0xbc,
	0x01, 0x46, 0x16, 0x3e, 0x3e, 0x06, 0x90, 0xbd, 0x60, 0xb4, 0x48, 0xbd,
	0x28, 0xba, 0xff, 0x3c, 0x48, 0x0d, 0x4c, 0xbe, 0xc9, 0x0a, 0x29, 0x3e,
	0x73, 0x27, 0x40, 0x3e, 0x94, 0x9e, 0xfe, 0x3d, 0x9e, 0xeb, 0xf9, 0x3d,
	0x0a, 0xc3, 0x53, 0x3e, 0x01, 0x4e, 0x65, 0xbe, 0xac, 0xb3, 0xbb, 0xbd,
	0x66, 0x6e, 0x4c, 0xbe, 0xf8, 0x4e, 0x1c, 0xbe, 0x77, 0x05, 0xcd, 0xbd,
	0xc0, 0xe6, 0x16, 0xbe, 0x7f, 0x87, 0x0a, 0x3e, 0x90, 0x6c, 0x68, 0x3c,
	0x6a, 0xf3, 0x8e, 0x3d, 0xd9, 0x29, 0x31, 0x3e, 0x70, 0x8a, 0x04, 0x3e,
	0x79, 0x2e, 0x16, 0x3e, 0x90, 0x3e, 0x7a, 0xbe, 0x28, 0x85, 0xcb, 0x3d,
	0x76, 0x86, 0x9c, 0x3d, 0xeb, 0x53, 0xad, 0x3c, 0x8b, 0x66, 0x57, 0x3e,
	0x97, 0x72, 0x2e, 0x3e, 0x1c, 0xf9, 0x02, 0xbd, 0xb0, 0x66, 0x2c, 0xbc,
	0x2e, 0xc9, 0xa6, 0x3d, 0x3a, 0xe6, 0xd5, 0xbd, 0x27, 0x83, 0x97, 0x3d,
	0x7b, 0xab, 0xac, 0xbc, 0x83, 0x00, 0x18, 0x3d, 0x91, 0xe1, 0x5b, 0x3e,
	0xba, 0x79, 0x3e, 0xbe, 0x18, 0xc4, 0x3f, 0x3e, 0xbd, 0x67, 0x28, 0xbe,
	0xba, 0x8b, 0x5b, 0xbe, 0xd4, 0x12, 0x25, 0x3e, 0x77, 0xf2, 0x4f, 0x3e,
	0xf7, 0xa4, 0x1f, 0xbe, 0x93, 0xc8, 0x1b, 0xbe, 0xa7, 0xa7, 0x38, 0xbe,
	0x75, 0xa1, 0x6b, 0x3e, 0xc2, 0x40, 0x86, 0x3d, 0xfa, 0xab, 0x48, 0x3e,
	0xed, 0x04, 0x99, 0xbd, 0x9b, 0x02, 0x2f, 0x3e, 0xe3, 0x27, 0xbb, 0xbd,
	0x3b, 0x2e, 0x54, 0xbe, 0xf0, 0xd0, 0x24, 0xbc, 0xcf, 0x74, 0x35, 0x3e,
	0x69, 0xb6, 0x00, 0x3e, 0x4d, 0x18, 0x6c, 0x3e, 0x37, 0xab, 0x05, 0x3e,
	0xa2, 0x5f, 0xc1, 0x3c, 0x79, 0x10, 0x2d, 0x3e, 0x10, 0x5d, 0x18, 0xbe,
	0x41, 0x2a, 0x12, 0x3e, 0x8e, 0x5e, 0xa1, 0x3d, 0x8b, 0xf7, 0xde, 0xbd,
	0x5b, 0x16, 0x5e, 0xbe, 0x3b, 0x87, 0x1e, 0x3e, 0xce, 0x3c, 0x83, 0x3d,
	0x8c, 0xe3, 0x02, 0xbe, 0x10, 0xed, 0xc2, 0xbd, 0x6f, 0x3f, 0x52, 0x3e,
	0xe9, 0xbf, 0x4e, 0x3d, 0x9e, 0xf9, 0x68, 0x3e, 0xd6, 0x4f, 0x8c, 0xbd,
	0xae, 0xaf, 0x51, 0xbe, 0x1e, 0x90, 0x9d, 0xbd, 0x2a, 0x3c, 0xba, 0x3d,
	0x76, 0xad, 0x92, 0x3d, 0x17, 0x97, 0x64, 0xbe, 0xf1, 0x8a, 0x60, 0xbe,
	0x2f, 0xfd, 0x0a, 0x3e, 0x40, 0xf4, 0x3e, 0xbc, 0xfb, 0xd7, 0x27, 0x3e,
	0xed, 0xa5, 0x20, 0x3e, 0x9f, 0x91, 0x40, 0x3e, 0xac, 0x89, 0x24, 0x3e,
	0x95, 0xf2, 0x05, 0xbd, 0x9c, 0x10, 0xf3, 0x3d, 0xd3, 0x64, 0x91, 0xbc,
	0x84, 0xc6, 0x02, 0xbe, 0xb0, 0x7f, 0xc6, 0x3d, 0x07, 0x5e, 0x18, 0x3e,
	0xcd, 0x8a, 0x2c, 0x3e, 0x26, 0x7b, 0x20, 0xbe, 0x45, 0x7f, 0x61, 0x3e,
	0x6e, 0x1f, 0xf9, 0x3b, 0x09, 0xdf, 0xcd, 0xbd, 0x3c, 0x6e, 0x45, 0x3d,
	0x64, 0x55, 0x3f, 0x3d, 0x47, 0x89, 0x90, 0x3d, 0x69, 0x3a, 0x4b, 0xbe,
	0x5c, 0x57, 0x94, 0xbd, 0x8f, 0x32, 0xa1, 0xbd, 0x68, 0xf2, 0xb0, 0x3c,
	0x0c, 0x4b, 0x35, 0x3d, 0x49, 0x64, 0x17, 0x3e, 0x62, 0x98, 0x67, 0xbe,
	0x8c, 0x6d, 0x5f, 0xbd, 0xa5, 0xc8, 0x50, 0xbe, 0xdb, 0xd0, 0x32, 0x3e,
	0xd8, 0x33, 0x73, 0x3e, 0x71, 0x2c, 0x98, 0x3d, 0x63, 0x07, 0x2b, 0x3e,
	0xd6, 0x87, 0xdb, 0xbd, 0x33, 0xae, 0x23, 0x3e, 0xc6, 0x3a, 0x06, 0xbe,
	0xfd, 0xde, 0x66, 0x3e, 0x26, 0x5e, 0x2b, 0xbe, 0x80, 0xa5, 0xd7, 0xbc,
	0x6e, 0xb3, 0x01, 0xbe, 0xf0, 0x43, 0x47, 0xbe, 0x6e, 0xa5, 0x3c, 0x3e,
	0x57, 0x6f, 0x28, 0x3e, 0x58, 0xb0, 0x25, 0xbd, 0xb0, 0xe3, 0x77, 0x3e,
	0x2e, 0x47, 0x7a, 0xbe, 0xcc, 0xd7, 0x4e, 0x3d, 0x5a, 0x6b, 0xfe, 0xbd,
	0x5e, 0x9b, 0xcb, 0xbd, 0x80, 0x56, 0x4a, 0xbe, 0xce, 0x0b, 0x90, 0x3d,
	0xdc, 0x53, 0x42, 0x3d, 0x8d, 0xfb, 0x4a, 0x3e, 0xbf, 0xbe, 0xc2, 0xbd,
	0xbb, 0xb8, 0x5b, 0xbe, 0x3f, 0x48, 0x07, 0xbe, 0xdf, 0xfd, 0xa6, 0x3d,
	0xf2, 0x58, 0x30, 0xbe, 0x0f, 0xe6, 0xf7, 0xbd, 0x13, 0x4e, 0x55, 0xbe,
	0xdd, 0x22, 0xa4, 0xbd, 0x28, 0xca, 0xf0, 0x3c, 0xb8, 0xe1, 0x76, 0xbe,
	0x4d, 0x1b, 0x30, 0x3e, 0x07, 0xe0, 0xd9, 0x3d, 0x30, 0xe7, 0x1e, 0xbe,
	0xfe, 0x8b, 0x87, 0x3b, 0x45, 0x8f, 0x65, 0x3e, 0x81, 0xe4, 0x18, 0x3e,
	0x82, 0x04, 0x19, 0x3e, 0xa9, 0x69, 0x6d, 0xbe, 0xb4, 0x13, 0x63, 0x3d,
	0x86, 0x43, 0x20, 0xbe, 0x08, 0xc5, 0xa0, 0xbd, 0x50, 0x30, 0xcd, 0xbc,
	0x6c, 0xf2, 0x48, 0xbe, 0x2d, 0xb5, 0x1c, 0xbe, 0x87, 0x7a, 0x0f, 0xbe,
	0x34, 0x22, 0x15, 0xbe, 0x10, 0xff, 0x2c, 0x3e, 0xb4, 0xd7, 0xa0, 0x3d,
	0x85, 0xc1, 0x84, 0x3c, 0x06, 0xdb, 0xf7, 0x3d, 0x3c, 0xf5, 0xfc, 0x3d,
	0xd5, 0x79, 0x67, 0xbe, 0x86, 0x46, 0xf2, 0x3d, 0x4a, 0xa9, 0x4e, 0x3e,
	0x48, 0x67, 0x57, 0xbe, 0x66, 0xf3, 0xcf, 0x3d, 0x86, 0x1b, 0xa2, 0x3d,
	0x52, 0xef, 0xbd, 0x3d, 0x28, 0xee, 0x16, 0x3e, 0x4d, 0x9a, 0x1d, 0x3e,
	0x98, 0xb2, 0xb9, 0xbc, 0x2d, 0xd0, 0x55, 0xbd, 0x3d, 0xf9, 0xc9, 0xbc,
	0xca, 0x03, 0x25, 0xbe, 0x17, 0x9f, 0x13, 0xbe, 0xae, 0x08, 0x82, 0x3d,
	0x2c, 0xbc, 0x20, 0x3d, 0xb5, 0x96, 0x01, 0x3e, 0x1c, 0x4d, 0xdb, 0xbd,
	0x18, 0xb4, 0x52, 0xbd, 0x9c, 0x27, 0x48, 0xbe, 0x8e, 0x00, 0xe6, 0xbd,
	0x00, 0x57, 0xcc, 0xbc, 0x01, 0xf1, 0x13, 0x3c, 0xad, 0x61, 0x53, 0x3b,
	0x47, 0xec, 0x1e, 0x3e, 0x56, 0x50, 0x14, 0x3e, 0x31, 0x12, 0x55, 0xbd,
	0x37, 0x81, 0x37, 0x3e, 0x4a, 0x65, 0x52, 0x3e, 0xd2, 0x21, 0x81, 0x3d,
	0xb7, 0xc4, 0x4e, 0x3e, 0x91, 0xc5, 0x37, 0x3e, 0x6d, 0x8b, 0x54, 0xbc,
	0x24, 0xbf, 0x78, 0x3d, 0x1e, 0x40, 0xae, 0xbd, 0xbd, 0x09, 0x61, 0x3e,
	0x2b, 0x85, 0x07, 0xbe, 0x36, 0x3f, 0xa5, 0x3d, 0x4e, 0xde, 0x64, 0x3e,
	0xb7, 0xd5, 0x19, 0x3e, 0x50, 0xb9, 0x17, 0xbc, 0x83, 0x99, 0x14, 0x3e,
	0x7a, 0xc1, 0x87, 0x3d, 0x39, 0xac, 0x61, 0x3e, 0x16, 0x2d, 0x1a, 0xbe,
	0x07, 0x76, 0x43, 0x3e, 0x37, 0x88, 0x6a, 0x3e, 0x95, 0xff, 0x95, 0x3d,
	0x86, 0x38, 0xbb, 0x3d, 0x84, 0x57, 0xc2, 0x3c, 0x7d, 0x20, 0x23, 0x3e,
	0x42, 0xea, 0xe0, 0x3d, 0x99, 0x10, 0x89, 0xbd, 0xa8, 0x4d, 0xf4, 0xbd,
	0xa0, 0xb0, 0x00, 0xbe, 0x68, 0x9e, 0x36, 0xbd, 0x1f, 0x15, 0x04, 0x3e,
	0xab, 0x0a, 0x2e, 0xbe, 0xe3, 0x33, 0x1f, 0x3e, 0x2e, 0x03, 0x1f, 0xbe,
	0x78, 0xe7, 0x69, 0x3e, 0x6f, 0x33, 0x49, 0x3e, 0xfa, 0x7e, 0x57, 0xbe,
	0xfa, 0xbf, 0x73, 0x3e, 0xea, 0x06, 0x92, 0x3d, 0xc0, 0x67, 0x3a, 0xbe,
	0xe8, 0xd6, 0xd0, 0x3c, 0x00, 0xba, 0xa1, 0xb9, 0x5c, 0x44, 0x43, 0xbe,
	0x3a, 0xc5, 0x0b, 0xbe, 0x5a, 0xe2, 0x48, 0x3e, 0x00, 0x6f, 0x4b, 0xbe,
	0x05, 0x4d, 0x32, 0xbe, 0x90, 0xc3, 0x9b, 0xbd, 0x7f, 0xab, 0x62, 0xbe,
	0x28, 0xe2, 0x10, 0xbe, 0xc2, 0xac, 0xc0, 0xbd, 0x62, 0x1a, 0xc4, 0x3d,
	0x8b, 0xe5, 0x40, 0xbe, 0xae, 0x12, 0x96, 0x3d, 0xd4, 0x9c, 0x50, 0xbe,
	0x24, 0x23, 0x1c, 0xbe, 0x28, 0x74, 0x00, 0xbe, 0x84, 0x5a, 0x4d, 0x3d,
	0x56, 0x3d, 0x8a, 0x3d, 0x9d, 0x35, 0x49, 0x3e, 0x93, 0xb3, 0x2b, 0x3e,
	0xb6, 0xb8, 0xa7, 0x3d, 0x06, 0x46, 0xd4, 0x3d, 0xc9, 0x30, 0x53, 0x3e,
	0xda, 0x95, 0x57, 0xbe, 0xa3, 0xce, 0x72, 0x3e, 0x60, 0x93, 0xa5, 0xbd,
	0xd7, 0x6e, 0x27, 0xbe, 0x91, 0x59, 0x51, 0x3e, 0xf0, 0xbb, 0x84, 0xbc,
	0xa8, 0xbe, 0x6e, 0xbe, 0x0a, 0x6f, 0x9d, 0x3d, 0xc8, 0xbd, 0x5c, 0xbd,
	0xf8, 0xed, 0xad, 0xbc, 0xe0, 0x88, 0x9f, 0xbb, 0x72, 0xe3, 0xf5, 0xbd,
	0xff, 0x26, 0x64, 0x3e, 0x1e, 0x9a, 0x9b, 0x3d, 0xd0, 0xcb, 0x8c, 0xbd,
	0x38, 0xd3, 0xc1, 0xbd, 0xe2, 0x5a, 0x32, 0xbe, 0xe9, 0x77, 0x52, 0xbe,
	0x4c, 0xbc, 0x6c, 0xbd, 0x4c, 0x06, 0x41, 0xbd, 0xe4, 0x27, 0x16, 0x3d,
	0x00, 0xa1, 0x22, 0xbc, 0x5c, 0x18, 0x4e, 0x3d, 0x08, 0x30, 0x74, 0xbe,
	0xce, 0xb0, 0x8e, 0x3d, 0xa7, 0xde, 0x62, 0x3e, 0xe0, 0xb6, 0x4b, 0xbe,
	0x14, 0xe9, 0x16, 0xbe, 0x23, 0x25, 0x3f, 0x3e, 0x6c, 0x61, 0xe0, 0xbd,
	0x9c, 0xf1, 0x05, 0x3d, 0x43, 0x67, 0x34, 0x3e, 0x60, 0x9a, 0x69, 0xbe,
	0xe5, 0xe2, 0x5a, 0x3e, 0x85, 0x19, 0x05, 0xbe, 0x9d, 0x9e, 0x59, 0x3e,
	0x18, 0xb1, 0x13, 0x3e, 0x3c, 0x6e, 0x4c, 0xbe, 0xbc, 0x0d, 0x0a, 0x3e,
	0xa5, 0x5a, 0x11, 0x3e, 0x72, 0xdb, 0x23, 0x3e, 0x5a, 0xa7, 0x14, 0x3e,
	0x14, 0x8a, 0xcb, 0xbd, 0x55, 0x16, 0x70, 0x3e, 0x82, 0x10, 0xd5, 0x3d,
	0x1e, 0x53, 0x5d, 0xbe, 0x63, 0x0c, 0x77, 0x3d, 0x88, 0x5c, 0x13, 0xbe,
	0xcd, 0xd4, 0x22, 0x3e, 0xea, 0x27, 0x36, 0xbe, 0x05, 0xa1, 0x41, 0x3e,
	0x8b, 0x84, 0x5a, 0xbe, 0x03, 0xac, 0x04, 0x3e, 0xfd, 0xd2, 0x17, 0x3e,
	0x7a, 0x31, 0xf1, 0x3d, 0x07, 0xa8, 0xc7, 0xbd, 0x65, 0x41, 0x61, 0xbe,
	0xd9, 0xc3, 0x3f, 0x3d, 0x6e, 0xa1, 0x99, 0x3d, 0xfd, 0x49, 0x71, 0xbe,
	0x54, 0xec, 0x28, 0x3e, 0x7b, 0x6e, 0x6e, 0x3e, 0x4a, 0xb2, 0xd8, 0x3d,
	0x45, 0x80, 0x1d, 0x3e, 0x58, 0x8d, 0x25, 0xbe, 0x96, 0xe5, 0xc1, 0x3d,
	0x9a, 0xc9, 0xce, 0x3d, 0x08, 0x55, 0x1a, 0x3e, 0x0f, 0x61, 0x13, 0x3e,
	0x98, 0x7e, 0x8c, 0xbc, 0xc4, 0x0a, 0x58, 0xbc, 0x4e, 0x10, 0x12, 0xbe,
	0x69, 0xa1, 0x29, 0x3e, 0x39, 0xfd, 0x03, 0x3e, 0x0e, 0x72, 0xd5, 0xbd,
	0x6f, 0xf0, 0x4f, 0x3e, 0x9f, 0xe5, 0x0b, 0x3e, 0xa8, 0xf0, 0x91, 0xbd,
	0xb5, 0x9b, 0x1d, 0x3e, 0x71, 0xb0, 0x13, 0xbe, 0x36, 0x8a, 0x15, 0xbd,
	0xee, 0xb3, 0x36, 0xbe, 0xb8, 0xff, 0x5a, 0xbd, 0xeb, 0x8e, 0x6f, 0xbe,
	0xcd, 0x78, 0x94, 0x3d, 0xee, 0xb6, 0x6f, 0xbd, 0x38, 0xcf, 0xe6, 0x3c,
	0x84, 0xb4, 0x49, 0xbe, 0x53, 0x4e, 0x2f, 0x3e, 0x41, 0x60, 0x30, 0x3e,
	0x3a, 0xc6, 0xca, 0xbd, 0x81, 0x0c, 0x4f, 0x3e, 0xa1, 0xe8, 0x23, 0x3e,
	0x3d, 0x89, 0x3e, 0x3e, 0x3b, 0x90, 0x3c, 0x3e, 0xcb, 0x7f, 0x0a, 0x3e,
	0x61, 0x0c, 0x68, 0x3e, 0x14, 0xc8, 0x39, 0x3d, 0xb0, 0x8a, 0x1b, 0xbe,
	0x2a, 0x35, 0xdb, 0xbd, 0x3a, 0xfa, 0x9b, 0x3d, 0x08, 0x01, 0x01, 0xbe,
	0xeb, 0x4d, 0x0b, 0x3e, 0xc2, 0x7d, 0x32, 0xbe, 0xf4, 0x0d, 0x59, 0xbe,
	0x11, 0x1f, 0x29, 0xbe, 0x9e, 0x95, 0xa6, 0x3d, 0xf0, 0xd1, 0x78, 0xbe,
	0xf8, 0x7f, 0x70, 0xbe, 0x54, 0x7e, 0x61, 0x3d, 0x11, 0x2f, 0x7a, 0xbe,
	0xd4, 0x46, 0x5f, 0xbe, 0x57, 0xf6, 0x12, 0xbe, 0x16, 0x6c, 0x27, 0xbe,
	0x16, 0x70, 0xee, 0xbd, 0xf4, 0x26, 0x70, 0xbd, 0x2e, 0xed, 0xf3, 0x3d,
	0xb8, 0x4e, 0x8b, 0xbc, 0x70, 0x04, 0x0a, 0x3c, 0x76, 0x67, 0x6a, 0xbe,
	0x6d, 0x2c, 0x19, 0x3e, 0x56, 0x83, 0x25, 0xbe, 0x3e, 0xc3, 0x3c, 0xbe,
	0x2f, 0x42, 0x49, 0xbe, 0xe0, 0x1b, 0x3a, 0xbe, 0xc0, 0xd1, 0xb3, 0xbc,
	0x9b, 0x3e, 0xfa, 0xbd, 0xa6, 0xc6, 0xe2, 0x3d, 0x34, 0xe0, 0x26, 0xbd,
	0x2d, 0xa6, 0x1e, 0x3e, 0xe0, 0x6f, 0x8b, 0x3b, 0x08, 0x7c, 0x6e, 0xbe,
	0x87, 0x73, 0x6a, 0x3e, 0x28, 0x10, 0xa9, 0xbc, 0xdc, 0x2a, 0x11, 0xbd,
	0xd8, 0x20, 0x12, 0xbd, 0x93, 0x61, 0x68, 0x3e, 0x91, 0x1b, 0x68, 0xbe,
	0xef, 0x60, 0x61, 0xbe, 0x4e, 0xe5, 0x86, 0x3d, 0x85, 0x02, 0x2a, 0x3e,
	0x17, 0x47, 0x4b, 0x3e, 0x3d, 0x8b, 0x13, 0xbe, 0xe2, 0x17, 0xd9, 0x3d,
	0x80, 0xc8, 0x5c, 0xbc, 0xed, 0xf2, 0x2d, 0xbe, 0x30, 0xd0, 0x24, 0xbc,
	0xcd, 0x0f, 0x00, 0x3e, 0x3c, 0x68, 0xb0, 0xbd, 0xe4, 0xab, 0x70, 0xbe,
	0x53, 0x10, 0x29, 0xbe, 0x64, 0xc5, 0x09, 0x3d, 0xdb, 0xd7, 0x3e, 0x3e,
	0x8a, 0x77, 0x35, 0xbe, 0x1d, 0x55, 0x5a, 0xbe, 0xc4, 0x70, 0x7c, 0x3d,
	0xfc, 0x56, 0x41, 0xbe, 0xa6, 0xa4, 0xb4, 0x3d, 0x00, 0x8c, 0xd0, 0xb9,
	0x68, 0xe9, 0x87, 0xbc, 0x86, 0x4b, 0xa9, 0xbd, 0x50, 0xf0, 0x27, 0xbe,
	0xb6, 0x83, 0x4a, 0xbe, 0x7d, 0x4a, 0x03, 0x3e, 0x89, 0x4c, 0x31, 0x3e,
	0x58, 0xd9, 0x8b, 0xbd, 0x93, 0xe1, 0x59, 0xbe, 0x82, 0x18, 0xc2, 0x3d,
	0x86, 0xc9, 0xa8, 0x3d, 0x6a, 0x38, 0x21, 0xbe, 0x8a, 0xa1, 0x76, 0xbe,
	0xc9, 0x70, 0x05, 0x3e, 0xe7, 0xc9, 0x3d, 0x3e, 0x20, 0x4e, 0xa1, 0xbc,
	0x35, 0x30, 0x12, 0xbe, 0xf0, 0x98, 0x3a, 0xbc, 0xcf, 0x16, 0x35, 0x3e,
	0x95, 0x15, 0x75, 0xbe, 0x58, 0xf6, 0x78, 0xbe, 0xd3, 0xc1, 0x6d, 0x3e,
	0x14, 0x23, 0xc3, 0xbd, 0x35, 0x77, 0x40, 0x3e, 0x8b, 0xd3, 0x6a, 0xbe,
	0xfc, 0xbb, 0x2f, 0xbe, 0xcd, 0x46, 0x70, 0x3e, 0xc4, 0x86, 0x7d, 0x3d,
	0x79, 0x95, 0xa6, 0x3d, 0xd5, 0x5e, 0x1b, 0x3e, 0xb2, 0x2a, 0xba, 0xbd,
	0xc8, 0x8c, 0x1e, 0xbd, 0x2d, 0x48, 0x43, 0x3e, 0x03, 0x95, 0x78, 0xbe,
	0xad, 0xc0, 0x75, 0xbe, 0x00, 0xd1, 0xc4, 0xba, 0x8e, 0xc7, 0xb5, 0x3d,
	0xe0, 0x16, 0x9e, 0xbd, 0xdb, 0x1e, 0x99, 0x3d, 0x01, 0xe7, 0x70, 0x3e,
	0xfe, 0x33, 0x5f, 0xbd, 0xeb, 0xcd, 0x74, 0x3e, 0x08, 0x14, 0xde, 0x3c,
	0xe4, 0xbd, 0x32, 0xbe, 0xd2, 0x14, 0x13, 0xbe, 0x4f, 0x1e, 0x75, 0x3e,
	0xb1, 0x3d, 0x19, 0x3e, 0x90, 0x2b, 0x21, 0x3e, 0x5c, 0x40, 0x30, 0x3d,
	0x53, 0x80, 0x05, 0x3e, 0xd0, 0x27, 0x63, 0x3c, 0x48, 0xb9, 0x0f, 0xbd,
	0xf6, 0x37, 0x11, 0xbe, 0xe8, 0xd3, 0x9f, 0xbc, 0x52, 0xda, 0x2f, 0xbe,
	0xfb, 0x2c, 0x29, 0x3e, 0x84, 0x0d, 0x55, 0xbe, 0x41, 0xb5, 0x01, 0x3e,
	0xd0, 0xcd, 0x13, 0x3c, 0x6f, 0xeb, 0xd1, 0xbd, 0xf4, 0x7b, 0x19, 0x3e,
	0x05, 0xa0, 0x16, 0x3e, 0xff, 0xd2, 0x87, 0x3d, 0x56, 0x46, 0xc7, 0x3d,
	0x1e, 0xe3, 0xed, 0x3d, 0xc9, 0x94, 0x49, 0x3e, 0x30, 0xff, 0xa6, 0xbc,
	0xaa, 0x2f, 0xd0, 0x3d, 0x02, 0x47, 0x00, 0xbe, 0xc3, 0x05, 0x0f, 0x3e,
	0xe9, 0x9d, 0x03, 0xbe, 0x9f, 0x5a, 0x5d, 0xbe, 0x71, 0xb0, 0x02, 0x3e,
	0xb7, 0xd9, 0x1f, 0x3c, 0xaf, 0xc0, 0x22, 0xbe, 0x8f, 0x8d, 0x5d, 0x3e,
	0xd1, 0xbc, 0x1e, 0xbe, 0x16, 0xc8, 0x07, 0xba, 0x94, 0xb3, 0x86, 0xbe,
	0x32, 0x5a, 0xbb, 0x3d, 0xc2, 0xf5, 0xfb, 0x3c, 0xdc, 0x1e, 0x02, 0xbd,
	0xc2, 0x2c, 0xfb, 0x3d, 0x81, 0xe4, 0x81, 0xbc, 0x9b, 0x9e, 0x59, 0x3d,
	0x98, 0x94, 0x34, 0xbe, 0x36, 0x1b, 0x2b, 0xbe, 0xfa, 0xc4, 0xba, 0x3d,
	0xa0, 0xee, 0x62, 0x3e, 0x31, 0x4f, 0x0b, 0xbe, 0x79, 0x0a, 0xf3, 0x3c,
	0x2d, 0x02, 0x1b, 0x3e, 0x5a, 0x81, 0x91, 0x3d, 0xc7, 0x81, 0x4e, 0x3e,
	0x32, 0x18, 0xe5, 0xbd, 0x89, 0x52, 0x27, 0x3e, 0xc6, 0x51, 0x7a, 0xbe,
	0xd2, 0x42, 0x19, 0x3d, 0xfc, 0x5a, 0x58, 0xbe, 0xd6, 0xf0, 0x17, 0x3d,
	0x40, 0xc8, 0x65, 0xbe, 0xb4, 0x2a, 0x4c, 0x3e, 0x60, 0xdb, 0x73, 0xbe,
	0x3d, 0x68, 0x41, 0x3e, 0x60, 0x40, 0x42, 0x3e, 0xf1, 0xf3, 0x2f, 0xbe,
	0x56, 0x60, 0xd0, 0x3d, 0x62, 0xbf, 0xf8, 0xbd, 0xe4, 0x03, 0x12, 0x3d,
	0xd0, 0x96, 0x66, 0xbe, 0x4b, 0x9f, 0x3d, 0x3b, 0x36, 0xc3, 0x00, 0xbe,
	0xad, 0x6a, 0x09, 0x3d, 0xf4, 0x4f, 0x92, 0xbd, 0x86, 0xda, 0xab, 0x3d,
	0xb8, 0x26, 0x33, 0x3d, 0x07, 0x0f, 0xfc, 0xbd, 0xc8, 0x12, 0x85, 0x3c,
	0x49, 0xf3, 0x49, 0x3e, 0xee, 0xaf, 0xd5, 0x3d, 0x60, 0x61, 0x6d, 0xbe,
	0x43, 0x52, 0x4e, 0x3e, 0x93, 0x7f, 0x26, 0xbe, 0xa6, 0x81, 0x1b, 0xbe,
	0x57, 0xca, 0x71, 0x3e, 0xb8, 0x34, 0x57, 0x3e, 0x59, 0x6e, 0x8b, 0xbd,
	0xbe, 0x74, 0x3e, 0xbc, 0x65, 0x8c, 0x02, 0x3e, 0xe4, 0x7e, 0x58, 0x3d,
	0x88, 0x72, 0xdd, 0xbd, 0x3a, 0xdb, 0xa1, 0x3d, 0xa3, 0x34, 0x51, 0x3e,
	0x78, 0x56, 0x2e, 0xbe, 0xc8, 0x45, 0x5d, 0xbe, 0xa0, 0xbf, 0x67, 0xbd,
	0x63, 0xcf, 0x2a, 0x3e, 0x5a, 0xd9, 0x0e, 0xbe, 0xe0, 0xdf, 0x1c, 0xbd,
	0xf5, 0x2c, 0x17, 0x3e, 0x90, 0x84, 0x29, 0xbd, 0x51, 0x18, 0x23, 0x3e,
	0xb0, 0xba, 0x3e, 0xbe, 0x38, 0x8a, 0xbe, 0xbd, 0x95, 0xc6, 0x0d, 0x3e,
	0x10, 0x12, 0x5b, 0xbe, 0x3c, 0x2c, 0x4f, 0xbd, 0x14, 0x55, 0x4d, 0x3d,
	0xcc, 0x85, 0x15, 0x3d, 0xd9, 0x25, 0x2f, 0xbe, 0xac, 0x52, 0x2f, 0x3d,
	0xb6, 0x87, 0xb0, 0x3d, 0x14, 0x4c, 0x62, 0x3d, 0x80, 0x6c, 0x47, 0xbc,
	0xbe, 0x08, 0xf8, 0xbd, 0x50, 0x5f, 0xd5, 0xbd, 0xb3, 0x53, 0x4a, 0x3e,
	0x3b, 0xcb, 0x27, 0x3e, 0x83, 0x23, 0x10, 0x3e, 0x46, 0x11, 0xfd, 0x3d,
	0x9c, 0x60, 0x3f, 0xbe, 0xe0, 0x3e, 0xaa, 0x3b, 0xf0, 0x78, 0x03, 0xbe,
	0x78, 0x9f, 0x85, 0x3c, 0x74, 0xf8, 0x5e, 0x3d, 0x80, 0xa9, 0x8c, 0x3a,
	0xdb, 0x83, 0x20, 0x3e, 0x46, 0xc5, 0x5c, 0xbe, 0xe8, 0xb1, 0xcc, 0x3c,
	0x80, 0x34, 0x5c, 0xbd, 0xea, 0x6f, 0xe6, 0xbd, 0x82, 0x40, 0xb8, 0x3d,
	0x68, 0xbf, 0x4e, 0xbd, 0x78, 0x2d, 0xc2, 0xbc, 0x82, 0x96, 0xb6, 0x3d,
	0x3d, 0x9b, 0x65, 0x3e, 0xbf, 0x68, 0x1f, 0x3e, 0x90, 0x22, 0x69, 0x3c,
	0x6c, 0x9b, 0x15, 0x3e, 0x90, 0x79, 0x2a, 0xbe, 0x1e, 0xc5, 0x0d, 0x3d,
	0x81, 0xb0, 0x4b, 0x3e, 0x27, 0x39, 0x03, 0x3d, 0x96, 0xac, 0x03, 0x3e,
	0x86, 0xbf, 0x06, 0xbe, 0xb3, 0x5b, 0x47, 0xbe, 0x81, 0x71, 0x42, 0xbe,
	0x56, 0x7d, 0x54, 0xbe, 0xd7, 0xdb, 0x07, 0x3e, 0x2e, 0x88, 0x72, 0xbe,
	0xe1, 0xae, 0xa2, 0xbb, 0x89, 0xd7, 0x17, 0x3e, 0xb0, 0xb7, 0xd8, 0xbd,
	0xd2, 0x7d, 0x97, 0x3d, 0x7a, 0x49, 0x91, 0x3d, 0xa8, 0xd7, 0x02, 0xbe,
	0x6e, 0x88, 0xae, 0x3d, 0x12, 0x15, 0x39, 0x3d, 0x63, 0xbe, 0x9a, 0xbd,
	0x5a, 0x65, 0x1b, 0x3d, 0x2a, 0x4a, 0x09, 0xbe, 0xc7, 0xa7, 0xbf, 0xbd,
	0x4e, 0x73, 0x28, 0x3e, 0x80, 0x86, 0x1d, 0x3b, 0x9c, 0x7d, 0x77, 0x3d,
	0x15, 0x40, 0x49, 0x3e, 0x63, 0x84, 0x31, 0x3e, 0x2f, 0x6b, 0x3c, 0xbe,
	0xee, 0xc2, 0x4d, 0xbe, 0x8a, 0x97, 0x51, 0x3d, 0xc4, 0x68, 0x47, 0xbe,
	0x35, 0xbb, 0x73, 0xbe, 0x74, 0x34, 0x99, 0x3d, 0xcf, 0xd3, 0x69, 0xbe,
	0x60, 0x85, 0x27, 0xbe, 0xc9, 0x92, 0xa9, 0x3d, 0x60, 0xad, 0x83, 0xbc,
	0x42, 0xb6, 0xeb, 0xbd, 0x3c, 0x49, 0x20, 0x3d, 0x19, 0x17, 0x5b, 0xbe,
	0xe2, 0x89, 0x08, 0xbe, 0xb2, 0x35, 0x43, 0xbd, 0xcf, 0xa3, 0x5f, 0xbe,
	0x7e, 0xac, 0x4f, 0xbd, 0x3d, 0xa2, 0xd3, 0x3d, 0xe4, 0xb4, 0x45, 0x3c,
	0x93, 0x6a, 0xc2, 0xbc, 0x3d, 0xef, 0xab, 0x3d, 0xbf, 0x5a, 0xff, 0x3d,
	0x8c, 0xf6, 0x35, 0x3d, 0x30, 0xac, 0x88, 0xbd, 0x76, 0x0a, 0xed, 0x3d,
	0x38, 0xcb, 0xfe, 0x3d, 0x9e, 0x5a, 0x96, 0xbd, 0x88, 0x9c, 0x91, 0x3d,
	0xd5, 0x46, 0x54, 0x3e, 0x2b, 0xf9, 0x76, 0x3e, 0x11, 0xba, 0x38, 0xbd,
	0x4a, 0xed, 0x3a, 0xbd, 0x57, 0xbd, 0x0a, 0x3e, 0x49, 0xd5, 0xc0, 0x3d,
	0x64, 0xa6, 0x1e, 0x3d, 0xda, 0x21, 0x14, 0xbe, 0x40, 0xf9, 0x4f, 0xbd,
	0x78, 0xe0, 0x98, 0xbc, 0x02, 0xe1, 0xb5, 0x3d, 0x57, 0x38, 0x56, 0x3e,
	0x69, 0x9b, 0x0e, 0x3e, 0x0b, 0xe3, 0x0f, 0x3e, 0xa4, 0xb0, 0x25, 0xbe,
	0x60, 0x85, 0x77, 0xbe, 0x83, 0x5c, 0x14, 0xbe, 0x23, 0xa1, 0xb0, 0x3d,
	0x48, 0x1c, 0x5f, 0xbe, 0x9e, 0xa4, 0x5d, 0x3e, 0x4c, 0x99, 0x3d, 0x3d,
	0xd0, 0x52, 0x79, 0xbc, 0xa9, 0xf5, 0x6d, 0x3e, 0xbe, 0x36, 0xb8, 0x3d,
	0x02, 0x22, 0x4f, 0xbe, 0xf3, 0x34, 0x0d, 0x3e, 0x4d, 0x0c, 0x40, 0x3e,
	0xbd, 0xfa, 0x47, 0xbe, 0x9c, 0x20, 0x49, 0xbe, 0xeb, 0xf3, 0x25, 0x3e,
	0x95, 0x2f, 0x9d, 0xbd, 0x64, 0x87, 0x22, 0x3d, 0xa8, 0xb9, 0xeb, 0x3c,
	0xca, 0xc7, 0x35, 0xbe, 0x04, 0xce, 0x2c, 0x3d, 0xce, 0x92, 0xec, 0xbd,
	0x90, 0xcd, 0x5f, 0x3e, 0xde, 0x8e, 0xe7, 0x3d, 0x7f, 0xc5, 0x6a, 0x3e,
	0x9a, 0xee, 0xf2, 0x3d, 0xfa, 0x1b, 0x61, 0x3e, 0x07, 0x36, 0x14, 0xbe,
	0x0c, 0xe4, 0xee, 0xbc, 0x3d, 0x56, 0x00, 0xbe, 0xdb, 0x7f, 0x61, 0x3e,
	0xb4, 0x46, 0x4b, 0xbe, 0xd3, 0x02, 0x74, 0xbe, 0xf3, 0x33, 0x52, 0xbe,
	0x52, 0x20, 0xe0, 0xbd, 0x08, 0x07, 0xc4, 0xbd, 0x60, 0x7f, 0xfb, 0x3b,
	0x30, 0xc4, 0xa8, 0xbd, 0x56, 0xdc, 0xe9, 0x3b, 0x9e, 0x41, 0xe1, 0x3d,
	0x02, 0xb2, 0x3f, 0xbe, 0x91, 0x39, 0x03, 0x3e, 0x44, 0xa0, 0x22, 0xbd,
	0xa0, 0x9d, 0x85, 0xbd, 0xe0, 0x4d, 0x0a, 0xbc, 0x3f, 0x7d, 0x1b, 0x3e,
	0xfe, 0x70, 0x1d, 0xbe, 0x09, 0x44, 0x5d, 0xbe, 0x37, 0x1a, 0x02, 0xbe,
	0x6f, 0xd5, 0x28, 0x3e, 0x56, 0x0a, 0x74, 0x3e, 0x84, 0xd3, 0x0e, 0xbe,
	0xf8, 0xae, 0x31, 0x3d, 0xa9, 0xfb, 0x4f, 0xbe, 0xc0, 0x74, 0xf5, 0xbb,
	0x6e, 0xab, 0x30, 0x3e, 0xb4, 0x6b, 0x06, 0x3d, 0xb0, 0x25, 0x47, 0xbc,
	0x74, 0x1f, 0x29, 0x3d, 0xa0, 0xe7, 0xb7, 0x3b, 0xe6, 0x2f, 0x9f, 0x3d,
	0xfa, 0x11, 0x20, 0x3e, 0x11, 0xbd, 0x67, 0x3e, 0x6e, 0x07, 0x78, 0xbd,
	0x9e, 0xbc, 0x28, 0xbe, 0x85, 0x06, 0x3a, 0x3e, 0xb2, 0x84, 0xe5, 0x3d,
	0x82, 0x38, 0xf8, 0x3d, 0xb5, 0x7a, 0x63, 0x3e, 0x30, 0x9b, 0x64, 0x3c,
	0xb5, 0x54, 0x2e, 0xbe, 0xb0, 0xee, 0x28, 0x3c, 0x4a, 0xcd, 0xd4, 0xbc,
	0xc5, 0x7e, 0x94, 0xbc, 0xb2, 0x9f, 0x1f, 0x3e, 0xaf, 0xd9, 0xce, 0xbd,
	0x93, 0x1d, 0x82, 0x3d, 0x4a, 0xe4, 0x39, 0x3e, 0xf3, 0x76, 0x38, 0xbe,
	0xe5, 0xe9, 0xc8, 0xbd, 0x94, 0xf7, 0x63, 0xbd, 0x79, 0xbe, 0x25, 0xbd,
	0xd4, 0xd6, 0x4f, 0x3d, 0xfa, 0xb5, 0x22, 0xbe, 0xec, 0x56, 0x30, 0xbe,
	0x33, 0x95, 0xe0, 0x3c, 0xbb, 0xf3, 0x5a, 0x3e, 0xf3, 0x2a, 0x60, 0xbe,
	0xcf, 0x1d, 0x19, 0x3e, 0xf0, 0xd6, 0x03, 0xbe, 0xf7, 0x81, 0x42, 0x3e,
	0xaa, 0xfb, 0x5d, 0x3e, 0x9d, 0x7a, 0x64, 0x3e, 0xcf, 0x68, 0x36, 0x3e,
	0x24, 0x4e, 0xfe, 0xbd, 0x1e, 0xd4, 0xaa, 0xbd, 0x3c, 0xe7, 0x15, 0xbd,
	0x92, 0x05, 0xab, 0x3d, 0xdc, 0xb0, 0xed, 0xbd, 0x81, 0x58, 0x63, 0xbe,
	0x00, 0xaf, 0xac, 0x3d, 0x99, 0x3a, 0x6d, 0x3e, 0x06, 0xa7, 0x11, 0x3e,
	0x44, 0xa6, 0x5b, 0x3e, 0x4e, 0xf4, 0xe6, 0x3d, 0xad, 0x65, 0xcb, 0x3c,
	0x54, 0x29, 0xb8, 0xbd, 0xe9, 0xb8, 0x1b, 0x3e, 0xb8, 0x2e, 0x68, 0xbe,
	0xfd, 0xbf, 0x10, 0x3e, 0xdf, 0x0d, 0x66, 0xbe, 0x90, 0x1b, 0xf0, 0xbc,
	0xe6, 0x38, 0x32, 0xbe, 0xd9, 0x12, 0x49, 0x3e, 0x91, 0xee, 0x32, 0x3e,
	0x3c, 0x5b, 0x52, 0x3d, 0x8e, 0x6f, 0x63, 0x3d, 0x12, 0xf3, 0xab, 0x3d,
	0x84, 0x2e, 0x00, 0x3d, 0x06, 0xcf, 0xc3, 0x3d, 0x70, 0xc1, 0x7f, 0x3c,
	0x89, 0xd2, 0x1a, 0x3e, 0x7b, 0xcb, 0x10, 0x3c, 0x7f, 0x9c, 0x0f, 0x3d,
	0xb4, 0x79, 0x66, 0x3e, 0x2d, 0xbe, 0x9c, 0x3a, 0xca, 0xab, 0xc1, 0x3d,
	0x2c, 0x77, 0x4a, 0x3d, 0x1c, 0xbe, 0x6c, 0x3e, 0x64, 0x6a, 0x53, 0xbe,
	0xec, 0xe7, 0xdc, 0xbd, 0x2a, 0x2c, 0x69, 0xbc, 0x51, 0x5d, 0x73, 0x3e,
	0xb4, 0x85, 0x99, 0x3d, 0x05, 0x53, 0x26, 0xbe, 0xe3, 0x3b, 0x80, 0xba,
	0x82, 0xd4, 0x9a, 0xbd, 0x38, 0x2e, 0x85, 0x3c, 0x5e, 0x98, 0x93, 0x3d,
	0x8d, 0xfa, 0xe5, 0x3d, 0xb2, 0x08, 0xff, 0x3d, 0x98, 0xee, 0xdd, 0x3d,
	0xc4, 0x25, 0x5b, 0x3d, 0x8a, 0xd9, 0x9c, 0xbd, 0x19, 0x7a, 0x2a, 0x3e,
	0xd4, 0xc9, 0x00, 0xbd, 0xca, 0x08, 0x93, 0xbd, 0xdf, 0x59, 0x78, 0x3e,
	0x3e, 0x6e, 0x3c, 0x3e, 0xd2, 0xe8, 0xf6, 0xbd, 0xdc, 0x49, 0x71, 0x3d,
	0x13, 0x87, 0x6a, 0xbe, 0x01, 0x49, 0x43, 0x3e, 0x42, 0x56, 0x93, 0xbb,
	0x2b, 0x02, 0x6f, 0x3e, 0xd9, 0x0e, 0x11, 0x3e, 0xf1, 0x08, 0x49, 0x3e,
	0x81, 0x8a, 0x36, 0x3e, 0x0e, 0xa7, 0xbe, 0x3d, 0x2c, 0x8b, 0x09, 0xbe,
	0x52, 0x27, 0x91, 0xbb, 0xfb, 0x78, 0x57, 0x3e, 0x13, 0x74, 0x25, 0x3e,
	0x22, 0x11, 0x5e, 0x3e, 0x81, 0x24, 0x34, 0x3e, 0x64, 0xd1, 0x6c, 0xbe,
	0x83, 0xe7, 0x56, 0x3e, 0xdd, 0x4f, 0x17, 0x3e, 0xca, 0x8a, 0x17, 0xbe,
	0xbc, 0xfb, 0x09, 0x3d, 0xb7, 0xa4, 0x70, 0x3e, 0x3c, 0x05, 0x62, 0xbe,
	0x14, 0x79, 0xac, 0x3d, 0xf2, 0xd8, 0xa6, 0xbd, 0xc2, 0x55, 0x2b, 0xbe,
	0x9e, 0x86, 0x3b, 0x3d, 0xd8, 0x63, 0x0d, 0x3e, 0x84, 0xb2, 0x18, 0x3e,
	0x2c, 0xa3, 0x68, 0xbe, 0xa6, 0x60, 0xb3, 0x3d, 0x10, 0x0d, 0xeb, 0xbd,
	0x07, 0xc3, 0x06, 0x3e, 0x10, 0xa4, 0x49, 0xbc, 0xac, 0xf0, 0xb3, 0xbd,
	0xcd, 0xb5, 0x52, 0x3e, 0x1d, 0xda, 0x1c, 0x3e, 0x69, 0xd2, 0x77, 0xbe,
	0xb5, 0xab, 0x2d, 0xbe, 0x9f, 0xa9, 0x17, 0xbe, 0x16, 0x7d, 0x95, 0x3d,
	0xc2, 0x89, 0xc8, 0x3d, 0x6b, 0x2d, 0x38, 0x3e, 0xa5, 0xf6, 0x60, 0x3e,
	0xde, 0x9c, 0x09, 0xbe, 0x0c, 0x20, 0xf9, 0xbd, 0xc3, 0x17, 0x0e, 0x3e,
	0x5a, 0x84, 0x3c, 0xbe, 0x1b, 0x8c, 0x74, 0x3e, 0x32, 0x41, 0xa2, 0x3d,
	0x2b, 0xbc, 0x2e, 0xbe, 0x00, 0xa4, 0x40, 0xbd, 0xfa, 0xdf, 0x9e, 0x3d,
	0x7c, 0xa4, 0x3c, 0xbe, 0x49, 0x74, 0x60, 0x3e, 0xc4, 0x23, 0x38, 0x3d,
	0xc0, 0xa5, 0x36, 0xbd, 0x7d, 0x2d, 0x35, 0x3e, 0x22, 0x29, 0x04, 0xbe,
	0x80, 0x9d, 0x47, 0xbd, 0x9a, 0x99, 0x51, 0xbe, 0x1e, 0x6c, 0x5e, 0xbe,
	0xbc, 0x94, 0x0b, 0xbd, 0xf0, 0x57, 0x51, 0x3c, 0x52, 0xa3, 0x64, 0xbe,
	0x20, 0x54, 0x5b, 0xbd, 0x13, 0xae, 0x4d, 0x3e, 0xca, 0xfd, 0x16, 0xbe,
	0x0a, 0x38, 0x95, 0x3d, 0x72, 0x16, 0xd8, 0x3d, 0x6c, 0x44, 0x7e, 0x3d,
	0x13, 0x76, 0x10, 0xbe, 0xc6, 0x7c, 0xe3, 0x3d, 0xb1, 0x1b, 0x12, 0xbe,
	0xeb, 0xe0, 0x53, 0xbe, 0xa0, 0xb3, 0xf4, 0xbc, 0x94, 0xb5, 0xbf, 0xbd,
	0xae, 0x74, 0xe3, 0x3d, 0xd6, 0x4e, 0x8f, 0x3d, 0xfb, 0x58, 0x57, 0xbe,
	0x73, 0xce, 0x6d, 0x3e, 0xfd, 0x55, 0x1f, 0x3e, 0xac, 0xe9, 0x52, 0x3d,
	0x34, 0x62, 0x6e, 0x3d, 0x3e, 0x64, 0xd4, 0xbd, 0x00, 0xbd, 0x41, 0xba,
	0x98, 0x13, 0xdd, 0xbc, 0x9e, 0x7d, 0xb8, 0x3d, 0x02, 0xe4, 0x0f, 0xbe,
	0x9e, 0x45, 0xee, 0x3d, 0xa2, 0x6b, 0xcd, 0x3d, 0x30, 0x17, 0x1a, 0xbd,
	0x60, 0x62, 0xff, 0x3b, 0x89, 0xac, 0x3c, 0x3e, 0x18, 0x5c, 0x45, 0xbe,
	0x60, 0x68, 0x0b, 0xbe, 0xd0, 0x26, 0x9c, 0xbc, 0xb1, 0x49, 0x38, 0x3e,
	0xfc, 0x0f, 0x3c, 0xbd, 0x12, 0x76, 0xa0, 0x3d, 0x8a, 0xd8, 0x86, 0xbd,
	0xec, 0x1d, 0xa4, 0xbd, 0xa6, 0xf8, 0xd5, 0xbd, 0x8d, 0x8f, 0x76, 0x3e,
	0x1b, 0x45, 0x2c, 0x3e, 0xb0, 0xc4, 0xc7, 0xbc, 0xaa, 0xde, 0xb1, 0x3d,
	0x40, 0xb0, 0x54, 0xbb, 0x6d, 0x27, 0x6c, 0x3e, 0x57, 0xa2, 0x1a, 0xbe,
	0xc3, 0xa5, 0x17, 0x3e, 0x20, 0x14, 0xb8, 0xbc, 0x10, 0xc0, 0x24, 0xbe,
	0x7e, 0x0c, 0xac, 0x3d, 0x29, 0x1b, 0x42, 0xbe, 0xb0, 0x41, 0x4f, 0x3c,
	0x28, 0xd2, 0x9d, 0xbd, 0x1c, 0x62, 0x2f, 0xbd, 0x00, 0x08, 0x26, 0x3a,
	0xdc, 0x1f, 0x77, 0xbe, 0xe6, 0x5c, 0x93, 0xbd, 0x99, 0x71, 0x3c, 0xbe,
	0xdc, 0xeb, 0xff, 0xbd, 0xea, 0xa6, 0x2c, 0xbe, 0xd0, 0x07, 0x1c, 0x3c,
	0xf0, 0x05, 0x5f, 0x3c, 0xd8, 0xcf, 0x2f, 0xbd, 0x69, 0xb3, 0x12, 0x3e,
	0x02, 0xbe, 0x0d, 0xbe, 0xe4, 0x8f, 0xa8, 0xbd, 0xed, 0x09, 0x84, 0xbd,
	0x85, 0x76, 0x16, 0x3e, 0x60, 0xef, 0x34, 0xbe, 0xd5, 0x19, 0x31, 0x3e,
	0x3b, 0xe3, 0x01, 0x3e, 0x0e, 0xad, 0xd2, 0xbd, 0x60, 0x1d, 0x46, 0x3e,
	0x8b, 0x41, 0x31, 0x3e, 0xf2, 0xc6, 0xb3, 0x3d, 0x87, 0xae, 0x62, 0x3e,
	0x2b, 0x6e, 0x80, 0xbd, 0x80, 0x03, 0x23, 0x3b, 0xaf, 0xcc, 0x3e, 0x3e,
	0xd2, 0xc2, 0x6e, 0xbe, 0x8f, 0x1a, 0x47, 0xbe, 0x48, 0xb5, 0x0d, 0xbe,
	0x4c, 0xee, 0x1f, 0x3d, 0xc8, 0x68, 0xcc, 0xbd, 0x09, 0xb7, 0x76, 0xbe,
	0x80, 0xf3, 0x0f, 0x3e, 0x11, 0x40, 0x20, 0xbe, 0x02, 0x7a, 0x03, 0x3e,
	0x96, 0xa7, 0xaf, 0x3d, 0x1a, 0x24, 0x3a, 0x3d, 0x8f, 0x57, 0x3c, 0x3e,
	0x2d, 0xd5, 0x62, 0x3e, 0x44, 0x5e, 0xf6, 0x3d, 0x40, 0xde, 0xde, 0xbc,
	0x78, 0xcf, 0x86, 0xbd, 0x8a, 0xad, 0x80, 0x3d, 0xc5, 0x55, 0x51, 0x3e,
	0x9d, 0xdf, 0x5b, 0xbe, 0xa4, 0x83, 0xe1, 0x3c, 0x82, 0xc2, 0xfa, 0x3d,
	0x0f, 0x9a, 0xd8, 0x3d, 0xab, 0x67, 0x6a, 0xbe, 0x9c, 0x1a, 0x55, 0xbd,
	0x37, 0x46, 0x51, 0xbd, 0x8c, 0x29, 0x3b, 0xbd, 0xf6, 0x42, 0x47, 0xbe,
	0x5a, 0x0a, 0x28, 0xbe, 0xd0, 0xea, 0x18, 0xbe, 0x55, 0x66, 0x14, 0x3e,
	0x58, 0xc9, 0x0f, 0x3e, 0x5a, 0x52, 0x6a, 0x3e, 0x0d, 0x19, 0x46, 0xbe,
	0x5a, 0x93, 0x73, 0xbe, 0x28, 0xc5, 0xdd, 0xbd, 0x22, 0x4a, 0x45, 0x3e,
	0x0f, 0xa8, 0x4f, 0x3e, 0x60, 0xb4, 0x56, 0xbc, 0xb8, 0x55, 0xd1, 0xbd,
	0xac, 0x07, 0xa7, 0xbd, 0x1c, 0xd7, 0x2e, 0x3d, 0xb0, 0xfb, 0x0f, 0x3c,
	0xc4, 0x71, 0x45, 0xbd, 0x73, 0x3d, 0x41, 0x3e, 0xec, 0xa4, 0xb3, 0xbd,
	0x38, 0xc7, 0xab, 0x3c, 0x21, 0xb8, 0x22, 0xbe, 0x00, 0xe0, 0x25, 0xba,
	0xe3, 0x97, 0x37, 0x3e, 0x53, 0xa0, 0x43, 0x3e, 0x7a, 0xf2, 0xa5, 0x3d,
	0xf0, 0x56, 0x0c, 0xbc, 0x77, 0x64, 0x4b, 0xbe, 0x55, 0x7a, 0x0a, 0x3e,
	0xe6, 0x84, 0xdc, 0xbd, 0x49, 0xc2, 0x25, 0xbe, 0xb6, 0xa2, 0x6c, 0xbe,
	0x80, 0x95, 0xf7, 0xbb, 0x38, 0x11, 0x9d, 0x3c, 0x52, 0x50, 0xe9, 0x3d,
	0x97, 0x0a, 0x10, 0x3e, 0x44, 0xa4, 0x54, 0xbe, 0x6f, 0x94, 0x61, 0xbe,
	0x02, 0x86, 0xec, 0x3d, 0x06, 0x14, 0x20, 0xbe, 0x7b, 0x67, 0x00, 0x3e,
	0xd5, 0xa7, 0x2d, 0x3e, 0x3c, 0x38, 0x80, 0xbd, 0xd4, 0x46, 0x3f, 0xbe,
	0x13, 0x94, 0x4f, 0x3e, 0x84, 0x99, 0x3a, 0xbd, 0x48, 0x97, 0x62, 0xbd,
	0x00, 0xb0, 0xeb, 0xba, 0xa7, 0xe8, 0x6f, 0xbe, 0x06, 0xc2, 0x16, 0xbe,
	0x73, 0x91, 0x70, 0x3e, 0xe8, 0x92, 0x9d, 0x3c, 0xbf, 0x80, 0x3e, 0x3e,
	0x74, 0x7b, 0x3c, 0x3d, 0x84, 0x0b, 0x06, 0xbe, 0xa2, 0xe9, 0x98, 0xbd,
	0x94, 0x76, 0x83, 0xbd, 0x8f, 0xd2, 0x2a, 0x3e, 0xf2, 0x7b, 0xd9, 0x3d,
	0x80, 0xb0, 0x2f, 0x3b, 0xc6, 0x73, 0xf4, 0xbd, 0x62, 0x6d, 0x63, 0xbe,
	0xf6, 0x02, 0x62, 0xbd, 0x00, 0x20, 0x95, 0xbd, 0x96, 0x68, 0xd9, 0xbd,
	0xf1, 0x9b, 0x4f, 0x3e, 0xcf, 0x99, 0x8b, 0xbd, 0x64, 0x65, 0x28, 0xbe,
	0xb9, 0x39, 0x07, 0x3d, 0x92, 0x20, 0xee, 0x3d, 0x12, 0xbf, 0x6e, 0xbe,
	0x12, 0xcd, 0x32, 0x3e, 0xbc, 0x13, 0xe2, 0xbd, 0x1a, 0x35, 0xc1, 0x3d,
	0x6a, 0x98, 0xbe, 0xbc, 0x3c, 0xe9, 0x18, 0xbd, 0x0c, 0x20, 0x1f, 0xbd,
	0x2a, 0xd1, 0xdb, 0xbd, 0x32, 0x4b, 0xd4, 0xbd, 0x22, 0x69, 0xa7, 0x3d,
	0xf0, 0x48, 0xa2, 0xbc, 0x71, 0xc7, 0x5b, 0x3e, 0x40, 0x3a, 0x34, 0xbd,
	0xc8, 0x7c, 0x6d, 0x3e, 0x4a, 0xdb, 0xd6, 0x3d, 0x11, 0xe8, 0x0f, 0xbd,
	0xec, 0x15, 0xf4, 0xbd, 0xc7, 0x63, 0x5f, 0xbe, 0x30, 0xbb, 0x7c, 0xbe,
	0x38, 0x72, 0xe9, 0xbd, 0xf2, 0x4c, 0x94, 0xbd, 0x40, 0x7b, 0x53, 0xbe,
	0x86, 0x5a, 0xcf, 0x3d, 0xb8, 0xe6, 0x0f, 0xbc, 0xc9, 0x83, 0xa1, 0xbd,
	0xc4, 0x7c, 0x9d, 0xbd, 0xe2, 0x61, 0x97, 0xbd, 0x41, 0xb3, 0x0a, 0xbe,
	0x37, 0x36, 0x01, 0xbe, 0xf6, 0xc2, 0x40, 0x3d, 0xaa, 0x5f, 0x17, 0xbe,
	0xdb, 0x91, 0x2f, 0xbe, 0x28, 0x1f, 0x29, 0xbe, 0x44, 0x6e, 0x46, 0x3d,
	0xa6, 0xf4, 0xf6, 0x3d, 0xe7, 0xad, 0x2b, 0x3e, 0xb6, 0x1d, 0x7a, 0xbe,
	0x34, 0x53, 0x03, 0xbe, 0x2b, 0x8d, 0x78, 0xbd, 0x91, 0x29, 0x5b, 0x3e,
	0x3f, 0x80, 0x50, 0x3e, 0x73, 0x92, 0x2e, 0x3e, 0x69, 0xbf, 0x76, 0x3e,
	0x4e, 0xe0, 0x32, 0xbe, 0x59, 0x28, 0x02, 0xbe, 0x27, 0x5f, 0x6c, 0xbe,
	0x0c, 0x8f, 0x29, 0x3d, 0xf7, 0xf9, 0x3f, 0x3e, 0x24, 0x44, 0x59, 0xbd,
	0x66, 0x19, 0x9c, 0x3d, 0x58, 0x58, 0xdb, 0xbd, 0xb7, 0x29, 0x17, 0x3e,
	0x79, 0x33, 0x29, 0x3e, 0x69, 0x51, 0x68, 0x3e, 0x39, 0x4d, 0x23, 0x3e,
	0xd4, 0x8e, 0x90, 0xbd, 0xb6, 0xc9, 0x54, 0xbe, 0xea, 0x60, 0xbb, 0x3d,
	0x26, 0x2b, 0xb1, 0xbd, 0x25, 0x87, 0x25, 0x3e, 0x90, 0x99, 0x35, 0x3c,
	0xe0, 0xec, 0x97, 0xbd, 0xc4, 0x9f, 0x83, 0xbd, 0x76, 0xaf, 0x99, 0xbd,
	0xec, 0xf5, 0x24, 0xbe, 0x12, 0xa7, 0xd1, 0x3d, 0x44, 0xee, 0x59, 0xbe,
	0x9c, 0xad, 0xd6, 0xbd, 0x3e, 0xec, 0x1b, 0xbe, 0xd0, 0x9e, 0x71, 0x3c,
	0x75, 0x62, 0x2f, 0xbe, 0x90, 0x8c, 0x50, 0x3c, 0x94, 0x98, 0x51, 0xbe,
	0x30, 0x6d, 0xff, 0xbd, 0x0d, 0x48, 0x65, 0xbe, 0xbf, 0xf5, 0x00, 0x3e,
	0x14, 0x74, 0x71, 0xbd, 0xce, 0xa3, 0xc6, 0x3d, 0x8a, 0x4b, 0x86, 0x3d,
	0xf0, 0xbc, 0xb3, 0xbc, 0x2d, 0x77, 0x02, 0x3e, 0xce, 0x76, 0xcd, 0x3d,
	0xad, 0x39, 0x5e, 0x3e, 0x30, 0x39, 0x70, 0xbd, 0x00, 0xe2, 0xf5, 0x3a,
	0x01, 0x58, 0x66, 0xbe, 0xb8, 0x07, 0x21, 0xbe, 0x9a, 0x1e, 0x27, 0xbe,
	0xba, 0x9c, 0x51, 0xbe, 0xe6, 0x61, 0xbf, 0xbd, 0x12, 0x4b, 0x2c, 0xbe,
	0x1c, 0x3a, 0x3a, 0xbd, 0x17, 0xbd, 0x71, 0xbd, 0xaf, 0x65, 0x20, 0x3e,
	0x15, 0x23, 0x03, 0x3e, 0xc6, 0xca, 0xeb, 0x3d, 0x5a, 0x8d, 0x73, 0x3e,
	0x51, 0x15, 0x21, 0x3e, 0xbd, 0xf2, 0x0e, 0xbe, 0x67, 0x43, 0x0a, 0x3e,
	0x11, 0x31, 0x3a, 0x3e, 0xbb, 0xfb, 0x61, 0x3e, 0x91, 0xdf, 0xfc, 0x3d,
	0xb5, 0xf3, 0x5c, 0x3e, 0x58, 0xaf, 0x72, 0xbe, 0x32, 0x14, 0xf8, 0xbd,
	0x34, 0xc4, 0x50, 0x3d, 0x1b, 0xd0, 0x0e, 0x3e, 0xaa, 0xed, 0xa4, 0x3d,
	0xad, 0x38, 0x76, 0x3e, 0xb1, 0x58, 0x64, 0x3e, 0x60, 0x22, 0x99, 0xbd,
	0x66, 0xbf, 0xe5, 0x3d, 0x82, 0x9c, 0x13, 0xbd, 0xd0, 0x09, 0x5f, 0x3c,
	0x80, 0xbe, 0x1a, 0x3b, 0x00, 0xd7, 0x5c, 0xbe, 0x60, 0xa3, 0xec, 0x3b,
	0x56, 0x3e, 0x69, 0x3e, 0xed, 0xa5, 0x6b, 0xbe, 0xd2, 0x32, 0xd5, 0x3d,
	0xc0, 0x7d, 0xd4, 0xbd, 0x4e, 0xa4, 0xa0, 0x3d, 0x92, 0x3d, 0x50, 0x3e,
	0xc6, 0xa4, 0x0e, 0xbe, 0xe8, 0x6d, 0x43, 0xbd, 0x32, 0x94, 0xdd, 0xbd,
	0xf0, 0x9c, 0x6b, 0x3d, 0x5f, 0x20, 0x1d, 0xbe, 0xfe, 0x48, 0x67, 0x3e,
	0x6a, 0x38, 0x42, 0xbe, 0x1c, 0xe1, 0x0c, 0xbe, 0x5d, 0x70, 0x15, 0x3e,
	0x78, 0xc4, 0x7c, 0xbd, 0xb6, 0x17, 0x4e, 0xbe, 0xa2, 0x0a, 0xb1, 0xbc,
	0x0f, 0xd6, 0x58, 0x3e, 0xbf, 0xac, 0xbd, 0x3d, 0xab, 0x8f, 0x2b, 0x3e,
	0x79, 0xfa, 0x13, 0xbd, 0x0d, 0x29, 0xe4, 0xbd, 0x11, 0xd8, 0xcb, 0x3d,
	0xf7, 0x4e, 0x88, 0x3d, 0x78, 0xbb, 0x38, 0xbe, 0x37, 0x52, 0x14, 0x3d,
	0xdd, 0x0c, 0x15, 0x3e, 0x62, 0x8b, 0xe8, 0xbd, 0x45, 0x67, 0xcd, 0x3d,
	0x32, 0x8f, 0x43, 0x3d, 0xc9, 0x10, 0x7a, 0xbe, 0x59, 0x4a, 0x2f, 0x3e,
	0x03, 0x91, 0x57, 0x3e, 0x2e, 0x4a, 0x7b, 0x3d, 0xdd, 0x55, 0x60, 0x3e,
	0x9f, 0x82, 0xd0, 0x3b, 0x0c, 0x73, 0x18, 0x3d, 0x88, 0x52, 0x35, 0xbe,
	0x64, 0x09, 0x19, 0xbd, 0x24, 0xec, 0x68, 0xbe, 0xb8, 0x1a, 0x76, 0xbd,
	0x69, 0xd9, 0x14, 0xbe, 0x55, 0x12, 0x47, 0x3e, 0xe6, 0x14, 0x62, 0xbd,
	0x50, 0x3e, 0x54, 0xbd, 0x86, 0xde, 0x8c, 0x3d, 0xec, 0xbc, 0x53, 0x3e,
	0x19, 0xcf, 0x51, 0x3d, 0x28, 0xb0, 0xc6, 0xbc, 0xdc, 0x63, 0x7a, 0xbd,
	0x7a, 0xe7, 0xd3, 0x3d, 0x06, 0x64, 0xed, 0xbd, 0x90, 0x2b, 0x50, 0xbc,
	0x4b, 0xb0, 0x6d, 0xbe, 0x85, 0x38, 0x1e, 0xbe, 0x45, 0x8c, 0x7a, 0xbe,
	0x8e, 0x61, 0x57, 0xbe, 0x8a, 0x68, 0xe4, 0x3d, 0x7e, 0x71, 0x58, 0xbe,
	0x3f, 0x93, 0x0d, 0xbe, 0x70, 0x54, 0x6f, 0xbd, 0x20, 0x12, 0xc2, 0x3b,
	0x28, 0x7a, 0x07, 0xbe, 0x3f, 0x23, 0x5f, 0xbe, 0x89, 0x80, 0x64, 0x3e,
	0x72, 0x3f, 0x01, 0xbe, 0xe3, 0x7d, 0x54, 0xbe, 0xc8, 0x4f, 0xda, 0x3d,
	0x88, 0xa6, 0x49, 0x3d, 0x60, 0xa0, 0x0b, 0x3e, 0xff, 0xc4, 0x07, 0x3e,
	0xd7, 0x3f, 0xec, 0xbb, 0x91, 0x73, 0xf7, 0xbd, 0xd7, 0xd5, 0x3d, 0xbd,
	0xa2, 0xde, 0xd9, 0xbd, 0x51, 0x4f, 0x32, 0x3e, 0x7e, 0x5c, 0x82, 0x3d,
	0xc9, 0x5c, 0x45, 0x3e, 0xbe, 0x33, 0x5f, 0x3e, 0xca, 0x41, 0xae, 0xbd,
	0x7a, 0x8c, 0xab, 0x3d, 0x4a, 0xcb, 0x76, 0xbe, 0x29, 0xea, 0x13, 0x3e,
	0x7d, 0xcf, 0x1e, 0x3e, 0xdc, 0x4b, 0x09, 0x3d, 0x23, 0xfb, 0x9d, 0xbb,
	0x25, 0xfa, 0x01, 0x3e, 0xb0, 0x1f, 0x43, 0x3c, 0xcb, 0x65, 0x0d, 0xbe,
	0xb7, 0xa5, 0x24, 0x3e, 0x7b, 0x13, 0x5f, 0x3e, 0xf4, 0xca, 0x7c, 0x3d,
	0xfc, 0x1f, 0xc0, 0xbd, 0xd2, 0x0f, 0xd2, 0xbd, 0xe2, 0x69, 0x61, 0xbe,
	0x41, 0x4b, 0x1f, 0x3e, 0x0d, 0xf5, 0x6a, 0x3e, 0x7f, 0x10, 0x82, 0x3d,
	0x14, 0xc4, 0x11, 0xbe, 0xd9, 0xd9, 0x11, 0xbc, 0xd6, 0x55, 0x47, 0xbe,
	0x26, 0x1e, 0xb8, 0xbd, 0xc1, 0x6a, 0x07, 0xbe, 0xe4, 0x4f, 0x07, 0x3d,
	0xba, 0x95, 0x4d, 0xbd, 0x32, 0x87, 0x1d, 0x3d, 0x90, 0xf2, 0x24, 0x3c,
	0x46, 0x0b, 0x46, 0xbe, 0xba, 0x25, 0x61, 0x3e, 0xf6, 0x3a, 0xb7, 0x3d,
	0x08, 0x2f, 0x29, 0xbd, 0x38, 0x7d, 0xe8, 0xbc, 0xc9, 0x72, 0xfc, 0xbd,
	0xa6, 0xdc, 0xf8, 0x3d, 0x83, 0x1b, 0x50, 0x3e, 0x7b, 0x6f, 0x55, 0xbe,
	0x68, 0xff, 0x62, 0x3c, 0x77, 0xc5, 0xd5, 0x3d, 0x31, 0x91, 0x2f, 0x3e,
	0xfa, 0x14, 0x63, 0x3e, 0x06, 0x7e, 0x26, 0x3e, 0x94, 0x3f, 0xb0, 0x3d,
	0xb3, 0x6f, 0x38, 0xbe, 0x2d, 0x59, 0x15, 0xbe, 0xce, 0x1e, 0xfc, 0x3d,
	0x89, 0x39, 0xbc, 0xbd, 0xd2, 0xdb, 0xf4, 0x3d, 0xbb, 0x32, 0x0e, 0xbe,
	0x4c, 0xd8, 0x3c, 0x3d, 0x81, 0x6d, 0x52, 0x3e, 0x5c, 0x52, 0x13, 0xbd,
	0x74, 0xe3, 0x67, 0x3d, 0xd0, 0x0d, 0x33, 0xbe, 0xe2, 0xa9, 0x73, 0x3e,
	0x18, 0xdf, 0xfd, 0xbc, 0x5a, 0x70, 0xea, 0xbd, 0x8c, 0x83, 0x68, 0xbe,
	0x9d, 0xe6, 0x3f, 0xbe, 0x9c, 0x8f, 0x0e, 0x3d, 0xb4, 0x7d, 0x47, 0x3d,
	0x48, 0x9a, 0x0a, 0xbe, 0x94, 0xe6, 0x76, 0xbd, 0x1f, 0x85, 0xa3, 0x3d,
	0x27, 0x59, 0x10, 0xbc, 0x0f, 0x42, 0xa8, 0xbd, 0xbc, 0x31, 0x17, 0xbe,
	0x3d, 0xe0, 0x1b, 0xbe, 0x5b, 0x71, 0xa6, 0xbd, 0xea, 0x01, 0x12, 0xbe,
	0xbd, 0xf7, 0x16, 0x3e, 0x3c, 0xe7, 0x0f, 0x3d, 0x29, 0xd4, 0x4a, 0xbe,
	0xe5, 0x72, 0x26, 0x3e, 0xa2, 0x8a, 0x91, 0xbd, 0x0b, 0x4b, 0x5c, 0x3e,
	0x61, 0x54, 0x78, 0xbe, 0x64, 0xd3, 0x08, 0x3d, 0xcf, 0xdc, 0x35, 0x3e,
	0x74, 0x12, 0xd7, 0x3d, 0xbc, 0x77, 0x01, 0x3d, 0x5f, 0x60, 0x63, 0xbd,
	0x80, 0x9f, 0x38, 0xbe, 0x56, 0xc7, 0xcc, 0x3d, 0x7a, 0xc4, 0x47, 0xbe,
	0x88, 0x7d, 0x63, 0xbd, 0x88, 0x81, 0x6a, 0xbe, 0xe0, 0x03, 0xc6, 0x3a,
	0x04, 0x13, 0x92, 0xbd, 0x05, 0x80, 0x61, 0x3e, 0xe1, 0x3a, 0x81, 0x3c,
	0x9e, 0xb4, 0x93, 0x3d, 0x01, 0x75, 0x37, 0xbe, 0x65, 0x31, 0x5d, 0xbe,
	0x22, 0x00, 0x5b, 0xbe, 0xc4, 0x5d, 0xa4, 0xbd, 0x15, 0x03, 0x84, 0x3c,
	0xa0, 0x1a, 0xd1, 0xbb, 0xc7, 0xbb, 0xc5, 0x3c, 0x8f, 0x35, 0x68, 0xbe,
	0x73, 0xfc, 0xff, 0xbd, 0x2e, 0xab, 0x3e, 0xbe, 0xf8, 0x8c, 0xe4, 0xbd,
	0x02, 0x48, 0x1a, 0x3e, 0x90, 0xd6, 0x22, 0x3e, 0x18, 0x00, 0x71, 0xbe,
	0x67, 0x66, 0x9d, 0x3d, 0x0b, 0x97, 0x2e, 0x3e, 0xfc, 0x64, 0x08, 0x3d,
	0xee, 0x67, 0x80, 0x3d, 0x02, 0x6b, 0x4e, 0xbe, 0x8e, 0x08, 0x8b, 0xbd,
	0xc4, 0x20, 0x50, 0xbe, 0xf9, 0x47, 0x9b, 0x3d, 0x4c, 0x58, 0x3c, 0xbe,
	0x4e, 0x5f, 0x29, 0x3e, 0x2e, 0x10, 0xc2, 0xbd, 0xa3, 0xac, 0x3c, 0x3e,
	0x5b, 0x26, 0xa9, 0x3d, 0x70, 0x53, 0x73, 0xbd, 0x40, 0x2a, 0x5f, 0xbe,
	0x20, 0x0c, 0x87, 0xbd, 0x8b, 0x0a, 0x54, 0xbe, 0x40, 0x15, 0x64, 0xbc,
	0xb9, 0xc3, 0x03, 0xbe, 0xeb, 0xc3, 0x37, 0xbc, 0xca, 0x77, 0x3b, 0xbe,
	0x64, 0xef, 0x33, 0xbe, 0xb6, 0x72, 0x2d, 0x3e, 0x5b, 0x4f, 0x2b, 0xbe,
	0x8c, 0x2f, 0x48, 0xbd, 0x37, 0x02, 0x7a, 0xbe, 0x88, 0x9f, 0xf3, 0xbd,
	0x8c, 0xe4, 0x2a, 0x3d, 0x08, 0xa8, 0x20, 0xbe, 0xb4, 0xc3, 0x21, 0xbe,
	0xd0, 0xd2, 0x1d, 0x3c, 0x63, 0x12, 0x0e, 0xbe, 0xe7, 0xa4, 0x1f, 0x3e,
	0xcb, 0x63, 0xf1, 0x3d, 0x65, 0x62, 0x0a, 0x3e, 0x3d, 0x5a, 0x0d, 0xbc,
	0x94, 0x60, 0x20, 0x3e, 0x7c, 0xbc, 0x02, 0xbe, 0x15, 0xa3, 0x37, 0x3e,
	0x66, 0x5d, 0xd8, 0x3d, 0x1a, 0x65, 0x86, 0x3d, 0xc0, 0x93, 0x82, 0x3b,
	0x1d, 0x8c, 0x27, 0x3e, 0x2d, 0x03, 0x15, 0x3e, 0x88, 0x80, 0x31, 0xbe,
	0x0a, 0xd5, 0xd5, 0x3d, 0xe0, 0xeb, 0xa0, 0xbc, 0xf1, 0x6a, 0x02, 0x3e,
	0x1c, 0x16, 0x74, 0xbd, 0x62, 0xe0, 0x1e, 0xbe, 0xde, 0x73, 0x87, 0xbd,
	0x28, 0x70, 0xaa, 0xbc, 0x3c, 0xd5, 0x56, 0x3d, 0xe5, 0x14, 0x56, 0x3e,
	0x41, 0x4a, 0x71, 0x3e, 0xbd, 0x25, 0x50, 0xbe, 0xee, 0x7f, 0xbc, 0xbd,
	0x8e, 0xe3, 0x20, 0xbe, 0x86, 0x80, 0x64, 0xbe, 0xf0, 0xc0, 0x5c, 0x3c,
	0xaa, 0x5e, 0x9c, 0x3d, 0xd2, 0x6e, 0xce, 0x3d, 0x9d, 0xd1, 0x3b, 0xbe,
	0xce, 0x7d, 0x90, 0xbd, 0x58, 0x55, 0xef, 0xbc, 0x9c, 0xf8, 0x5d, 0xbd,
	0xd2, 0x47, 0xb7, 0x3d, 0x52, 0x86, 0xc8, 0xbd, 0x6a, 0xec, 0xa6, 0x3d,
	0x15, 0x10, 0x53, 0xbe, 0xe5, 0x19, 0x37, 0xbe, 0x06, 0xac, 0x87, 0x3d,
	0x7a, 0x4a, 0xf8, 0x3d, 0xcd, 0x6e, 0x65, 0x3e, 0x70, 0xb3, 0x93, 0xbc,
	0x45, 0x47, 0x30, 0xbe, 0x50, 0xcb, 0x72, 0xbc, 0x02, 0x8c, 0x29, 0xbe,
	0xed, 0xcc, 0x76, 0x3e, 0x24, 0x2f, 0x27, 0xbd, 0x62, 0xf9, 0xbb, 0x3d,
	0x26, 0x22, 0xcb, 0xbd, 0xb8, 0x12, 0x25, 0xbe, 0x3a, 0xa6, 0xd5, 0x3d,
	0xa0, 0x01, 0xea, 0x3b, 0xfd, 0xdc, 0x0d, 0x3e, 0x84, 0x41, 0x11, 0x3d,
	0xb4, 0x7a, 0x18, 0x3d, 0xdf, 0xcf, 0x2d, 0x3e, 0xed, 0xea, 0x4b, 0x3e,
	0xc6, 0x5a, 0xa9, 0x3d, 0xb6, 0x28, 0x07, 0xbe, 0x17, 0x7f, 0x5b, 0x3e,
	0xba, 0x1d, 0x3c, 0xbc, 0x68, 0xce, 0x9b, 0x3d, 0x9c, 0x89, 0x1e, 0x3d,
	0x58, 0xac, 0xdf, 0x3c, 0x2f, 0x25, 0x66, 0xbe, 0x79, 0xdc, 0x12, 0x3e,
	0x03, 0xe8, 0x3c, 0x3e, 0x8f, 0x19, 0x7b, 0x3e, 0x61, 0x4f, 0x62, 0x3e,
	0x84, 0x6c, 0x0a, 0x3d, 0xe0, 0xf1, 0x1c, 0xbd, 0xe6, 0x24, 0xb0, 0xbd,
	0xdd, 0x7d, 0x1c, 0x3e, 0x40, 0xea, 0x06, 0xbe, 0xbd, 0xb9, 0x31, 0x3d,
	0x6c, 0x8c, 0x0d, 0xbe, 0x33, 0x9c, 0xe7, 0x3d, 0x30, 0xf8, 0x61, 0x3c,
	0x39, 0x2f, 0xd6, 0x3d, 0x9f, 0x19, 0x02, 0x3e, 0xd5, 0xb3, 0x76, 0x3e,
	0x8b, 0xd1, 0x2f, 0x3b, 0x83, 0x8f, 0x65, 0x3e, 0xb4, 0x62, 0x68, 0x3d,
	0xb1, 0x1f, 0x00, 0x3e, 0x3d, 0xf7, 0x3f, 0x3e, 0x4f, 0x5c, 0x51, 0x3d,
	0xe4, 0x00, 0xe6, 0xbd, 0x00, 0xf1, 0x96, 0x3a, 0x00, 0xe4, 0xb8, 0x3d,
	0xda, 0x5d, 0x04, 0xbe, 0x69, 0x63, 0x01, 0x3e, 0x13, 0x77, 0x73, 0x3e,
	0xd3, 0x79, 0x29, 0x3e, 0xa4, 0x22, 0x10, 0xbe, 0x64, 0x4b, 0x1d, 0xbe,
	0xe8, 0x79, 0xe8, 0xbc, 0xf0, 0x5b, 0x2a, 0xbe, 0x40, 0x1b, 0x3b, 0x3e,
	0x7e, 0x67, 0x01, 0x3e, 0xef, 0x69, 0xc6, 0xbd, 0xa7, 0x0c, 0x27, 0xbe,
	0x8e, 0x9a, 0x21, 0x3e, 0xee, 0x7f, 0xc0, 0x3c, 0x7a, 0x14, 0x40, 0xbe,
	0x52, 0x50, 0xe6, 0xbc, 0x60, 0xd9, 0x75, 0xbd, 0x89, 0xd1, 0x7e, 0x3e,
	0x38, 0x9e, 0xbb, 0x3c, 0x7d, 0x5b, 0x13, 0xbc, 0x69, 0xdf, 0x25, 0x3a,
	0x0a, 0xe1, 0x61, 0xbe, 0xb0, 0x8d, 0x27, 0xbd, 0xfa, 0xdf, 0xe7, 0x3d,
	0x4b, 0x03, 0xf1, 0x3d, 0x67, 0x26, 0x31, 0x3e, 0x23, 0x77, 0x27, 0x3e,
	0x8b, 0xff, 0x77, 0x3e, 0x5a, 0xdf, 0x00, 0xbe, 0x0f, 0xfe, 0x5d, 0x3e,
	0xc2, 0x07, 0x9a, 0x3d, 0xa8, 0xa1, 0xeb, 0xbd, 0xb1, 0x70, 0x4e, 0x3e,
	0x1b, 0x0b, 0x74, 0x3e, 0x70, 0x9f, 0x80, 0x3d, 0x79, 0x05, 0x51, 0xbe,
	0xf4, 0xf0, 0x09, 0xbc, 0x8f, 0xff, 0x0d, 0x3e, 0x7a, 0x36, 0x3d, 0xbe,
	0x8c, 0xe2, 0xc3, 0x3c, 0xde, 0x67, 0x24, 0xbe, 0xe7, 0xda, 0x8b, 0x3d,
	0x90, 0x30, 0x93, 0xbd, 0x98, 0x08, 0xbd, 0xbc, 0x38, 0x61, 0xf7, 0x3c,
	0x33, 0xd1, 0x21, 0x3e, 0x73, 0x84, 0x37, 0x3e, 0xf6, 0xd8, 0xf4, 0x3b,
	0x5a, 0xde, 0x93, 0x3d, 0xc3, 0xaf, 0xa3, 0xbd, 0x7e, 0x09, 0xb2, 0xbc,
	0xbc, 0x91, 0x79, 0xbe, 0x6d, 0xc9, 0xf8, 0xbc, 0x32, 0x74, 0x2d, 0xbe,
	0x43, 0x18, 0x17, 0x3e, 0xee, 0x3e, 0x18, 0xbe, 0x33, 0x3c, 0x6a, 0x3e,
	0xdf, 0xa1, 0x1c, 0x3e, 0xd3, 0x90, 0x3a, 0xbe, 0x6e, 0x3f, 0x4e, 0x3e,
	0x90, 0x69, 0x45, 0x3e, 0x7e, 0xd0, 0x98, 0xbd, 0x5c, 0x32, 0x61, 0xbe,
	0x33, 0x5f, 0x2c, 0xbd, 0x14, 0x55, 0xa2, 0xbb, 0x2a, 0x91, 0x86, 0x3d,
	0x5c, 0xcd, 0x1f, 0x3d, 0x64, 0x09, 0x09, 0xbe, 0x0e, 0xb5, 0xc1, 0x3d,
	0xcb, 0x02, 0x02, 0x3e, 0x12, 0xcf, 0xa2, 0x3d, 0x2b, 0x75, 0x66, 0xbe,
	0x2c, 0xfb, 0xe5, 0xbd, 0xee, 0x1e, 0x87, 0xbd, 0x9e, 0x8a, 0xda, 0x3d,
	0x10, 0xa0, 0x5d, 0xbc, 0xca, 0xfb, 0x1e, 0xbe, 0xfd, 0x79, 0x2f, 0xbe,
	0x64, 0x6a, 0x62, 0x3d, 0x70, 0xfc, 0x21, 0x3c, 0xb8, 0x3c, 0xf1, 0xbd,
	0x4a, 0xe6, 0x8b, 0x3d, 0x77, 0x76, 0x3c, 0x3e, 0x0a, 0x44, 0xa1, 0x3d,
	0xe4, 0x95, 0xdd, 0xbd, 0xb4, 0xc3, 0x52, 0xbe, 0xe4, 0x64, 0x4c, 0x3d,
	0xe2, 0xad, 0x78, 0xbe, 0x96, 0xea, 0xa6, 0x3d, 0x52, 0xd4, 0xa5, 0x3d,
	0x19, 0xc1, 0x27, 0x3e, 0x38, 0x21, 0x7e, 0xbd, 0x42, 0x6a, 0x2c, 0xbe,
	0xa1, 0x99, 0x34, 0x3e, 0xae, 0x0f, 0xbe, 0x3d, 0x60, 0x0b, 0xce, 0xbd,
	0x0f, 0xfe, 0x65, 0x3e, 0xa0, 0x30, 0xa6, 0x3b, 0xf4, 0x62, 0x2b, 0xbd,
	0xec, 0xab, 0x69, 0xbe, 0xf3, 0x8c, 0x33, 0x3e, 0x18, 0x22, 0xec, 0x3c,
	0x6b, 0xde, 0x3c, 0x3e, 0xb9, 0xae, 0x42, 0x3e, 0x9e, 0xec, 0x75, 0xbe,
	0xc3, 0xb5, 0x39, 0xbe, 0xd4, 0xd7, 0xa0, 0xbd, 0x48, 0xe1, 0xc1, 0xbc,
	0xe8, 0xa8, 0xfa, 0x3c, 0x6b, 0x0e, 0x3f, 0x3e, 0x10, 0xf4, 0x2a, 0x3c,
	0x75, 0x53, 0x59, 0xbe, 0x92, 0xcc, 0x2a, 0xbe, 0xbf, 0x71, 0x77, 0xbe,
	0xf5, 0x5e, 0x6e, 0x3e, 0x2b, 0xd9, 0x6d, 0x3e, 0xd6, 0xb5, 0x73, 0xbe,
	0x5b, 0x1a, 0x11, 0x3e, 0xe2, 0xe6, 0x9a, 0x3d, 0x66, 0x2f, 0xa2, 0x3d,
	0xa7, 0x3d, 0x44, 0x3e, 0x75, 0x0c, 0x6f, 0xbe, 0x36, 0xcd, 0x5e, 0xbe,
	0x17, 0xab, 0x1c, 0x3e, 0xf9, 0xa0, 0x16, 0x3e, 0x3f, 0xb9, 0x79, 0xbe,
	0x80, 0xaa, 0xb7, 0xbb, 0x28, 0x21, 0xc8, 0xbd, 0x52, 0x04, 0xaf, 0xbd,
	0x68, 0x34, 0x82, 0x3c, 0xec, 0xa0, 0xd0, 0xbd, 0x3a, 0x0c, 0xe8, 0xbd,
	0x9c, 0xbd, 0xd1, 0xbd, 0x4f, 0x84, 0x36, 0x3e, 0xe3, 0x2a, 0x4b, 0xbe,
	0xa4, 0xb6, 0xf0, 0xbd, 0x0a, 0x7c, 0x4a, 0xbe, 0x7e, 0x53, 0xc9, 0x3d,
	0x8c, 0xd4, 0x37, 0xbe, 0x04, 0x39, 0xd7, 0xbd, 0x69, 0x7a, 0x18, 0x3e,
	0x05, 0x72, 0x4d, 0xbe, 0x63, 0x4d, 0x34, 0x3e, 0xfb, 0xf2, 0x4d, 0x3e,
	0x84, 0x57, 0x49, 0x3d, 0x1e, 0x16, 0xd9, 0xbd, 0x67, 0xca, 0x4f, 0x3e,
	0x56, 0x50, 0xc4, 0x3d, 0x81, 0xce, 0x6e, 0x3e, 0x54, 0xe2, 0x5d, 0x3d,
	0xae, 0x9d, 0xfc, 0x3d, 0xcf, 0xca, 0x75, 0x3e, 0x41, 0x44, 0x78, 0x3e,
	0xfc, 0xe7, 0x4b, 0x3d, 0x6d, 0xda, 0x29, 0x3e, 0xee, 0x35, 0x99, 0xbd,
	0x99, 0x7d, 0x34, 0x3e, 0x88, 0x35, 0xb1, 0xbd, 0xa1, 0xd8, 0x6b, 0xbe,
	0x33, 0x30, 0x67, 0x3e, 0xd0, 0xb0, 0x2a, 0xbe, 0x0b, 0x19, 0x62, 0x3e,
	0xf2, 0xf7, 0xfd, 0x3d, 0x32, 0x66, 0x9b, 0x3d, 0x0e, 0xeb, 0x4e, 0xbe,
	0x7c, 0xdf, 0x58, 0x3d, 0x12, 0xee, 0x8b, 0x3d, 0xcb, 0x71, 0xfd, 0xbc,
	0x63, 0x44, 0x69, 0x3e, 0x96, 0x80, 0x77, 0x3e, 0xe4, 0xf2, 0x0d, 0xbd,
	0x80, 0x5e, 0x95, 0xbd, 0x15, 0xa6, 0x2f, 0x3e, 0x0c, 0xee, 0x74, 0x3d,
	0x9b, 0x85, 0x5a, 0x3d, 0x07, 0x9a, 0x62, 0x3e, 0x00, 0xf9, 0x61, 0xbe,
	0x4a, 0xe0, 0x59, 0x3d, 0xc3, 0x60, 0x66, 0x3e, 0x54, 0x68, 0x61, 0xbe,
	0x76, 0x77, 0x4a, 0xbe, 0x36, 0xfe, 0xde, 0x3d, 0x37, 0x8c, 0x33, 0xbe,
	0x70, 0x07, 0x5e, 0xbc, 0xc9, 0x10, 0x18, 0xbd, 0xdc, 0xbb, 0x0a, 0xbe,
	0x08, 0x48, 0x52, 0x3e, 0xf0, 0x08, 0x77, 0xbc, 0x41, 0xa6, 0x5f, 0x3e,
	0xa0, 0xb6, 0x80, 0x3d, 0x1e, 0x9d, 0x62, 0xbe, 0xd9, 0x28, 0x44, 0xbe,
	0x16, 0x59, 0x81, 0xbd, 0x48, 0x3d, 0xed, 0x3c, 0x74, 0x9c, 0x63, 0xbd,
	0xe2, 0x66, 0x36, 0xbe, 0x11, 0x5d, 0x4b, 0xbe, 0x90, 0xba, 0xfd, 0xbc,
	0xb6, 0xc2, 0x2a, 0xbe, 0x92, 0x59, 0xf2, 0xbd, 0xe3, 0x07, 0x65, 0xbc,
	0xca, 0xc8, 0x31, 0xbe, 0xc1, 0x52, 0x16, 0x3e, 0x42, 0xf8, 0xf1, 0x3d,
	0xf6, 0xe1, 0x91, 0xbd, 0x32, 0x34, 0x44, 0xbe, 0x05, 0x96, 0x29, 0x3e,
	0x89, 0x04, 0x5d, 0x3e, 0xb4, 0x38, 0x9a, 0x3d, 0x7d, 0x60, 0xdc, 0x3d,
	0x1d, 0xd8, 0x9c, 0xbd, 0x50, 0x4f, 0x51, 0x3e, 0xb1, 0x59, 0xce, 0xbd,
	0x3e, 0xbb, 0x0e, 0xbd, 0x22, 0x80, 0xf8, 0x3d, 0xb7, 0x2d, 0xea, 0xbd,
	0xf6, 0xce, 0xe5, 0x3d, 0xed, 0xd7, 0x36, 0x3e, 0x14, 0xca, 0xe0, 0xbd,
	0x6e, 0x95, 0x54, 0xbe, 0xbe, 0x1d, 0x32, 0x3c, 0x1f, 0xf9, 0x97, 0x3b,
	0x76, 0x44, 0xc6, 0xbd, 0x7d, 0xbf, 0x41, 0x3e, 0xeb, 0x59, 0x06, 0x3e,
	0x78, 0xc1, 0x47, 0x3e, 0xde, 0xb4, 0x65, 0xbe, 0x62, 0x7a, 0xf8, 0x3c,
	0x9c, 0x86, 0x17, 0xbe, 0x58, 0x42, 0xbf, 0x3c, 0x84, 0x5e, 0x4c, 0x3d,
	0xd7, 0x44, 0x5b, 0x3e, 0x08, 0x34, 0xd1, 0x3c, 0xd7, 0xde, 0x41, 0x3e,
	0x33, 0x53, 0x51, 0x3e, 0x22, 0x4e, 0x13, 0xbd, 0xc4, 0x67, 0xe7, 0x3d,
	0x34, 0xca, 0xf1, 0xbd, 0x8d, 0xba, 0x36, 0x3e, 0xd4, 0x9e, 0x72, 0x3e,
	0xde, 0x91, 0xff, 0x3d, 0x5a, 0x50, 0x84, 0x3c, 0x69, 0x87, 0x5d, 0xbe,
	0xfc, 0x58, 0x65, 0xbd, 0x88, 0x84, 0xf2, 0x3c, 0x92, 0x80, 0x88, 0xbd,
	0x16, 0x5b, 0xf6, 0x3c, 0xb7, 0xcb, 0x39, 0x3e, 0x9c, 0x50, 0x5c, 0x3d,
	0x6d, 0x47, 0x2f, 0x3d, 0x91, 0x95, 0xb1, 0xbd, 0xec, 0x3e, 0x34, 0xbe,
	0x2e, 0x9b, 0xd5, 0xbd, 0x59, 0x24, 0x23, 0x3e, 0x78, 0x72, 0xd5, 0xbc,
	0x56, 0x1e, 0x02, 0xbe, 0x7e, 0x47, 0xc6, 0xbd, 0x26, 0x2c, 0xac, 0x3d,
	0x48, 0x1c, 0xab, 0xbd, 0x1d, 0x86, 0x03, 0x3d, 0x28, 0xde, 0xcf, 0xbc,
	0x24, 0x7d, 0x35, 0x3e, 0x4c, 0xd4, 0xcc, 0x3b, 0x97, 0x28, 0x2a, 0x3e,
	0x0b, 0x32, 0x4a, 0x3e, 0x2f, 0x55, 0x78, 0xbe, 0x00, 0xd6, 0xfe, 0xb9,
	0xa0, 0x9c, 0x31, 0xbc, 0xd2, 0x34, 0x36, 0xbe, 0xe9, 0x87, 0x17, 0x3e,
	0xd8, 0xc2, 0x9c, 0xbd, 0x3d, 0xef, 0x5c, 0x3e, 0xac, 0xe3, 0x66, 0xbe,
	0xac, 0xf2, 0x38, 0xbd, 0xd8, 0x32, 0xe9, 0xbc, 0x98, 0xe7, 0xbe, 0xbc,
	0x30, 0x64, 0xbe, 0xbd, 0x62, 0x5d, 0x9e, 0x3d, 0xd8, 0xdb, 0x3b, 0xbe,
	0x1f, 0x4c, 0x35, 0x3e, 0xc9, 0x0d, 0x09, 0x3e, 0x41, 0x2a, 0x00, 0x3e,
	0xa7, 0x1f, 0x24, 0x3e, 0x0c, 0x60, 0xf0, 0xbd, 0xb3, 0x18, 0x65, 0xbe,
	0x90, 0xb2, 0xee, 0xbc, 0x0a, 0x7a, 0xab, 0x3d, 0x0e, 0xf4, 0x6d, 0xbe,
	0x06, 0xc3, 0xce, 0xbd, 0xe2, 0x63, 0x65, 0xbe, 0x78, 0xd1, 0x53, 0xbe,
	0x04, 0x1c, 0x3b, 0xbe, 0xea, 0x7a, 0x26, 0xbe, 0xb4, 0x23, 0xfe, 0xbd,
	0x75, 0x42, 0x3b, 0x3e, 0xb8, 0xd5, 0xb9, 0x3c, 0x85, 0x37, 0x32, 0x3e,
	0x8c, 0xa8, 0x14, 0x3d, 0x30, 0x59, 0x9b, 0xbc, 0xb0, 0x67, 0xc9, 0xbc,
	0x9a, 0x7f, 0xc3, 0x3d, 0xb2, 0x56, 0xf4, 0x3d, 0x58, 0xa6, 0x2a, 0xbd,
	0x78, 0x14, 0x1d, 0xbd, 0xe3, 0xd0, 0x4a, 0x3e, 0x6c, 0x9d, 0xdc, 0xbd,
	0x6a, 0x5b, 0xcd, 0x3d, 0x12, 0xc1, 0x99, 0x3d, 0x6c, 0x62, 0x41, 0xbe,
	0x22, 0x25, 0x83, 0x3d, 0xb9, 0xca, 0x1a, 0x3e, 0xa8, 0x2e, 0xdd, 0x3c,
	0x28, 0x60, 0x33, 0xbe, 0x7c, 0x69, 0x37, 0x3d, 0xd6, 0xeb, 0x0a, 0xbe,
	0x36, 0x19, 0x76, 0xbe, 0xf3, 0xd2, 0x6a, 0x3e, 0xaf, 0x1e, 0x35, 0x3e,
	0xbc, 0x51, 0x4e, 0x3d, 0xfc, 0x6a, 0x0a, 0xbd, 0xf5, 0x5a, 0x22, 0xbe,
	0x02, 0x99, 0xe6, 0x3d, 0x20, 0x70, 0x3e, 0xbd, 0xb5, 0xde, 0x14, 0x3e,
	0x8e, 0xf8, 0x9e, 0xbd, 0xc0, 0x7c, 0x73, 0x3b, 0x6e, 0x63, 0xb3, 0xbd,
	0x44, 0x25, 0x50, 0xbe, 0x9a, 0x77, 0x97, 0xbd, 0xf0, 0xa9, 0x0e, 0x3c,
	0x4c, 0x7c, 0x64, 0xbe, 0x63, 0xb5, 0x14, 0xbe, 0xdd, 0x17, 0x2c, 0xbe,
	0xd2, 0xda, 0x15, 0xbe, 0x90, 0x35, 0x6b, 0x3c, 0x9e, 0xbc, 0x29, 0xbe,
	0x5c, 0x1c, 0x3a, 0x3d, 0xe0, 0x35, 0x5b, 0xbd, 0xd1, 0x58, 0x4d, 0x3e,
	0xe3, 0x39, 0xf9, 0xbd, 0x70, 0x61, 0x03, 0xbc, 0x8a, 0x59, 0x39, 0xbe,
	0x9b, 0x9d, 0x53, 0x3e, 0xa1, 0x95, 0x6e, 0x3e, 0x32, 0xce, 0xa3, 0x3d,
	0x4b, 0xc0, 0x5a, 0x3e, 0x05, 0xa3, 0x4c, 0x3e, 0xff, 0x0b, 0x67, 0xbe,
	0x64, 0x60, 0x70, 0xbd, 0x88, 0x0e, 0xfc, 0xbc, 0xec, 0x7b, 0xa5, 0xbd,
	0x26, 0xcf, 0xcd, 0x3d, 0x73, 0xe5, 0x04, 0x3e, 0xd3, 0x4e, 0x5b, 0x3e,
	0xc2, 0x43, 0xbc, 0xbd, 0x0e, 0x2e, 0xe6, 0xbd, 0x20, 0xbc, 0xf4, 0x3b,
	0xc8, 0xbd, 0x74, 0xbd, 0x00, 0x60, 0x97, 0xb9, 0xf1, 0x42, 0x16, 0x3e,
	0x80, 0xf1, 0xc9, 0xbb, 0x91, 0x5a, 0x2c, 0x3e, 0x3a, 0x78, 0x1c, 0xbe,
	0xe0, 0x91, 0xe2, 0x3b, 0xbc, 0x33, 0x61, 0x3d, 0x90, 0x42, 0x7d, 0xbc,
	0x64, 0x06, 0x0a, 0x3d, 0xf7, 0x69, 0x18, 0x3e, 0xe8, 0x36, 0xd2, 0xbc,
	0xfd, 0x4a, 0x49, 0x3e, 0x99, 0x91, 0x0a, 0x3e, 0xdb, 0x9e, 0x1b, 0x3e,
	0x59, 0x74, 0x05, 0x3e, 0x10, 0xb4, 0xb8, 0xbd, 0xc0, 0x8d, 0xdd, 0xbd,
	0x1a, 0xdc, 0x2d, 0xbe, 0xc1, 0xe1, 0x4a, 0xbe, 0x27, 0x34, 0x0b, 0x3e,
	0xfb, 0x2e, 0x4c, 0x3e, 0xac, 0xd8, 0xa7, 0xbd, 0xa5, 0xd4, 0x1e, 0x3e,
	0x90, 0xa6, 0x13, 0xbc, 0xe1, 0x40, 0x5b, 0x3e, 0xd8, 0x62, 0xd4, 0xbc,
	0x3b, 0x31, 0x40, 0xbe, 0x98, 0xfe, 0xb7, 0x3c, 0x30, 0x10, 0x10, 0xbd,
	0x77, 0x46, 0x55, 0x3e, 0x7f, 0x71, 0x5a, 0x3e, 0xd7, 0x81, 0x57, 0x3e,
	0x18, 0xa4, 0x89, 0xbd, 0x78, 0xe0, 0x93, 0xbd, 0x06, 0x35, 0xac, 0x3d,
	0x08, 0x68, 0x29, 0xbd, 0xfa, 0xd3, 0x16, 0xbe, 0xc4, 0x66, 0x89, 0xbd,
	0x85, 0xb5, 0x53, 0x3e, 0xc6, 0x95, 0x50, 0xbe, 0x47, 0xf9, 0x63, 0x3e,
	0x61, 0x57, 0x76, 0x3e, 0x94, 0x7c, 0x6d, 0xbd, 0xb8, 0x5c, 0x70, 0xbd,
	0xd4, 0xde, 0x43, 0x3d, 0x2c, 0x5d, 0x39, 0xbd, 0x17, 0x7a, 0x5c, 0x3e,
	0xde, 0x15, 0xfd, 0x3d, 0xde, 0x77, 0xd6, 0x3d, 0x20, 0x19, 0x8e, 0xbd,
	0xd1, 0xa8, 0x2e, 0x3e, 0xc4, 0x38, 0x15, 0xbd, 0x00, 0x14, 0x64, 0x3b,
	0xaa, 0x5c, 0x19, 0xbe, 0xf7, 0x00, 0x35, 0xbe, 0x48, 0x63, 0x80, 0x3c,
	0x3c, 0x33, 0x68, 0xbe, 0x76, 0x49, 0x53, 0xbe, 0x12, 0x46, 0xda, 0x3d,
	0x8d, 0x47, 0x41, 0x3e, 0x35, 0xf7, 0x3f, 0xbe, 0x88, 0x27, 0x8c, 0x3c,
	0xc3, 0x6a, 0x61, 0xbe, 0x34, 0x1c, 0x41, 0x3d, 0x80, 0xd2, 0xf8, 0xba,
	0x99, 0x70, 0x12, 0x3e, 0x8b, 0x89, 0x6c, 0xbe, 0x65, 0xbd, 0x50, 0xbe,
	0xe2, 0x21, 0x80, 0xbd, 0x93, 0xdd, 0x13, 0x3e, 0x02, 0x97, 0xc9, 0x3d,
	0xbd, 0x63, 0x2c, 0x3e, 0xa9, 0x11, 0x76, 0x3e, 0x66, 0xa9, 0xcf, 0xbd,
	0x5f, 0xb8, 0x28, 0x3e, 0x1c, 0xa2, 0x44, 0xbd, 0x61, 0x26, 0x05, 0xbe,
	0xc4, 0xd7, 0x91, 0xbd, 0xcc, 0x2d, 0x27, 0x3d, 0x2c, 0x3f, 0x1b, 0xbe,
	0xe6, 0x77, 0x61, 0xbe, 0x6d, 0x20, 0x07, 0x3e, 0x9d, 0xfc, 0x37, 0x3e,
	0x6a, 0x57, 0xd3, 0x3d, 0xc8, 0x5d, 0x88, 0x3c, 0xbe, 0x78, 0x8e, 0x3d,
	0xb0, 0xb4, 0xb0, 0xbc, 0xfc, 0x6d, 0x4b, 0xbd, 0x86, 0x61, 0x2f, 0xbe,
	0x46, 0xc1, 0x68, 0xbe, 0xa9, 0x58, 0x42, 0x3e, 0x84, 0x05, 0xe5, 0xbd,
	0x9c, 0x4a, 0x44, 0xbd, 0xb8, 0xe7, 0x2b, 0xbd, 0x9a, 0xbd, 0xc0, 0x3d,
	0xce, 0x48, 0x1d, 0xbe, 0x48, 0xea, 0xea, 0xbd, 0x61, 0xab, 0x61, 0x3e,
	0x4e, 0xd4, 0xd3, 0x3d, 0x0c, 0x31, 0x22, 0xbd, 0x4d, 0x02, 0x74, 0x3e,
	0xe5, 0x83, 0x4b, 0x3e, 0x04, 0x2f, 0x3b, 0xbe, 0x60, 0x55, 0xe3, 0xbb,
	0xe8, 0x56, 0x4e, 0xbe, 0xb0, 0x82, 0x28, 0x3c, 0x4a, 0xc2, 0xd2, 0x3d,
	0x70, 0xeb, 0x3e, 0x3c, 0x3c, 0x1f, 0x2b, 0x3d, 0x62, 0x00, 0x78, 0xbe,
	0xd0, 0x93, 0xc4, 0xbd, 0x86, 0x63, 0xa6, 0x3d, 0xd2, 0x6d, 0x3e, 0xbe,
	0x86, 0x8d, 0xe6, 0x3d, 0x46, 0x72, 0xa4, 0x3d, 0x3b, 0xe9, 0x03, 0x3e,
	0x76, 0x6e, 0xa9, 0xbd, 0x34, 0x1c, 0x14, 0xbd, 0x78, 0x3e, 0x08, 0xbd,
	0x40, 0x7a, 0xcf, 0xbc, 0x30, 0x32, 0x26, 0xbc, 0x60, 0xfc, 0x86, 0xbb,
	0xda, 0xc2, 0x5b, 0xbe, 0x3f, 0x06, 0x56, 0xbe, 0xc4, 0x2c, 0x3c, 0x3d,
	0xde, 0x0d, 0x1f, 0xbe, 0xc6, 0xf0, 0x21, 0xbe, 0xc4, 0x90, 0x4f, 0xbe,
	0x43, 0xb8, 0x19, 0xbe, 0x56, 0x48, 0x0d, 0xbe, 0x10, 0x28, 0x51, 0xbd,
	0x72, 0xc8, 0x63, 0xbe, 0x9f, 0x2c, 0x60, 0x3e, 0xbe, 0x84, 0xe6, 0x3d,
	0xd4, 0xf1, 0x22, 0x3d, 0xb0, 0xce, 0x03, 0xbc, 0xea, 0xc2, 0x11, 0xbe,
	0x1c, 0x0e, 0x9f, 0xbd, 0x68, 0xf6, 0xb5, 0x3c, 0xe8, 0x61, 0xf0, 0x3c,
	0x28, 0x6d, 0x9a, 0xbc, 0xf3, 0xa9, 0x65, 0x3e, 0x72, 0x72, 0x91, 0x3d,
	0x56, 0x30, 0x1c, 0xbe, 0x57, 0xa8, 0x77, 0xbe, 0x3d, 0x72, 0x6b, 0x3e,
	0x64, 0xc8, 0x15, 0xbe, 0xa3, 0xcd, 0x36, 0x3e, 0x21, 0x57, 0x2f, 0xbe,
	0x54, 0x87, 0x04, 0x3d, 0x0c, 0x56, 0x37, 0xbe, 0x25, 0x8d, 0x5a, 0xbe,
	0x3b, 0xdf, 0x3f, 0x3e, 0x84, 0x2c, 0xe0, 0xbd, 0x12, 0xdd, 0x92, 0x3d,
	0x46, 0xe5, 0x49, 0xbe, 0x66, 0x79, 0xfd, 0x3d, 0x96, 0x12, 0x0f, 0xbd,
	0x70, 0xed, 0x2a, 0x3c, 0x84, 0xd2, 0xbe, 0x39, 0xa0, 0x3c, 0x06, 0xbd,
	0x9a, 0xa2, 0x85, 0xbb, 0x10, 0xaa, 0x71, 0x3e, 0xba, 0x15, 0xc8, 0x3d,
	0x97, 0x22, 0x45, 0xbe, 0x20, 0x7c, 0xe3, 0xbb, 0x82, 0xb7, 0x42, 0xbd,
	0x0c, 0x76, 0xc0, 0xbd, 0xe6, 0x6f, 0x9a, 0x3d, 0xcf, 0x71, 0x3d, 0xbe,
	0x1a, 0x83, 0x8f, 0xbd, 0x80, 0xc0, 0x94, 0xbc, 0x41, 0x82, 0x7a, 0x3e,
	0x0f, 0x7e, 0x5e, 0x3e, 0xe7, 0x9d, 0x5c, 0x3e, 0x8c, 0x72, 0x03, 0x3d,
	0xb1, 0x77, 0x22, 0x3e, 0x1b, 0x30, 0xaa, 0xbd, 0x98, 0x0b, 0x4c, 0xbc,
	0x7c, 0x44, 0x42, 0x3d, 0xfe, 0x4c, 0x3e, 0x3d, 0x7b, 0x64, 0x44, 0xbd,
	0x96, 0x32, 0xe4, 0xbd, 0x49, 0xc1, 0x3a, 0xbe, 0x8e, 0xe8, 0xca, 0x3d,
	0x38, 0x71, 0x90, 0xbd, 0x15, 0x26, 0x53, 0xbe, 0xfe, 0xee, 0x13, 0xbe,
	0x74, 0xf5, 0x03, 0xbe, 0xd7, 0x62, 0x93, 0x3d, 0xc4, 0x41, 0x7b, 0x3d,
	0xef, 0x58, 0x39, 0x3e, 0x39, 0xc1, 0xa2, 0xbd, 0x74, 0x3a, 0x30, 0xbd,
	0xe1, 0x7e, 0xb6, 0x3d, 0xdc, 0xc7, 0x25, 0xbe, 0x35, 0x24, 0x64, 0x3e,
	0xa0, 0x5b, 0x2c, 0xbe, 0x89, 0x5e, 0x1a, 0xbe, 0x4a, 0xe4, 0xaa, 0x3d,
	0x04, 0x0b, 0x3a, 0x3e, 0x94, 0xd9, 0x8c, 0xbc, 0x6b, 0xaf, 0x42, 0x3e,
	0x85, 0x09, 0xb3, 0xbd, 0xf5, 0xac, 0x17, 0x3e, 0x7b, 0xb2, 0x1b, 0xbe,
	0xdc, 0xe0, 0x53, 0x3e, 0x11, 0xcf, 0x9f, 0x3a, 0xfe, 0x07, 0xc9, 0x3d,
	0xbc, 0x86, 0x1d, 0xbe, 0x82, 0x0f, 0x8f, 0x3d, 0x0c, 0x8b, 0x6b, 0x3d,
	0x85, 0x12, 0xa1, 0x3d, 0xa7, 0x88, 0x56, 0x3d, 0x90, 0xbe, 0x47, 0x3c,
	0xf2, 0x6c, 0x5f, 0xbe, 0x68, 0x64, 0xef, 0xbd, 0x01, 0xeb, 0x1b, 0x3e,
	0x94, 0x33, 0x2e, 0xbe, 0xb4, 0x5b, 0x43, 0xbe, 0xf9, 0xd1, 0x29, 0x3e,
	0x7f, 0xe9, 0x3a, 0x3e, 0xf4, 0x0a, 0x17, 0xbe, 0xab, 0x47, 0x28, 0x3e,
	0x09, 0xf0, 0x4f, 0x3e, 0xc0, 0x7c, 0x97, 0x3b, 0x32, 0xc0, 0xd4, 0xbd,
	0x50, 0xd2, 0xab, 0x3d, 0xdb, 0x4b, 0xc0, 0x3d, 0xed, 0xa8, 0x0c, 0x3e,
	0x23, 0x6a, 0x40, 0xbe, 0x6c, 0xda, 0xd5, 0x3d, 0xea, 0x1b, 0x8d, 0xbd,
	0x67, 0xc1, 0xb3, 0xbd, 0x46, 0xb5, 0xce, 0x3d, 0x46, 0x3f, 0x49, 0xbe,
	0x40, 0xc0, 0x03, 0xbe, 0xf8, 0x47, 0xc8, 0xbc, 0xd2, 0xc0, 0x43, 0x3e,
	0xe8, 0x2c, 0x46, 0xbe, 0xdc, 0x6b, 0x1d, 0xbd, 0x54, 0x4a, 0xff, 0x3b,
	0x0a, 0x6d, 0x95, 0xbd, 0xca, 0xcc, 0x2d, 0xbe, 0xb5, 0x24, 0x8e, 0x3d,
	0x01, 0x7b, 0x0a, 0x3e, 0x5f, 0xd1, 0x3d, 0x3e, 0x86, 0xa0, 0x5e, 0xbe,
	0xc0, 0x4c, 0x9b, 0xbd, 0x40, 0xba, 0x11, 0xbe, 0xe2, 0x65, 0x20, 0xbd,
	0xe4, 0xfb, 0xb6, 0xbd, 0x0b, 0xaf, 0x06, 0x3e, 0xda, 0xa6, 0x0b, 0xbe,
	0x01, 0x0f, 0xc6, 0x3d, 0x7e, 0x53, 0x35, 0xbe, 0xfa, 0x0e, 0xdd, 0xbc,
	0x16, 0x7d, 0x95, 0x3d, 0x60, 0x2f, 0xad, 0x3b, 0x76, 0xfc, 0x6f, 0xbe,
	0x1f, 0xb6, 0x79, 0x3e, 0xc5, 0xc1, 0x63, 0xbe, 0x80, 0xcc, 0xad, 0xbd,
	0x1a, 0x63, 0xd4, 0x3d, 0xfc, 0x82, 0x24, 0x3d, 0x9c, 0x78, 0x2e, 0xbe,
	0xd6, 0xb5, 0x32, 0xbe, 0x29, 0x48, 0xfb, 0xbd, 0x58, 0xc0, 0x88, 0x3c,
	0x9b, 0x05, 0x3c, 0xbe, 0x97, 0xd3, 0x00, 0x3e, 0xc0, 0x50, 0x1c, 0xbb,
	0x04, 0xe4, 0x14, 0xbd, 0x79, 0xd2, 0xfe, 0xbd, 0x7c, 0x24, 0xeb, 0xbd,
	0x22, 0xa0, 0x25, 0xbe, 0xd6, 0x99, 0x74, 0xbe, 0xc9, 0x50, 0x55, 0xbe,
	0x05, 0x1d, 0x6d, 0xbe, 0x92, 0x18, 0x04, 0xbe, 0xf4, 0x53, 0x0b, 0xbe,
	0xf6, 0x34, 0xf8, 0x3d, 0x0a, 0x20, 0x98, 0x3d, 0x0c, 0xd2, 0x06, 0xbd,
	0x42, 0x29, 0xc2, 0xbd, 0x0a, 0xc3, 0xad, 0xbd, 0xa6, 0x95, 0xe9, 0xbd,
	0x78, 0x1d, 0x04, 0xbe, 0xa8, 0x4a, 0xe7, 0xbc, 0x7b, 0xfa, 0x2a, 0x3e,
	0x28, 0x43, 0x18, 0xbe, 0xb6, 0x15, 0x1b, 0xbe, 0xa3, 0x91, 0x3c, 0x3e,
	0x15, 0xd0, 0x6a, 0x3e, 0x99, 0x83, 0x26, 0x3e, 0x7e, 0x0e, 0x88, 0x3d,
	0x4e, 0x0c, 0x69, 0xbe, 0x48, 0x68, 0x8c, 0x3c, 0xa0, 0xf6, 0x1c, 0xbc,
	0x54, 0x39, 0x5c, 0xbd, 0x4e, 0x1d, 0xc7, 0x3d, 0xd0, 0xef, 0x1b, 0x3c,
	0xa0, 0xe4, 0xd4, 0xbd, 0x61, 0x99, 0x38, 0x3e, 0xa7, 0x0c, 0x46, 0x3e,
	0x21, 0x35, 0x6d, 0xbe, 0x02, 0x8b, 0xe0, 0x3d, 0x57, 0x78, 0x7a, 0x3e,
	0xaa, 0xa1, 0x13, 0xbe, 0xd6, 0x93, 0xbc, 0x3d, 0x80, 0xc6, 0xc6, 0x3a,
	0x60, 0xf8, 0xc3, 0x3b, 0x8d, 0x6a, 0x19, 0x3e, 0xcc, 0xbb, 0x11, 0xbe,
	0x96, 0xf7, 0x87, 0x3d, 0x90, 0xb6, 0x8b, 0xbd, 0x5b, 0xd6, 0x5b, 0x3e,
	0x6a, 0x87, 0xab, 0x3d, 0xd5, 0x8b, 0x04, 0xbe, 0x69, 0x46, 0x3c, 0x3e,
	0x9a, 0xaf, 0x95, 0x3d, 0xa8, 0x63, 0x82, 0x3c, 0x05, 0xe4, 0x07, 0x3e,
	0xf7, 0x03, 0x49, 0x3e, 0xbc, 0x3f, 0x4a, 0xbe, 0x0b, 0x30, 0x30, 0x3e,
	0x77, 0xe7, 0x13, 0x3e, 0xe0, 0xcc, 0x95, 0xbd, 0xa0, 0xf2, 0x8f, 0xbc,
	0x8d, 0xc8, 0x13, 0x3e, 0x20, 0xbb, 0x83, 0x3b, 0xf6, 0x78, 0x81, 0xbd,
	0xc8, 0x03, 0x98, 0xbc, 0xef, 0x40, 0x6e, 0x3e, 0x63, 0xc9, 0x52, 0x3e,
	0xd8, 0x42, 0xfb, 0x3c, 0x56, 0x0c, 0xc6, 0xbd, 0x21, 0x57, 0x52, 0x3e,
	0x88, 0xce, 0xdb, 0xbd, 0x34, 0xc8, 0x4f, 0xbd, 0x34, 0x79, 0x5e, 0xbd,
	0xec, 0x26, 0x57, 0x3d, 0x47, 0x80, 0x3c, 0xbe, 0xe6, 0x89, 0x37, 0xbe,
	0xb8, 0xe0, 0xa1, 0x3c, 0x54, 0xbf, 0x52, 0xbe, 0x25, 0xba, 0x20, 0x3e,
	0x84, 0x7b, 0x11, 0xbd, 0x78, 0x5f, 0x14, 0xbe, 0x46, 0xa0, 0xde, 0x3d,
	0x2c, 0xdf, 0x6f, 0x3d, 0x36, 0xf7, 0xaf, 0x3d, 0x89, 0x59, 0x73, 0xbe,
	0xf5, 0xa8, 0x57, 0xbe, 0x27, 0xa5, 0x25, 0xbe, 0x51, 0x10, 0x18, 0xbe,
	0x78, 0xf8, 0xde, 0xbc, 0x6c, 0xf0, 0x54, 0x3d, 0x3f, 0x86, 0x04, 0x3e,
	0x81, 0x12, 0x5b, 0xbe, 0x20, 0xe0, 0x6c, 0xbd, 0xfc, 0x9b, 0x01, 0x3d,
	0xf1, 0xed, 0x4a, 0x3e, 0x20, 0x77, 0x2b, 0xbc, 0x80, 0x27, 0x2e, 0xbe,
	0x9a, 0x9d, 0xa5, 0x3d, 0x3e, 0x13, 0x70, 0xbe, 0x84, 0x69, 0x38, 0x3d,
	0x85, 0xc9, 0x1c, 0x3e, 0xb0, 0xc0, 0x49, 0x3c, 0x40, 0x06, 0xe1, 0xbc,
	0x3b, 0x3c, 0x45, 0x3e, 0x16, 0xc9, 0x81, 0x3d, 0x9e, 0x1d, 0xbe, 0xbd,
	0x97, 0x5a, 0x15, 0x3e, 0xff, 0xdb, 0x44, 0x3e, 0xe6, 0x4a, 0xbb, 0x3d,
	0x06, 0xb9, 0xb9, 0xbd, 0x41, 0xe9, 0x78, 0x3e, 0x84, 0xe8, 0x56, 0xbd,
	0x10, 0xf3, 0x75, 0xbe, 0x0c, 0x3b, 0xe8, 0xbd, 0x20, 0x2a, 0xf2, 0xbb,
	0xd0, 0x5a, 0x69, 0xbe, 0x0a, 0xf7, 0x11, 0xbe, 0xb2, 0x55, 0xee, 0xbd,
	0x3c, 0xf7, 0x3d, 0x3d, 0x42, 0xc1, 0x91, 0x3d, 0xdc, 0x70, 0x55, 0xbe,
	0xd6, 0x35, 0xe7, 0x3d, 0x68, 0x8d, 0x11, 0xbe, 0x7e, 0x8a, 0x52, 0xbe,
	0xed, 0x31, 0x4a, 0x3e, 0x60, 0xef, 0x80, 0x3b, 0xbd, 0xcb, 0x0d, 0xbe,
	0xd3, 0x24, 0x23, 0x3e, 0x75, 0xca, 0x4b, 0xbe, 0x71, 0x40, 0x66, 0x3e,
	0x00, 0x89, 0xe6, 0xba, 0x50, 0x03, 0x78, 0x3c, 0x04, 0xb3, 0x35, 0xbe,
	0xa8, 0xd2, 0x55, 0xbe, 0x21, 0x4a, 0x50, 0xbe, 0x30, 0xec, 0x61, 0xbd,
	0xc0, 0x21, 0x8e, 0x3b, 0x61, 0x5f, 0x58, 0x3e, 0x4d, 0x99, 0x4c, 0xbe,
	0xf2, 0x40, 0xaf, 0x3d, 0xa8, 0xa6, 0x33, 0xbe, 0x2e, 0x82, 0xec, 0x3d,
	0x40, 0x99, 0x48, 0xbd, 0x8a, 0x5f, 0x6e, 0xbe, 0xd6, 0xc8, 0xb3, 0x3d,
	0x64, 0x05, 0x1a, 0xbe, 0x1a, 0x23, 0x55, 0xbe, 0x90, 0xc1, 0x00, 0x3c,
	0x84, 0x77, 0x10, 0xbe, 0xe0, 0x54, 0xdc, 0xbb, 0x03, 0x60, 0x31, 0x3e,
	0x7d, 0xed, 0x18, 0x3e, 0xc2, 0xf5, 0x70, 0xbe, 0x65, 0x16, 0x47, 0xbe,
	0xed, 0xe5, 0x33, 0x3e, 0xbd, 0xbf, 0x78, 0x3e, 0x1b, 0xa5, 0x54, 0x3e,
	0x7d, 0x5a, 0x6f, 0x3e, 0x99, 0xd9, 0x60, 0xbe, 0xdc, 0x25, 0x27, 0xbe,
	0xf0, 0xcf, 0x14, 0xbc, 0x4e, 0x48, 0x0c, 0xbe, 0x8c, 0xac, 0xce, 0xbd,
	0xab, 0x55, 0x62, 0xbe, 0x78, 0xde, 0xe1, 0xbd, 0xce, 0xfe, 0xe3, 0xbd,
	0x14, 0xc4, 0xd4, 0xbd, 0x6c, 0xb2, 0x09, 0xbd, 0xda, 0x77, 0x99, 0x3d,
	0x3e, 0x27, 0x00, 0xbe, 0xe0, 0x50, 0x25, 0xbd, 0xd3, 0xcf, 0x70, 0x3e,
	0x7c, 0x02, 0xf4, 0xbd, 0x48, 0x03, 0x55, 0xbd, 0xaa, 0x2e, 0xa2, 0xbd,
	0xf6, 0xb6, 0x80, 0xbd, 0x8d, 0xbc, 0x3d, 0x3e, 0xbe, 0xce, 0xff, 0x3d,
	0x07, 0xcb, 0x02, 0x3e, 0x00, 0x40, 0x41, 0x3a, 0x84, 0x76, 0x62, 0xbd,
	0xb6, 0x44, 0x94, 0x3d, 0x33, 0x01, 0x43, 0x3e, 0x26, 0x14, 0xff, 0x3d,
	0x5a, 0x9d, 0x84, 0x3d, 0x40, 0x52, 0x7b, 0x3b, 0x40, 0xa3, 0x9f, 0xbb,
	0x30, 0x71, 0x79, 0xbe, 0x08, 0xb4, 0xea, 0xbc, 0x76, 0xdf, 0xf6, 0x3d,
	0xd2, 0xab, 0xd1, 0xbd, 0xb2, 0xda, 0x24, 0xbe, 0xbe, 0x4d, 0x9f, 0x3d,
	0x97, 0x7f, 0x5c, 0x3e, 0xaa, 0x02, 0x48, 0x3e, 0x20, 0x9b, 0xd8, 0x3d,
	0x41, 0xea, 0x52, 0x3e, 0x01, 0x16, 0x5f, 0xbe, 0xea, 0x48, 0xf4, 0x3d,
	0xc4, 0xb5, 0x0c, 0x3a, 0x64, 0x9a, 0x6b, 0xbd, 0x9a, 0xb9, 0xe7, 0x3d,
	0x2f, 0x5d, 0x48, 0x3e, 0xb0, 0xf0, 0x15, 0x3c, 0xa6, 0x34, 0x98, 0xbd,
	0x9c, 0x46, 0x13, 0x3d, 0xf0, 0xc2, 0x7b, 0x3c, 0x46, 0x1b, 0x67, 0xbe,
	0x96, 0x22, 0xbc, 0x3d, 0x4c, 0xca, 0x1a, 0x3d, 0x29, 0xee, 0xe0, 0xbd,
	0x2c, 0x0b, 0x3d, 0x3d, 0x02, 0xef, 0x95, 0xbd, 0x33, 0xbd, 0x63, 0x3d,
	0x48, 0x14, 0x55, 0xbe, 0x66, 0x86, 0x04, 0x3e, 0xe8, 0xbf, 0xdc, 0x3c,
	0x1f, 0x03, 0x3a, 0x3e, 0xc0, 0xb8, 0x72, 0xbd, 0xab, 0x65, 0x2d, 0xbe,
	0x0d, 0x5e, 0x0c, 0xbe, 0xb6, 0x2e, 0x38, 0x3e, 0x5e, 0xc4, 0x11, 0xbe,
	0xc0, 0x4c, 0xcc, 0x3d, 0x5c, 0x6d, 0x68, 0xbe, 0xbb, 0xd8, 0x69, 0x3e,
	0xc7, 0x4b, 0x06, 0x3e, 0x74, 0x7a, 0xf4, 0xbd, 0xee, 0xa8, 0x3f, 0xbe,
	0x2f, 0xfb, 0x0e, 0xbe, 0x0a, 0xcd, 0x6a, 0xbe, 0x8b, 0x67, 0x0f, 0x3e,
	0x71, 0xe0, 0x5a, 0xbe, 0x2f, 0x0f, 0xcc, 0xba, 0xca, 0x7c, 0x25, 0x3e,
	0xe0, 0xc2, 0xce, 0x3d, 0x9c, 0x26, 0xb1, 0x3d, 0x5c, 0xf7, 0x27, 0x3c,
	0xc2, 0xc1, 0xc0, 0xbd, 0x32, 0x7f, 0xa2, 0xbd, 0x56, 0xda, 0xee, 0x3d,
	0xd9, 0x21, 0xfe, 0x3b, 0x43, 0x02, 0x5b, 0xbe, 0xa4, 0x26, 0x06, 0xbc,
	0x73, 0x3a, 0xda, 0x3d, 0x38, 0x72, 0xa6, 0x3c, 0xfc, 0x62, 0x12, 0xbd,
	0x86, 0x3c, 0x84, 0x3d, 0xd0, 0x96, 0xec, 0xbd, 0xda, 0x5a, 0x53, 0x3d,
	0x4c, 0x8f, 0x11, 0xbd, 0x4c, 0xad, 0xa0, 0xbc, 0x49, 0xaf, 0x61, 0x3e,
	0x88, 0x80, 0x95, 0xbc, 0xa2, 0x7f, 0xa5, 0xbd, 0x28, 0xd9, 0xf2, 0xbc,
	0xef, 0x08, 0x40, 0x3e, 0x7d, 0x6d, 0x41, 0x3e, 0x88, 0x99, 0xbf, 0xbd,
	0x8c, 0xa2, 0x84, 0x3d, 0xe0, 0x0f, 0xcd, 0x3d, 0xdc, 0x5c, 0x7e, 0xbd,
	0x4a, 0x2a, 0x95, 0x3d, 0x10, 0x3f, 0x41, 0xbe, 0xb2, 0xba, 0xce, 0xbd,
	0xec, 0x66, 0x43, 0x3e, 0x40, 0x9d, 0x1d, 0xbc, 0x80, 0x4c, 0x5a, 0xbd,
	0xbb, 0x6d, 0x04, 0x3e, 0x83, 0x3c, 0x2b, 0xbe, 0x3a, 0x01, 0x5e, 0xbd,
	0xcb, 0xa0, 0xe2, 0xbc, 0xd0, 0xa9, 0xaf, 0xbd, 0x5c, 0x5c, 0xde, 0xbd,
	0x77, 0xaf, 0x5f, 0x3e, 0x1a, 0xee, 0x4e, 0xbe, 0x28, 0x06, 0x68, 0xbe,
	0xff, 0x91, 0x09, 0x3e, 0xf4, 0x3a, 0x32, 0x3d, 0xde, 0xcf, 0xd6, 0x3d,
	0x82, 0xd5, 0xff, 0x3d, 0xe3, 0x62, 0x58, 0xbe, 0xf6, 0x7e, 0x90, 0xbc,
	0xa9, 0x15, 0x85, 0x3d, 0x48, 0xa8, 0xe5, 0x3d, 0x9f, 0xa0, 0x0a, 0xbd,
	0xf1, 0xf7, 0x33, 0x3e, 0x3f, 0xef, 0xc9, 0x3d, 0xb4, 0x78, 0xcb, 0xbd,
	0x62, 0x82, 0xc4, 0xbc, 0x39, 0x87, 0x18, 0xbe, 0x2b, 0xcd, 0xea, 0x3d,
	0x79, 0xf1, 0x4e, 0x3e, 0x8b, 0x23, 0xac, 0x3d, 0xec, 0xf0, 0xa2, 0xbd,
	0xd9, 0x63, 0x3c, 0xbe, 0xa9, 0x7e, 0x32, 0x3e, 0xcc, 0xdf, 0x18, 0xbd,
	0x0f, 0xa3, 0x02, 0xbe, 0x21, 0x80, 0x79, 0x3e, 0x6c, 0xdf, 0xf0, 0xbd,
	0x6e, 0x04, 0x1d, 0x3e, 0xc0, 0x5a, 0x85, 0xbd, 0xb2, 0x47, 0xee, 0x3d,
	0x4f, 0x25, 0x0c, 0x3e, 0x5c, 0x23, 0x55, 0x3d, 0xa6, 0x4e, 0xc3, 0x3d,
	0xb0, 0x4f, 0x5c, 0xbd, 0xf2, 0xe5, 0x0f, 0xbe, 0xea, 0xfa, 0x04, 0x3e,
	0x80, 0x69, 0x0f, 0x3e, 0xeb, 0x6d, 0x39, 0x3e, 0x43, 0x89, 0x5a, 0xbe,
	0x47, 0xd8, 0x52, 0x3e, 0x7b, 0xd5, 0x01, 0x3e, 0x21, 0x51, 0xb2, 0x3d,
	0x21, 0x9c, 0x3e, 0x3e, 0xce, 0x2f, 0xa4, 0x3d, 0x88, 0xf6, 0x59, 0xbe,
	0x94, 0x7a, 0x14, 0x3d, 0x14, 0x60, 0x4e, 0x3d, 0x7d, 0x19, 0x59, 0x3e,
	0x8c, 0xd2, 0x78, 0xbd, 0x76, 0x6e, 0xfa, 0x3d, 0x10, 0x3b, 0x30, 0xbe,
	0xf9, 0x4b, 0x18, 0x3e, 0x4c, 0x22, 0x53, 0xbd, 0xf0, 0x49, 0x91, 0xbd,
	0x09, 0xb0, 0x67, 0x3e, 0x77, 0xaa, 0x17, 0x3e, 0xa0, 0x20, 0xdd, 0xbd,
	0x0c, 0x81, 0x58, 0x3d, 0x7b, 0xd8, 0x0a, 0x3e, 0x05, 0x62, 0x4b, 0xbe,
	0x96, 0xc1, 0x19, 0xbc, 0xfe, 0xa3, 0x42, 0x3e, 0x02, 0xe5, 0x56, 0x3d,
	0x3a, 0xf2, 0x84, 0x3c, 0xb3, 0x83, 0x2e, 0xbe, 0xe5, 0xb7, 0xd6, 0xbd,
	0x22, 0xb7, 0xcb, 0xbd, 0x50, 0x82, 0x72, 0xbe, 0xa2, 0xc2, 0x83, 0xbd,
	0x38, 0x7f, 0xdb, 0xbc, 0xc3, 0xf9, 0x14, 0x3e, 0xe4, 0x22, 0xb6, 0xbd,
	0xce, 0x54, 0x5f, 0xbe, 0x29, 0xe1, 0x60, 0x3e, 0xba, 0x8b, 0xaf, 0x3c,
	0xf8, 0x98, 0x42, 0x3d, 0x16, 0x39, 0x5c, 0xbe, 0x7b, 0x8d, 0xf2, 0x3c,
	0x04, 0xd0, 0x34, 0x3d, 0x00, 0xd1, 0x92, 0xbd, 0xc0, 0x1a, 0x4b, 0xbb,
	0x60, 0x97, 0xa3, 0x3b, 0x2e, 0xb1, 0xd1, 0x3d, 0xa3, 0x20, 0x62, 0x3e,
	0x14, 0x70, 0x4b, 0x3e, 0xd0, 0x3b, 0x02, 0x3e, 0x79, 0x42, 0xac, 0xbc,
	0x29, 0xe3, 0x07, 0x3e, 0x25, 0x9c, 0x83, 0x3d, 0x55, 0xa5, 0x05, 0xbe,
	0x3e, 0xad, 0xbc, 0xbd, 0x8d, 0xd0, 0x42, 0x3e, 0x44, 0xc6, 0x1a, 0x3d,
	0x38, 0x49, 0x1e, 0xbe, 0xe0, 0xf6, 0x7c, 0xbd, 0xcf, 0xe6, 0x44, 0xbe,
	0xf6, 0x5c, 0x59, 0x3d, 0x54, 0x2f, 0x46, 0x3e, 0x5e, 0x01, 0xc1, 0x3d,
	0x2b, 0xf3, 0x22, 0x3e, 0x68, 0x3b, 0x3c, 0xbe, 0x4c, 0x16, 0x31, 0xbe,
	0x6e, 0x3e, 0x25, 0xbd, 0x8e, 0x56, 0xa0, 0x3d, 0x64, 0xdf, 0x26, 0xbe,
	0xe0, 0x36, 0x3f, 0xbe, 0x81, 0xde, 0x14, 0x3e, 0xb7, 0x02, 0x72, 0x3e,
	0xe0, 0xd0, 0x0c, 0x3d, 0xa6, 0xe5, 0x65, 0x3e, 0x05, 0x96, 0xbe, 0xbd,
	0x38, 0x73, 0x3c, 0x3e, 0x41, 0x6b, 0x3b, 0x3e, 0x91, 0x58, 0x04, 0xbe,
	0xa9, 0x6e, 0x0b, 0xbe, 0xca, 0xf2, 0xff, 0xff, 0x30, 0x00, 0x00, 0x00,
	0x06, 0x00, 0x00, 0x00, 0x08, 0x00, 0x00, 0x00, 0x30, 0x00, 0x00, 0x00,
	0x19, 0x00, 0x00, 0x00, 0x73, 0x65, 0x71, 0x75, 0x65, 0x6e, 0x74, 0x69,
	0x61, 0x6c, 0x2f, 0x64, 0x65, 0x6e, 0x73, 0x65, 0x5f, 0x31, 0x2f, 0x4d,
	0x61, 0x74, 0x4d, 0x75, 0x6c, 0x00, 0x00, 0x00, 0x02, 0x00, 0x00, 0x00,
	0x32, 0x00, 0x00, 0x00, 0x32, 0x00, 0x00, 0x00, 0x4c, 0xf2, 0xff, 0xff,
	0xea, 0xf3, 0xff, 0xff, 0x04, 0x00, 0x00, 0x00, 0x28, 0x0a, 0x00, 0x00,
	0x98, 0x48, 0x93, 0xbd, 0xc4, 0xc5, 0x25, 0x3e, 0xc5, 0xed, 0x94, 0xbe,
	0xb3, 0xcf, 0x8f, 0xbe, 0x04, 0x48, 0x6c, 0xbe, 0x38, 0x90, 0x32, 0x3e,
	0x85, 0xee, 0x15, 0x3e, 0x0c, 0x96, 0x04, 0xbe, 0xaf, 0x48, 0xf6, 0xba,
	0xbd, 0x8a, 0x7d, 0x3d, 0xa3, 0x60, 0x43, 0xbe, 0xb6, 0xa7, 0x46, 0x3e,
	0xed, 0xc5, 0x43, 0x3d, 0x47, 0xde, 0x82, 0x3e, 0x3a, 0xf7, 0x2f, 0x3e,
	0xed, 0xc2, 0x30, 0xbe, 0xda, 0x67, 0x74, 0x3e, 0x68, 0x26, 0x5b, 0xbe,
	0xba, 0x2e, 0x73, 0x3e, 0xe8, 0x13, 0xb7, 0x3d, 0x61, 0x7a, 0x58, 0xbe,
	0x2e, 0xf1, 0x17, 0x3e, 0x58, 0x5f, 0xa0, 0xbd, 0x9e, 0x8f, 0xb4, 0xbd,
	0x97, 0xe0, 0x4b, 0xbe, 0x72, 0x2c, 0xe9, 0xbd, 0xb4, 0xbf, 0x7f, 0x3e,
	0x5b, 0x18, 0x0b, 0xbe, 0x4c, 0xca, 0x78, 0x3e, 0x39, 0xec, 0x23, 0x3e,
	0xac, 0xd7, 0x80, 0x3b, 0x5e, 0xcd, 0x02, 0xbe, 0xb9, 0x54, 0x0f, 0x3e,
	0xf9, 0x0d, 0x31, 0x3c, 0x97, 0xb8, 0x07, 0xbe, 0x0c, 0xae, 0x91, 0x3e,
	0xe4, 0xca, 0x20, 0xbe, 0x76, 0x45, 0x3f, 0x3e, 0x6a, 0x2f, 0xf5, 0x3d,
	0x4f, 0x0b, 0x91, 0xbe, 0x50, 0xdf, 0x9a, 0x3c, 0x56, 0x1a, 0x5d, 0x3e,
	0xa0, 0xdf, 0x4b, 0xbc, 0xbf, 0xe3, 0x51, 0xbe, 0x36, 0xad, 0x4e, 0x3e,
	0xdc, 0x88, 0x31, 0xbe, 0x1c, 0x9d, 0x41, 0xbe, 0x20, 0xb8, 0x32, 0xbc,
	0x58, 0x1b, 0x38, 0x3e, 0xcc, 0xd7, 0x81, 0xbd, 0x02, 0xe8, 0x7b, 0x3e,
	0x88, 0xc8, 0x46, 0xbe, 0x75, 0xcb, 0x15, 0xbe, 0xba, 0xa8, 0x8a, 0x3e,
	0xf5, 0xa9, 0xa9, 0xbd, 0xc9, 0x25, 0x10, 0x3d, 0xe0, 0x79, 0x17, 0xbc,
	0xed, 0x45, 0x8a, 0xbe, 0x42, 0x1f, 0xdb, 0x3b, 0x36, 0x96, 0xf8, 0x3d,
	0x32, 0xbb, 0x6f, 0x3d, 0xb3, 0xff, 0xc6, 0x3e, 0x88, 0x42, 0x3b, 0x3e,
	0x8e, 0x50, 0x0c, 0xbe, 0x2d, 0x78, 0x74, 0x3e, 0xa6, 0x23, 0x03, 0x3e,
	0x7b, 0x14, 0x4e, 0x3e, 0x82, 0xbc, 0x85, 0x3e, 0xa4, 0xd4, 0x7e, 0xbe,
	0x7e, 0x01, 0x79, 0x3d, 0x8b, 0x75, 0x68, 0x3e, 0x01, 0x85, 0x55, 0xbe,
	0x60, 0xad, 0x85, 0xbe, 0x5a, 0x4f, 0x8c, 0xbd, 0xc6, 0xe0, 0xac, 0x3e,
	0x98, 0xc8, 0xac, 0xbe, 0xcc, 0x4e, 0xaf, 0xbe, 0x0b, 0x1d, 0x85, 0x3c,
	0x80, 0x2d, 0x75, 0x3e, 0x92, 0xae, 0x31, 0xbe, 0xf4, 0x8f, 0x44, 0x3e,
	0x22, 0x08, 0xca, 0x3d, 0xf5, 0x76, 0x3c, 0x3e, 0xb9, 0x6b, 0x83, 0xbe,
	0xa2, 0xdd, 0x73, 0xba, 0x35, 0x36, 0x04, 0x3d, 0x09, 0x38, 0x72, 0x3e,
	0x23, 0xac, 0x0c, 0x3e, 0x9f, 0xdc, 0x12, 0xbe, 0xb1, 0xa5, 0xb3, 0x3e,
	0x2e, 0x20, 0x9a, 0x3d, 0x1b, 0xc5, 0x92, 0x3e, 0x88, 0xa2, 0x65, 0xbe,
	0x58, 0xc6, 0x51, 0xbd, 0x0e, 0x43, 0x8f, 0xbe, 0x94, 0xdc, 0xa9, 0x3d,
	0xae, 0x32, 0xe3, 0xbd, 0x90, 0x8e, 0x25, 0xbe, 0x60, 0xea, 0x2f, 0xbc,
	0x80, 0xc5, 0x90, 0x3d, 0x41, 0xa1, 0x72, 0xbe, 0x9d, 0x45, 0x2e, 0xbe,
	0x50, 0x54, 0x26, 0x3d, 0x88, 0x94, 0x6a, 0xbe, 0x12, 0x58, 0xcd, 0xbd,
	0x0d, 0x86, 0x32, 0xbe, 0xb0, 0x27, 0x6b, 0xbd, 0x76, 0x5a, 0xcd, 0xbd,
	0x05, 0x17, 0x79, 0xbe, 0x8e, 0x89, 0x4f, 0x3e, 0xa6, 0xf3, 0x59, 0x3e,
	0xed, 0xcc, 0x94, 0xbe, 0x90, 0x76, 0xe0, 0xbc, 0x00, 0x70, 0xd3, 0x3d,
	0xca, 0xe1, 0x8f, 0xbd, 0x3c, 0x5d, 0xa6, 0x3d, 0xd6, 0xa0, 0x96, 0xbd,
	0xc4, 0x2a, 0x8f, 0x3e, 0xb1, 0xfb, 0x82, 0xbd, 0x18, 0xdb, 0x78, 0xbe,
	0xe2, 0xd5, 0x69, 0x3d, 0xab, 0x8d, 0x97, 0x3e, 0x55, 0xf5, 0xa7, 0xbd,
	0xe8, 0x65, 0x99, 0xbe, 0xc5, 0x7b, 0x9c, 0xbd, 0xef, 0x62, 0x5e, 0x3e,
	0x37, 0xed, 0x95, 0x3e, 0xe7, 0xab, 0x09, 0x3e, 0x4e, 0x44, 0xba, 0xbe,
	0x49, 0x66, 0xef, 0x3d, 0x0e, 0xbf, 0x9d, 0x3d, 0xb2, 0xdf, 0x48, 0x3e,
	0x67, 0xb8, 0x62, 0x3d, 0x4b, 0xbc, 0x98, 0xbd, 0x15, 0x06, 0x02, 0x3d,
	0x96, 0x22, 0x68, 0x3d, 0xab, 0x2d, 0xae, 0x3c, 0x67, 0x44, 0x3a, 0xbe,
	0xe1, 0x6d, 0xff, 0x3d, 0xb8, 0x3a, 0xa2, 0xbe, 0x35, 0x25, 0x59, 0x3e,
	0xab, 0x27, 0xbb, 0xbd, 0x8b, 0x2e, 0x9a, 0x3e, 0x02, 0xe1, 0x2f, 0xbe,
	0xd8, 0x0c, 0xf5, 0x3d, 0x30, 0xa6, 0x43, 0x3d, 0x12, 0x0a, 0x5b, 0xbe,
	0xa1, 0xb8, 0x93, 0x3e, 0x12, 0x7f, 0xf8, 0xbd, 0x5e, 0x1d, 0x79, 0x3e,
	0x30, 0xdd, 0xef, 0xbc, 0xb0, 0x76, 0xc8, 0x3c, 0xc3, 0xe7, 0x68, 0xbe,
	0x80, 0x99, 0x5a, 0x3c, 0x9c, 0x9a, 0x12, 0x3e, 0x0a, 0x6b, 0x97, 0xbe,
	0x80, 0x03, 0x73, 0x3e, 0xf4, 0x8e, 0x88, 0xbc, 0xbc, 0x07, 0x27, 0xbe,
	0xfd, 0x28, 0x60, 0xbe, 0xf1, 0x66, 0x04, 0xbe, 0x86, 0x9a, 0x52, 0xbb,
	0x04, 0x94, 0xa9, 0xbe, 0xcf, 0xa6, 0x04, 0x3e, 0x50, 0xdf, 0x0a, 0xbd,
	0xa5, 0x03, 0x93, 0x3e, 0xe7, 0x39, 0xb8, 0xbe, 0xc7, 0xbf, 0x5f, 0xbe,
	0x84, 0x5f, 0x85, 0x3d, 0x38, 0x48, 0x1a, 0xbe, 0x30, 0xc3, 0x12, 0x3e,
	0xec, 0x36, 0x86, 0xbe, 0xee, 0x19, 0x1a, 0x3e, 0x10, 0xf1, 0xdf, 0xbd,
	0x99, 0x21, 0x17, 0xbe, 0x20, 0x83, 0x38, 0x3d, 0x2c, 0x8c, 0x11, 0x3e,
	0xf4, 0xaa, 0x9a, 0xbe, 0x30, 0xcf, 0x1c, 0x3d, 0xc2, 0x3a, 0x88, 0xbd,
	0xc2, 0xfc, 0x98, 0xbe, 0xa9, 0xa9, 0x93, 0xbe, 0xb2, 0x31, 0x55, 0x3e,
	0x20, 0xd2, 0xac, 0xbd, 0xd1, 0xbe, 0x8c, 0x3e, 0x84, 0x78, 0xbe, 0x3d,
	0x59, 0xb9, 0x8e, 0x3e, 0x85, 0x09, 0x97, 0xbe, 0x0d, 0x24, 0x82, 0x3e,
	0x22, 0xcb, 0x73, 0x3e, 0x00, 0x13, 0x0f, 0xbd, 0x70, 0x5e, 0x3b, 0xbd,
	0x68, 0xc0, 0x43, 0x3d, 0xba, 0x8b, 0x81, 0xbe, 0xc8, 0x67, 0xf0, 0xbd,
	0xd5, 0xe6, 0x02, 0xbe, 0x10, 0x61, 0x3c, 0x3e, 0x7a, 0x94, 0xcd, 0xbd,
	0xca, 0xee, 0x71, 0x3e, 0x56, 0x5c, 0x50, 0x3e, 0x5e, 0x19, 0xf6, 0xbd,
	0x20, 0x92, 0x97, 0xbe, 0x96, 0x5c, 0x03, 0x3e, 0xa0, 0x90, 0xf1, 0xbc,
	0x64, 0x13, 0xeb, 0x3d, 0x32, 0x82, 0x59, 0x3e, 0x7a, 0x86, 0x2e, 0x3e,
	0x5c, 0xf9, 0x92, 0xbe, 0x8a, 0xc2, 0x73, 0x3e, 0xf2, 0xad, 0x31, 0x3e,
	0xfb, 0x9d, 0x86, 0x3e, 0xa0, 0x03, 0x90, 0x3d, 0x84, 0x70, 0x94, 0x3d,
	0x9c, 0xcd, 0xf8, 0xbd, 0x20, 0xb5, 0x0c, 0x3d, 0x00, 0xc8, 0x45, 0xba,
	0xcd, 0x44, 0x93, 0x3e, 0x04, 0x95, 0xbf, 0xbd, 0xb9, 0x27, 0x95, 0x3e,
	0x65, 0xd0, 0x96, 0x3e, 0x59, 0x39, 0x9b, 0xbe, 0x4a, 0x3c, 0x67, 0x3e,
	0xe0, 0xc0, 0xe4, 0x3c, 0xd5, 0xcf, 0x25, 0xbe, 0x88, 0x5e, 0x55, 0xbd,
	0x6c, 0x49, 0xcc, 0xbd, 0xc7, 0x2d, 0x9a, 0x3e, 0xc5, 0xfc, 0x97, 0x3e,
	0x53, 0xca, 0x81, 0x3e, 0x3f, 0x16, 0x33, 0xbe, 0x31, 0x15, 0x95, 0xbe,
	0xc0, 0x69, 0x09, 0xbe, 0x50, 0xf4, 0x22, 0xbd, 0x50, 0x7f, 0xff, 0xbc,
	0xb0, 0xb1, 0x37, 0x3e, 0x80, 0x1e, 0xcd, 0xbc, 0xc0, 0x90, 0x5b, 0x3c,
	0x00, 0x74, 0xa5, 0x39, 0x5d, 0x96, 0x51, 0xbe, 0x08, 0xcd, 0xb4, 0x3d,
	0x9a, 0xd2, 0x0e, 0x3e, 0xf3, 0xf6, 0x81, 0x3e, 0x52, 0xa9, 0x41, 0xbe,
	0xfa, 0x74, 0x6e, 0x3e, 0x61, 0x4e, 0x8c, 0x3e, 0xb9, 0xa6, 0x8a, 0x3e,
	0xfa, 0x5c, 0x5e, 0xbe, 0xd8, 0xf4, 0x2b, 0xbe, 0x7f, 0x85, 0x85, 0x3d,
	0xe3, 0x2c, 0xdb, 0xbd, 0x33, 0x12, 0x45, 0xbe, 0x49, 0x46, 0x8b, 0x3e,
	0x65, 0xb4, 0x70, 0xbe, 0x04, 0xc1, 0x2f, 0x3e, 0x5f, 0x06, 0xa9, 0xbe,
	0x96, 0x54, 0x93, 0xbd, 0x7f, 0x5d, 0x7e, 0x3d, 0x52, 0x64, 0x29, 0x3e,
	0x81, 0x59, 0x99, 0x3e, 0x77, 0x6b, 0x35, 0x3e, 0x35, 0x7d, 0x38, 0xbe,
	0xb4, 0x66, 0x1e, 0xbe, 0xad, 0x48, 0x53, 0xbe, 0xa1, 0x04, 0x22, 0xbe,
	0x96, 0xba, 0x84, 0xbd, 0x20, 0x2e, 0x0d, 0x3e, 0xff, 0x0b, 0x5c, 0xbe,
	0x18, 0x3f, 0x74, 0xbe, 0x0a, 0x97, 0x4d, 0xbe, 0xa0, 0xcf, 0x20, 0xbc,
	0x75, 0x0b, 0x00, 0xbe, 0x78, 0x01, 0x2f, 0x3a, 0xb9, 0x9b, 0x78, 0x3e,
	0xe7, 0x16, 0xde, 0xbd, 0xbf, 0xd0, 0x99, 0x3e, 0xba, 0xb0, 0x2b, 0xbe,
	0xd5, 0x79, 0x5f, 0x3d, 0x89, 0x20, 0x3c, 0x3e, 0x6a, 0xa2, 0xe2, 0x3d,
	0xe7, 0x52, 0xd9, 0xbc, 0x7a, 0xd1, 0x4c, 0xbe, 0x69, 0x1b, 0x76, 0x3e,
	0xa1, 0x03, 0x8c, 0x3e, 0x24, 0x08, 0xa7, 0x3d, 0xed, 0x00, 0xec, 0xbd,
	0xee, 0x26, 0x6f, 0x3e, 0x3c, 0x7f, 0x1b, 0x3e, 0x90, 0x04, 0xde, 0xbc,
	0x60, 0xd9, 0xe8, 0x3c, 0x6e, 0x91, 0x0e, 0xbe, 0x78, 0x3d, 0x76, 0xbd,
	0x86, 0x2c, 0x69, 0x3e, 0x50, 0xd4, 0x65, 0xbe, 0x90, 0x6f, 0xac, 0xbc,
	0xca, 0xbf, 0x2f, 0x3e, 0xba, 0xac, 0x70, 0x3e, 0x24, 0x49, 0xd1, 0x3d,
	0xb0, 0xc0, 0x28, 0xbd, 0x04, 0xf9, 0xa1, 0xbd, 0xbc, 0x56, 0xd8, 0x3c,
	0x01, 0x0b, 0x5a, 0xbe, 0x2d, 0x38, 0x4a, 0xbe, 0x34, 0x50, 0x7b, 0x3e,
	0xa5, 0xdb, 0x4b, 0x3e, 0x0c, 0xe3, 0xaa, 0xbb, 0x0f, 0xcc, 0x07, 0xbe,
	0xac, 0x4e, 0xa8, 0x3e, 0xcb, 0xfc, 0x15, 0x3d, 0xcd, 0x0e, 0x32, 0xbe,
	0x5d, 0x26, 0xa7, 0xbd, 0x5d, 0x22, 0x1f, 0xbe, 0x18, 0x0d, 0x32, 0xbd,
	0x84, 0x9b, 0x6c, 0xbe, 0x7b, 0xf4, 0x2d, 0xbb, 0x09, 0x81, 0xd7, 0x3d,
	0x02, 0x9b, 0x50, 0xbe, 0xc7, 0xeb, 0x91, 0xbe, 0x2b, 0x6f, 0x29, 0x3e,
	0xa0, 0xfc, 0x41, 0xbe, 0xcf, 0xe9, 0x8b, 0x3e, 0x57, 0x3c, 0x0a, 0xbe,
	0xeb, 0xc6, 0x99, 0x3e, 0xba, 0x2b, 0x5c, 0xbe, 0xe0, 0xb8, 0x8a, 0x3c,
	0xc9, 0x6d, 0x7c, 0x3e, 0xfc, 0xdf, 0x43, 0x3e, 0xee, 0x3a, 0x4a, 0x3e,
	0x76, 0x2c, 0x8a, 0xbd, 0x6c, 0xc1, 0x96, 0xbe, 0x13, 0x1d, 0x8e, 0x3e,
	0x8d, 0x82, 0x28, 0xbe, 0x89, 0xf2, 0x9d, 0x3e, 0xe0, 0x3e, 0x4e, 0x3c,
	0x80, 0x64, 0x1d, 0x3e, 0xec, 0xc5, 0xa6, 0x3d, 0x84, 0xb6, 0x96, 0xbd,
	0x48, 0xc2, 0x42, 0xbd, 0x7a, 0xc6, 0x37, 0xbe, 0x98, 0x0e, 0x57, 0xbe,
	0xf1, 0x6f, 0x43, 0x3e, 0x5b, 0x7f, 0x9b, 0x3e, 0x02, 0x83, 0x3e, 0x3c,
	0x52, 0xf5, 0x2b, 0x3d, 0x33, 0xa0, 0x9f, 0xbe, 0xa0, 0x8d, 0x13, 0xbe,
	0x2c, 0xe9, 0x1b, 0x3e, 0x07, 0x97, 0x45, 0x3e, 0x49, 0x9c, 0x37, 0xbe,
	0xa4, 0xf9, 0x4b, 0x3e, 0x4a, 0xfd, 0x51, 0x3c, 0x58, 0x78, 0x5a, 0x3e,
	0x4c, 0x48, 0x8f, 0x3d, 0x33, 0x6a, 0x86, 0x3e, 0x10, 0xe8, 0xab, 0x3c,
	0xb0, 0xdb, 0xe9, 0x3c, 0x64, 0xe8, 0xba, 0xbd, 0x3a, 0x38, 0x9c, 0xbd,
	0x40, 0x8e, 0x3e, 0xbd, 0xfc, 0x43, 0x8a, 0xbe, 0xae, 0x13, 0xa1, 0xbd,
	0x07, 0x7f, 0x80, 0x3e, 0xb4, 0xd3, 0x8f, 0xbe, 0xf4, 0x26, 0xca, 0x3d,
	0xd0, 0x8b, 0xd6, 0xbc, 0xba, 0x6b, 0xb5, 0xbd, 0x8c, 0x2e, 0x52, 0xbe,
	0x94, 0xdb, 0xc2, 0x3d, 0xd8, 0xab, 0x5e, 0xbe, 0xc0, 0xeb, 0xf1, 0x3b,
	0xca, 0x14, 0x00, 0x3e, 0xf3, 0xa3, 0x8c, 0x3e, 0xa0, 0xf9, 0x52, 0x3c,
	0x10, 0x5a, 0x86, 0xbc, 0x32, 0xc1, 0x78, 0x3e, 0x00, 0x10, 0x3e, 0x3b,
	0xf4, 0xc3, 0x0f, 0x3e, 0x70, 0xb0, 0x67, 0xbd, 0x66, 0x4f, 0x5b, 0x3e,
	0xa9, 0xf8, 0x20, 0xbe, 0xd0, 0x3e, 0xd8, 0xbc, 0xa4, 0x8e, 0xe0, 0x3d,
	0xd0, 0xe2, 0x3e, 0x3e, 0x99, 0xa7, 0x81, 0xbe, 0x00, 0xe9, 0x7b, 0xbb,
	0x60, 0x6b, 0x8f, 0x3c, 0xa0, 0x8f, 0x65, 0x3c, 0x19, 0x02, 0x0b, 0xbe,
	0x1a, 0x13, 0x72, 0x3e, 0x9e, 0xae, 0x95, 0xbe, 0xab, 0x99, 0x9d, 0xbe,
	0x3b, 0xc3, 0x95, 0x3e, 0x69, 0xc9, 0x08, 0xbe, 0xd2, 0x62, 0x91, 0xbd,
	0x26, 0x12, 0x64, 0x3e, 0x8f, 0xef, 0x80, 0x3e, 0x66, 0x37, 0x6d, 0x3e,
	0x5c, 0xf7, 0x1d, 0xbe, 0x42, 0xd5, 0x1f, 0x3e, 0x62, 0x5b, 0x14, 0x3e,
	0x7a, 0x94, 0x19, 0xbe, 0xb0, 0x8a, 0x86, 0xbe, 0xf6, 0xbc, 0x5d, 0x3e,
	0x8d, 0x9c, 0x06, 0xbe, 0x88, 0x3b, 0x02, 0xbd, 0x62, 0x22, 0xeb, 0x3c,
	0x65, 0x75, 0x10, 0x3c, 0xd6, 0x3e, 0xa6, 0x3d, 0x13, 0x45, 0x4d, 0x3e,
	0x32, 0x61, 0x98, 0x3d, 0x37, 0x8a, 0x82, 0xbe, 0xd1, 0xa0, 0x6e, 0x3d,
	0x03, 0x8b, 0xc8, 0xbd, 0xdb, 0x13, 0xba, 0x3d, 0x28, 0x8c, 0x31, 0xbe,
	0x85, 0x28, 0x93, 0xbd, 0xd3, 0x4d, 0x27, 0x3e, 0x6e, 0xba, 0x79, 0xbd,
	0x5e, 0xc2, 0x2a, 0x3e, 0xe0, 0xbb, 0x30, 0x3e, 0x5f, 0x6c, 0x40, 0x3d,
	0xb4, 0xd1, 0xa0, 0x3e, 0xb8, 0x93, 0x04, 0xbe, 0x50, 0x08, 0x90, 0x3d,
	0xcf, 0x8b, 0xe4, 0x3d, 0xbe, 0x8f, 0x6c, 0x3e, 0x22, 0xbd, 0x36, 0x3e,
	0xeb, 0x69, 0x9f, 0xbd, 0xe0, 0xc5, 0xcc, 0xbe, 0xaa, 0xc0, 0x76, 0x3e,
	0xe4, 0xf2, 0xcc, 0x3d, 0x86, 0x7d, 0xa9, 0xbd, 0x7e, 0x09, 0x58, 0x3e,
	0x1d, 0xfc, 0x9c, 0x3e, 0x21, 0xed, 0x39, 0xbe, 0x52, 0x9f, 0xdb, 0xbd,
	0x7f, 0x68, 0x5a, 0xbe, 0x02, 0xb7, 0x35, 0x3e, 0x50, 0x9e, 0xbe, 0x3c,
	0x8d, 0x3f, 0x98, 0x3e, 0x58, 0xc9, 0xa4, 0xbd, 0xc0, 0xe0, 0x51, 0xbc,
	0x8a, 0xf2, 0x04, 0xbe, 0x64, 0x64, 0x9a, 0x3d, 0xfc, 0x64, 0xa3, 0xbe,
	0x40, 0x9a, 0x81, 0x3e, 0xf2, 0xb9, 0xf8, 0x3c, 0xff, 0x3b, 0x93, 0xbe,
	0x5a, 0xa0, 0xba, 0xbd, 0xcb, 0xeb, 0xa2, 0x3d, 0x5a, 0x85, 0x98, 0xbe,
	0xab, 0x3a, 0xa4, 0x3e, 0xdf, 0x3b, 0x17, 0x3e, 0xd1, 0x3d, 0xa8, 0x3e,
	0xc4, 0x5f, 0x6a, 0x39, 0x25, 0x4e, 0x7b, 0x3e, 0x01, 0x14, 0x76, 0xbd,
	0xd1, 0x0c, 0x51, 0xbe, 0xe0, 0x4e, 0xba, 0xbd, 0x49, 0xbb, 0x58, 0xbe,
	0x76, 0x8f, 0x96, 0xbe, 0xc3, 0x99, 0xb2, 0xbd, 0x09, 0xb7, 0x6f, 0x3e,
	0xba, 0x06, 0x0d, 0x3b, 0x07, 0xb3, 0xb2, 0xbd, 0xca, 0x0b, 0x3d, 0xbe,
	0xa0, 0xdc, 0x7f, 0x3e, 0x75, 0x54, 0x94, 0x3e, 0x9f, 0xb4, 0x6a, 0x3e,
	0x8e, 0x9c, 0x57, 0x3e, 0x57, 0x0c, 0x95, 0x3e, 0xc0, 0xea, 0x9c, 0x3d,
	0x10, 0xb4, 0x10, 0x3d, 0x7b, 0x59, 0x37, 0xbe, 0xc0, 0x72, 0x6b, 0xbe,
	0xfc, 0x07, 0x3d, 0xbe, 0x84, 0x9d, 0xb7, 0x3d, 0x14, 0x0a, 0xf7, 0xbd,
	0x46, 0xb4, 0xd3, 0xbd, 0x5a, 0xe2, 0x06, 0xbe, 0x44, 0xcd, 0x9b, 0xbe,
	0x20, 0x0b, 0x5b, 0xbc, 0x77, 0x81, 0x1a, 0xbc, 0x1c, 0x9a, 0x0b, 0x3d,
	0xd4, 0x9d, 0xbe, 0x3d, 0x6c, 0x29, 0x78, 0xbe, 0x77, 0xfe, 0x77, 0x3e,
	0x84, 0x13, 0x8e, 0xbd, 0x26, 0xcd, 0x18, 0x3e, 0x3d, 0x01, 0xce, 0x3a,
	0xac, 0x57, 0x0c, 0xbe, 0x45, 0x46, 0xa1, 0xbd, 0xb7, 0x74, 0xa7, 0xbe,
	0xf8, 0x2d, 0x3f, 0xbc, 0x65, 0x44, 0x69, 0x3e, 0xc8, 0x16, 0x27, 0x3e,
	0xf0, 0xe4, 0x23, 0x3d, 0x3a, 0xba, 0xb9, 0xbd, 0xc5, 0xd1, 0x94, 0xbe,
	0xb6, 0xbb, 0x97, 0xbe, 0x03, 0x6a, 0x9c, 0xbe, 0x50, 0x66, 0x72, 0xbe,
	0x0e, 0x30, 0x7f, 0x3e, 0x64, 0x2a, 0x09, 0x3e, 0xa5, 0x56, 0x1c, 0xbe,
	0xba, 0x16, 0x5d, 0x3e, 0x64, 0x67, 0x50, 0xbe, 0xd6, 0xf6, 0xb8, 0xbd,
	0x93, 0x23, 0x86, 0x3e, 0xb4, 0xa2, 0xe7, 0x3d, 0x5b, 0x90, 0x95, 0x3e,
	0x2a, 0x32, 0x56, 0x3e, 0x95, 0xc8, 0x88, 0x3e, 0xed, 0xe3, 0x8c, 0x3e,
	0xe8, 0xfc, 0x96, 0x3d, 0x98, 0xb2, 0x3a, 0x3e, 0x57, 0x7d, 0x89, 0xbe,
	0xda, 0xa3, 0x1e, 0xbe, 0x9a, 0x9f, 0x5a, 0x3e, 0x57, 0x88, 0x91, 0x3e,
	0xe9, 0x55, 0x30, 0xbe, 0xc9, 0xce, 0x94, 0x3e, 0x8e, 0x80, 0xae, 0xbd,
	0xe1, 0x92, 0x9c, 0x3e, 0x3c, 0x86, 0xbc, 0xbd, 0x5c, 0xc0, 0x86, 0x3d,
	0xd8, 0xea, 0x2d, 0xbd, 0xf8, 0x2a, 0x60, 0xbd, 0xa9, 0xaf, 0x94, 0x3e,
	0xb3, 0x79, 0x92, 0x3e, 0x80, 0x4d, 0x42, 0x3c, 0x80, 0x4b, 0x5d, 0xbb,
	0x68, 0x11, 0x28, 0x3d, 0xf9, 0x83, 0x47, 0xbe, 0xde, 0x86, 0x49, 0x3e,
	0xf8, 0x3c, 0xb2, 0x3d, 0x61, 0xf8, 0x87, 0x3e, 0xa4, 0x9b, 0x6b, 0xbe,
	0xb5, 0x38, 0x97, 0x3e, 0x02, 0xd3, 0x78, 0xbe, 0xa5, 0x31, 0x90, 0x3e,
	0xc3, 0x8e, 0x8b, 0x3e, 0x83, 0x8e, 0x8c, 0xbe, 0x13, 0x7f, 0x87, 0x3e,
	0xa6, 0xda, 0xa9, 0xbd, 0x00, 0x10, 0xb4, 0x3d, 0x61, 0x7d, 0x8f, 0xbe,
	0x40, 0xf8, 0x36, 0xbe, 0x10, 0x96, 0x89, 0x3c, 0x6f, 0xbb, 0x2f, 0xbe,
	0x00, 0x23, 0xf7, 0xba, 0xd8, 0x3e, 0x80, 0xbe, 0x50, 0xdb, 0x8c, 0xbc,
	0xb6, 0x6a, 0x46, 0x3e, 0x16, 0x22, 0x7f, 0xbe, 0x7e, 0xa9, 0x3e, 0x3e,
	0xce, 0xe6, 0x7b, 0x3e, 0xef, 0x5a, 0x85, 0x3e, 0x3c, 0x1d, 0x34, 0x3e,
	0x79, 0x63, 0x9b, 0xbe, 0xbc, 0xdc, 0x4c, 0x3d, 0x41, 0xd9, 0xea, 0x3d,
	0x5a, 0x58, 0x72, 0x3e, 0x75, 0xc9, 0x89, 0xbd, 0x89, 0x96, 0x14, 0xbe,
	0xa9, 0x12, 0x8e, 0x3e, 0x38, 0xa9, 0x6b, 0xbe, 0x26, 0x4f, 0x16, 0x3e,
	0x40, 0xfd, 0x51, 0xbd, 0x5a, 0xdf, 0xeb, 0xbd, 0x9e, 0xa1, 0x39, 0xbe,
	0xbd, 0x0a, 0x78, 0xbd, 0xf6, 0xa1, 0x6f, 0x3d, 0xcf, 0x74, 0xba, 0xbd,
	0x3a, 0x9d, 0x0c, 0x3e, 0x35, 0x1e, 0x95, 0xbe, 0x82, 0xe5, 0x88, 0xbd,
	0x10, 0x8c, 0x0c, 0xbe, 0xf6, 0x7e, 0x28, 0xbe, 0x7e, 0x9e, 0x9f, 0x3d,
	0xa0, 0x0e, 0x2f, 0x3e, 0x09, 0x08, 0x2e, 0xbe, 0x06, 0xee, 0xaf, 0x3e,
	0xfa, 0x60, 0x9d, 0xbe, 0xb0, 0xbb, 0x52, 0xbe, 0xc2, 0x14, 0xb5, 0x3d,
	0x31, 0xf5, 0x49, 0xbd, 0x33, 0x5f, 0x93, 0x3e, 0xb9, 0x3a, 0xee, 0xbd,
	0x2a, 0x48, 0x20, 0x3e, 0x10, 0xd2, 0xca, 0x3d, 0x35, 0x06, 0x57, 0x3e,
	0x9f, 0x32, 0x0d, 0x3e, 0x9c, 0x13, 0x84, 0xbe, 0x29, 0x2d, 0x41, 0xbe,
	0xe4, 0xa9, 0x40, 0xbe, 0x1c, 0x66, 0x37, 0x3e, 0x41, 0xe4, 0x0f, 0xbe,
	0xc9, 0x0f, 0x7f, 0x3d, 0x98, 0x94, 0x6c, 0x3e, 0x6b, 0x55, 0x41, 0x3e,
	0x35, 0x16, 0x87, 0x3d, 0xe7, 0xb8, 0x08, 0x3e, 0x91, 0x8b, 0x15, 0xbe,
	0xf0, 0x3b, 0x7e, 0x3e, 0x55, 0x8f, 0x9d, 0x3e, 0x94, 0x24, 0x7d, 0xbe,
	0x4f, 0xf9, 0x84, 0x3e, 0xa7, 0x2f, 0x93, 0xbe, 0xee, 0x40, 0x3e, 0xbe,
	0xd9, 0xf1, 0x5a, 0xbb, 0xcd, 0xf8, 0x74, 0x3e, 0xbe, 0xfe, 0x5c, 0x3e,
	0xc2, 0xe2, 0xc0, 0xbe, 0x68, 0x7b, 0x0e, 0xbe, 0x13, 0x7e, 0x87, 0xbe,
	0x9b, 0xbb, 0x08, 0xbc, 0xa8, 0x2b, 0xa9, 0x3e, 0x0f, 0x84, 0xc1, 0x3e,
	0xfb, 0xdc, 0x93, 0x3d, 0xd8, 0x05, 0x71, 0x3e, 0xf1, 0x58, 0xc5, 0xbe,
	0x25, 0x30, 0x93, 0x3e, 0x08, 0x29, 0xbb, 0x3e, 0x47, 0x74, 0x06, 0x3e,
	0x79, 0xef, 0x89, 0xbe, 0xe1, 0x10, 0x14, 0x3e, 0x5c, 0x0b, 0x13, 0xbe,
	0xca, 0x15, 0x2d, 0xbe, 0x11, 0xa7, 0x15, 0x3e, 0xb1, 0xf5, 0x4f, 0xbd,
	0xe2, 0xc2, 0x9a, 0x3e, 0x19, 0xa6, 0x81, 0xbd, 0x6a, 0x39, 0x91, 0xbd,
	0xec, 0x1c, 0x5b, 0x3e, 0xb2, 0x79, 0x82, 0xbe, 0x29, 0x75, 0xba, 0x3d,
	0x66, 0x6b, 0x4f, 0x3c, 0x32, 0xa9, 0x39, 0xbd, 0x8d, 0x22, 0x0e, 0x3e,
	0x50, 0xc2, 0x5f, 0x3d, 0xa8, 0x7a, 0xa2, 0x3d, 0x11, 0xed, 0x88, 0xbe,
	0xb1, 0xba, 0x6a, 0x3e, 0x12, 0xde, 0x6f, 0x3c, 0x2c, 0xda, 0x8e, 0xbd,
	0xf2, 0x0d, 0x9a, 0x3d, 0x33, 0x4e, 0xff, 0xbd, 0x10, 0x65, 0x0a, 0x3e,
	0xf7, 0xbb, 0x37, 0xbe, 0x80, 0xed, 0x3d, 0x3e, 0x42, 0xfd, 0xff, 0xff,
	0x2c, 0x00, 0x00, 0x00, 0x05, 0x00, 0x00, 0x00, 0x08, 0x00, 0x00, 0x00,
	0x2c, 0x00, 0x00, 0x00, 0x17, 0x00, 0x00, 0x00, 0x73, 0x65, 0x71, 0x75,
	0x65, 0x6e, 0x74, 0x69, 0x61, 0x6c, 0x2f, 0x64, 0x65, 0x6e, 0x73, 0x65,
	0x2f, 0x4d, 0x61, 0x74, 0x4d, 0x75, 0x6c, 0x00, 0x02, 0x00, 0x00, 0x00,
	0x32, 0x00, 0x00, 0x00, 0x0d, 0x00, 0x00, 0x00, 0xc0, 0xfc, 0xff, 0xff,
	0x5e, 0xfe, 0xff, 0xff, 0x04, 0x00, 0x00, 0x00, 0x0c, 0x00, 0x00, 0x00,
	0x48, 0x80, 0x30, 0xbd, 0x83, 0x8a, 0xf9, 0x3c, 0xa7, 0xe2, 0xba, 0x3c,
	0x9a, 0xfd, 0xff, 0xff, 0x48, 0x00, 0x00, 0x00, 0x04, 0x00, 0x00, 0x00,
	0x08, 0x00, 0x00, 0x00, 0x44, 0x00, 0x00, 0x00, 0x32, 0x00, 0x00, 0x00,
	0x73, 0x65, 0x71, 0x75, 0x65, 0x6e, 0x74, 0x69, 0x61, 0x6c, 0x2f, 0x64,
	0x65, 0x6e, 0x73, 0x65, 0x5f, 0x32, 0x2f, 0x42, 0x69, 0x61, 0x73, 0x41,
	0x64, 0x64, 0x2f, 0x52, 0x65, 0x61, 0x64, 0x56, 0x61, 0x72, 0x69, 0x61,
	0x62, 0x6c, 0x65, 0x4f, 0x70, 0x2f, 0x72, 0x65, 0x73, 0x6f, 0x75, 0x72,
	0x63, 0x65, 0x00, 0x00, 0x01, 0x00, 0x00, 0x00, 0x03, 0x00, 0x00, 0x00,
	0x30, 0xfd, 0xff, 0xff, 0xce, 0xfe, 0xff, 0xff, 0x04, 0x00, 0x00, 0x00,
	0xc8, 0x00, 0x00, 0x00, 0x12, 0x16, 0x12, 0xbd, 0xab, 0x90, 0x30, 0x3d,
	0x95, 0x04, 0x0e, 0x3d, 0x2b, 0x97, 0x49, 0xbc, 0xd2, 0x5e, 0x72, 0x3c,
	0x00, 0x00, 0x00, 0x00, 0x08, 0x5c, 0x6b, 0xbc, 0x00, 0x00, 0x00, 0x00,
	0x00, 0x00, 0x00, 0x00, 0x96, 0x16, 0x21, 0xbd, 0x54, 0xf9, 0x2e, 0x3d,
	0x00, 0x00, 0x00, 0x00, 0xba, 0x43, 0xa5, 0x3c, 0x93, 0x54, 0x08, 0xbd,
	0x9c, 0x4b, 0x41, 0x3d, 0xc9, 0x8a, 0xc9, 0xbc, 0x7e, 0x82, 0xe3, 0x3c,
	0x00, 0x00, 0x00, 0x00, 0x00, 0x00, 0x00, 0x00, 0x6f, 0xb3, 0x2c, 0xbd,
	0x00, 0x00, 0x00, 0x00, 0x56, 0xed, 0x4f, 0xbc, 0x00, 0x00, 0x00, 0x00,
	0x6a, 0x79, 0x15, 0xbd, 0x99, 0x98, 0x2b, 0xbc, 0xf7, 0x91, 0x2f, 0x3d,
	0x8f, 0x6b, 0x2b, 0xbd, 0x58, 0xa0, 0x08, 0xbc, 0x00, 0x00, 0x00, 0x00,
	0x88, 0xe8, 0x5b, 0xbc, 0xf6, 0x0a, 0xb1, 0x3c, 0x00, 0x00, 0x00, 0x00,
	0x00, 0x00, 0x00, 0x00, 0xfd, 0xc2, 0x2a, 0xbd, 0x02, 0x46, 0x07, 0x3c,
	0x00, 0x00, 0x00, 0x00, 0x00, 0x00, 0x00, 0x00, 0x00, 0x00, 0x00, 0x00,
	0x00, 0x00, 0x00, 0x00, 0x00, 0x00, 0x00, 0x00, 0xc7, 0x73, 0x24, 0xbd,
	0x12, 0xaa, 0x25, 0x3d, 0x00, 0x00, 0x00, 0x00, 0x00, 0x00, 0x00, 0x00,
	0x00, 0x00, 0x00, 0x00, 0x00, 0x00, 0x00, 0x00, 0x7a, 0x05, 0x32, 0xbd,
	0x6d, 0xc7, 0xc4, 0xbb, 0x17, 0xeb, 0x21, 0xbd, 0x09, 0x2b, 0x1d, 0x3b,
	0xc6, 0xfe, 0xff, 0xff, 0x48, 0x00, 0x00, 0x00, 0x03, 0x00, 0x00, 0x00,
	0x08, 0x00, 0x00, 0x00, 0x48, 0x00, 0x00, 0x00, 0x32, 0x00, 0x00, 0x00,
	0x73, 0x65, 0x71, 0x75, 0x65, 0x6e, 0x74, 0x69, 0x61, 0x6c, 0x2f, 0x64,
	0x65, 0x6e, 0x73, 0x65, 0x5f, 0x31, 0x2f, 0x42, 0x69, 0x61, 0x73, 0x41,
	0x64, 0x64, 0x2f, 0x52, 0x65, 0x61, 0x64, 0x56, 0x61, 0x72, 0x69, 0x61,
	0x62, 0x6c, 0x65, 0x4f, 0x70, 0x2f, 0x72, 0x65, 0x73, 0x6f, 0x75, 0x72,
	0x63, 0x65, 0x00, 0x00, 0x01, 0x00, 0x00, 0x00, 0x32, 0x00, 0x00, 0x00,
	0x04, 0x00, 0x06, 0x00, 0x04, 0x00, 0x00, 0x00, 0x00, 0x00, 0x06, 0x00,
	0x08, 0x00, 0x04, 0x00, 0x06, 0x00, 0x00, 0x00, 0x04, 0x00, 0x00, 0x00,
	0xc8, 0x00, 0x00, 0x00, 0x11, 0xd5, 0xb9, 0xbc, 0x00, 0x00, 0x00, 0x00,
	0xbe, 0xfe, 0xfe, 0x3c, 0x00, 0x00, 0x00, 0x00, 0x51, 0x3c, 0xfe, 0xbc,
	0x20, 0x74, 0xf2, 0x39, 0x69, 0x50, 0x16, 0xbd, 0x00, 0x00, 0x00, 0x00,
	0x00, 0x00, 0x00, 0x00, 0xef, 0x6f, 0xce, 0x3c, 0xd1, 0x9c, 0xb5, 0x3c,
	0x00, 0x00, 0x00, 0x00, 0x35, 0x7f, 0x41, 0xbc, 0x00, 0x00, 0x00, 0x00,
	0x00, 0x00, 0x00, 0x00, 0x00, 0x00, 0x00, 0x00, 0x00, 0x00, 0x00, 0x00,
	0x00, 0x00, 0x00, 0x00, 0x00, 0x00, 0x00, 0x00, 0x85, 0xb0, 0x29, 0xbd,
	0xd8, 0x42, 0x87, 0x3c, 0xd6, 0xf9, 0x07, 0xbd, 0x00, 0x00, 0x00, 0x00,
	0xcd, 0x14, 0xc5, 0x3c, 0x2f, 0x23, 0xa2, 0x3b, 0x00, 0x00, 0x00, 0x00,
	0x11, 0x6f, 0x21, 0x3d, 0x00, 0x00, 0x00, 0x00, 0x00, 0x00, 0x00, 0x00,
	0x00, 0x00, 0x00, 0x00, 0x00, 0x00, 0x00, 0x00, 0x19, 0x60, 0x2e, 0x3d,
	0x45, 0x01, 0x34, 0xbc, 0x00, 0x00, 0x00, 0x00, 0xc0, 0xec, 0x06, 0xbd,
	0x84, 0x30, 0x0f, 0x3d, 0x00, 0x00, 0x00, 0x00, 0x4e, 0x39, 0x00, 0xbd,
	0x00, 0x00, 0x00, 0x00, 0x00, 0x00, 0x00, 0x00, 0x00, 0x00, 0x00, 0x00,
	0x00, 0x00, 0x00, 0x00, 0x00, 0x00, 0x00, 0x00, 0xb4, 0x93, 0x06, 0x3d,
	0x78, 0xbf, 0x18, 0xbd, 0x48, 0x88, 0xcf, 0xbc, 0x84, 0x24, 0x8b, 0x3b,
	0x34, 0xf3, 0xca, 0xbc, 0xa3, 0x43, 0x10, 0x3d, 0xd4, 0xcf, 0x32, 0xbd,
	0x00, 0x00, 0x0e, 0x00, 0x14, 0x00, 0x04, 0x00, 0x00, 0x00, 0x08, 0x00,
	0x0c, 0x00, 0x10, 0x00, 0x0e, 0x00, 0x00, 0x00, 0x48, 0x00, 0x00, 0x00,
	0x02, 0x00, 0x00, 0x00, 0x08, 0x00, 0x00, 0x00, 0x44, 0x00, 0x00, 0x00,
	0x30, 0x00, 0x00, 0x00, 0x73, 0x65, 0x71, 0x75, 0x65, 0x6e, 0x74, 0x69,
	0x61, 0x6c, 0x2f, 0x64, 0x65, 0x6e, 0x73, 0x65, 0x2f, 0x42, 0x69, 0x61,
	0x73, 0x41, 0x64, 0x64, 0x2f, 0x52, 0x65, 0x61, 0x64, 0x56, 0x61, 0x72,
	0x69, 0x61, 0x62, 0x6c, 0x65, 0x4f, 0x70, 0x2f, 0x72, 0x65, 0x73, 0x6f,
	0x75, 0x72, 0x63, 0x65, 0x00, 0x00, 0x00, 0x00, 0x01, 0x00, 0x00, 0x00,
	0x32, 0x00, 0x00, 0x00, 0xa4, 0xff, 0xff, 0xff, 0x14, 0x00, 0x18, 0x00,
	0x04, 0x00, 0x00, 0x00, 0x08, 0x00, 0x0c, 0x00, 0x10, 0x00, 0x00, 0x00,
	0x00, 0x00, 0x14, 0x00, 0x14, 0x00, 0x00, 0x00, 0x30, 0x00, 0x00, 0x00,
	0x01, 0x00, 0x00, 0x00, 0x18, 0x00, 0x00, 0x00, 0x30, 0x00, 0x00, 0x00,
	0x04, 0x00, 0x00, 0x00, 0x02, 0x00, 0x00, 0x00, 0xff, 0xff, 0xff, 0xff,
	0x0d, 0x00, 0x00, 0x00, 0x0b, 0x00, 0x00, 0x00, 0x64, 0x65, 0x6e, 0x73,
	0x65, 0x5f, 0x69, 0x6e, 0x70, 0x75, 0x74, 0x00, 0x02, 0x00, 0x00, 0x00,
	0x01, 0x00, 0x00, 0x00, 0x0d, 0x00, 0x00, 0x00, 0xfc, 0xff, 0xff, 0xff,
	0x04, 0x00, 0x04, 0x00, 0x04, 0x00, 0x00, 0x00
};
const int wine_model_len = 15296;