// if having troubles with min/max, uncomment the following
// #undef min
// #undef max

#ifdef __has_attribute
#define HAVE_ATTRIBUTE(x) __has_attribute(x)
#else
#define HAVE_ATTRIBUTE(x) 0
#endif
#if HAVE_ATTRIBUTE(aligned) || (defined(__GNUC__) && !defined(__clang__))
#define DATA_ALIGN_ATTRIBUTE __attribute__((aligned(4)))
#else
#define DATA_ALIGN_ATTRIBUTE
#endif

const unsigned char digits_model[] DATA_ALIGN_ATTRIBUTE = {
        0x1c, 0x00, 0x00, 0x00, 0x54, 0x46, 0x4c, 0x33, 0x00, 0x00, 0x12, 0x00,
        0x1c, 0x00, 0x04, 0x00, 0x08, 0x00, 0x0c, 0x00, 0x10, 0x00, 0x14, 0x00,
        0x00, 0x00, 0x18, 0x00, 0x12, 0x00, 0x00, 0x00, 0x03, 0x00, 0x00, 0x00,
        0x14, 0x00, 0x00, 0x00, 0x20, 0x00, 0x00, 0x00, 0xb0, 0x00, 0x00, 0x00,
        0x20, 0x00, 0x00, 0x00, 0x58, 0x00, 0x00, 0x00, 0x03, 0x00, 0x00, 0x00,
        0x7c, 0x03, 0x00, 0x00, 0xb4, 0x02, 0x00, 0x00, 0x0c, 0x02, 0x00, 0x00,
        0x01, 0x00, 0x00, 0x00, 0xb4, 0x00, 0x00, 0x00, 0x0e, 0x00, 0x00, 0x00,
        0x70, 0x53, 0x00, 0x00, 0x6c, 0x53, 0x00, 0x00, 0x64, 0x52, 0x00, 0x00,
        0xb0, 0x51, 0x00, 0x00, 0x20, 0x51, 0x00, 0x00, 0xb4, 0x50, 0x00, 0x00,
        0x64, 0x08, 0x00, 0x00, 0x90, 0x05, 0x00, 0x00, 0x14, 0x04, 0x00, 0x00,
        0x4c, 0x53, 0x00, 0x00, 0x48, 0x53, 0x00, 0x00, 0x44, 0x53, 0x00, 0x00,
        0x40, 0x53, 0x00, 0x00, 0x38, 0x00, 0x00, 0x00, 0x01, 0x00, 0x00, 0x00,
        0x0c, 0x00, 0x00, 0x00, 0x08, 0x00, 0x0c, 0x00, 0x04, 0x00, 0x08, 0x00,
        0x08, 0x00, 0x00, 0x00, 0x08, 0x00, 0x00, 0x00, 0x0d, 0x00, 0x00, 0x00,
        0x13, 0x00, 0x00, 0x00, 0x6d, 0x69, 0x6e, 0x5f, 0x72, 0x75, 0x6e, 0x74,
        0x69, 0x6d, 0x65, 0x5f, 0x76, 0x65, 0x72, 0x73, 0x69, 0x6f, 0x6e, 0x00,
        0x06, 0xae, 0xff, 0xff, 0x04, 0x00, 0x00, 0x00, 0x10, 0x00, 0x00, 0x00,
        0x31, 0x2e, 0x35, 0x2e, 0x30, 0x00, 0x00, 0x00, 0x00, 0x00, 0x00, 0x00,
        0x00, 0x00, 0x00, 0x00, 0x0f, 0x00, 0x00, 0x00, 0x4d, 0x4c, 0x49, 0x52,
        0x20, 0x43, 0x6f, 0x6e, 0x76, 0x65, 0x72, 0x74, 0x65, 0x64, 0x2e, 0x00,
        0x00, 0x00, 0x0e, 0x00, 0x18, 0x00, 0x04, 0x00, 0x08, 0x00, 0x0c, 0x00,
        0x10, 0x00, 0x14, 0x00, 0x0e, 0x00, 0x00, 0x00, 0x14, 0x00, 0x00, 0x00,
        0x44, 0x00, 0x00, 0x00, 0x48, 0x00, 0x00, 0x00, 0x4c, 0x00, 0x00, 0x00,
        0x5c, 0x00, 0x00, 0x00, 0x0c, 0x00, 0x00, 0x00, 0x4c, 0x52, 0x00, 0x00,
        0xdc, 0x51, 0x00, 0x00, 0x38, 0x51, 0x00, 0x00, 0x90, 0x50, 0x00, 0x00,
        0x14, 0x50, 0x00, 0x00, 0xac, 0x4f, 0x00, 0x00, 0x58, 0x07, 0x00, 0x00,
        0x7c, 0x04, 0x00, 0x00, 0x88, 0x02, 0x00, 0x00, 0xc0, 0x01, 0x00, 0x00,
        0x18, 0x01, 0x00, 0x00, 0x74, 0x00, 0x00, 0x00, 0x01, 0x00, 0x00, 0x00,
        0x00, 0x00, 0x00, 0x00, 0x01, 0x00, 0x00, 0x00, 0x0b, 0x00, 0x00, 0x00,
        0x04, 0x00, 0x00, 0x00, 0x04, 0x02, 0x00, 0x00, 0x6c, 0x01, 0x00, 0x00,
        0xa8, 0x00, 0x00, 0x00, 0x1c, 0x00, 0x00, 0x00, 0x04, 0x00, 0x00, 0x00,
        0x6d, 0x61, 0x69, 0x6e, 0x00, 0x00, 0x0e, 0x00, 0x18, 0x00, 0x08, 0x00,
        0x0c, 0x00, 0x10, 0x00, 0x07, 0x00, 0x14, 0x00, 0x0e, 0x00, 0x00, 0x00,
        0x00, 0x00, 0x00, 0x08, 0x02, 0x00, 0x00, 0x00, 0x18, 0x00, 0x00, 0x00,
        0x0c, 0x00, 0x00, 0x00, 0x04, 0x00, 0x00, 0x00, 0xe0, 0xad, 0xff, 0xff,
        0x01, 0x00, 0x00, 0x00, 0x0b, 0x00, 0x00, 0x00, 0x03, 0x00, 0x00, 0x00,
        0x0a, 0x00, 0x00, 0x00, 0x06, 0x00, 0x00, 0x00, 0x03, 0x00, 0x00, 0x00,
        0x68, 0xae, 0xff, 0xff, 0x14, 0x00, 0x00, 0x00, 0x0c, 0x00, 0x00, 0x00,
        0x18, 0x00, 0x00, 0x00, 0x30, 0x00, 0x00, 0x00, 0x20, 0x00, 0x00, 0x00,
        0x02, 0x00, 0x00, 0x00, 0x01, 0x00, 0x00, 0x00, 0x0a, 0x00, 0x00, 0x00,
        0x08, 0x00, 0x00, 0x00, 0x49, 0x64, 0x65, 0x6e, 0x74, 0x69, 0x74, 0x79,
        0x00, 0x00, 0x00, 0x00, 0x02, 0x00, 0x00, 0x00, 0xff, 0xff, 0xff, 0xff,
        0x0a, 0x00, 0x00, 0x00, 0x4c, 0xaf, 0xff, 0xff, 0x00, 0x00, 0x0e, 0x00,
        0x1a, 0x00, 0x08, 0x00, 0x0c, 0x00, 0x10, 0x00, 0x07, 0x00, 0x14, 0x00,
        0x0e, 0x00, 0x00, 0x00, 0x00, 0x00, 0x00, 0x08, 0x02, 0x00, 0x00, 0x00,
        0x24, 0x00, 0x00, 0x00, 0x18, 0x00, 0x00, 0x00, 0x0c, 0x00, 0x00, 0x00,
        0x00, 0x00, 0x06, 0x00, 0x08, 0x00, 0x07, 0x00, 0x06, 0x00, 0x00, 0x00,
        0x00, 0x00, 0x00, 0x01, 0x01, 0x00, 0x00, 0x00, 0x0a, 0x00, 0x00, 0x00,
        0x03, 0x00, 0x00, 0x00, 0x09, 0x00, 0x00, 0x00, 0x05, 0x00, 0x00, 0x00,
        0x02, 0x00, 0x00, 0x00, 0xa2, 0xfe, 0xff, 0xff, 0x00, 0x00, 0x00, 0x09,
        0x01, 0x00, 0x00, 0x00, 0x08, 0xaf, 0xff, 0xff, 0x14, 0x00, 0x00, 0x00,
        0x0b, 0x00, 0x00, 0x00, 0x18, 0x00, 0x00, 0x00, 0x54, 0x00, 0x00, 0x00,
        0x44, 0x00, 0x00, 0x00, 0x02, 0x00, 0x00, 0x00, 0x01, 0x00, 0x00, 0x00,
        0x10, 0x00, 0x00, 0x00, 0x2e, 0x00, 0x00, 0x00, 0x73, 0x65, 0x71, 0x75,
        0x65, 0x6e, 0x74, 0x69, 0x61, 0x6c, 0x2f, 0x64, 0x65, 0x6e, 0x73, 0x65,
        0x2f, 0x52, 0x65, 0x6c, 0x75, 0x3b, 0x73, 0x65, 0x71, 0x75, 0x65, 0x6e,
        0x74, 0x69, 0x61, 0x6c, 0x2f, 0x64, 0x65, 0x6e, 0x73, 0x65, 0x2f, 0x42,
        0x69, 0x61, 0x73, 0x41, 0x64, 0x64, 0x00, 0x00, 0x02, 0x00, 0x00, 0x00,
        0xff, 0xff, 0xff, 0xff, 0x10, 0x00, 0x00, 0x00, 0x10, 0xb0, 0xff, 0xff,
        0x00, 0x00, 0x0a, 0x00, 0x10, 0x00, 0x04, 0x00, 0x08, 0x00, 0x0c, 0x00,
        0x0a, 0x00, 0x00, 0x00, 0x01, 0x00, 0x00, 0x00, 0x10, 0x00, 0x00, 0x00,
        0x04, 0x00, 0x00, 0x00, 0x01, 0x00, 0x00, 0x00, 0x09, 0x00, 0x00, 0x00,
        0x02, 0x00, 0x00, 0x00, 0x08, 0x00, 0x00, 0x00, 0x04, 0x00, 0x00, 0x00,
        0x46, 0xff, 0xff, 0xff, 0x00, 0x00, 0x00, 0x16, 0x01, 0x00, 0x00, 0x00,
        0xac, 0xaf, 0xff, 0xff, 0x14, 0x00, 0x00, 0x00, 0x0a, 0x00, 0x00, 0x00,
        0x18, 0x00, 0x00, 0x00, 0x40, 0x00, 0x00, 0x00, 0x30, 0x00, 0x00, 0x00,
        0x02, 0x00, 0x00, 0x00, 0x01, 0x00, 0x00, 0x00, 0x20, 0x01, 0x00, 0x00,
        0x1a, 0x00, 0x00, 0x00, 0x73, 0x65, 0x71, 0x75, 0x65, 0x6e, 0x74, 0x69,
        0x61, 0x6c, 0x2f, 0x66, 0x6c, 0x61, 0x74, 0x74, 0x65, 0x6e, 0x2f, 0x52,
        0x65, 0x73, 0x68, 0x61, 0x70, 0x65, 0x00, 0x00, 0x02, 0x00, 0x00, 0x00,
        0xff, 0xff, 0xff, 0xff, 0x20, 0x01, 0x00, 0x00, 0xa0, 0xb0, 0xff, 0xff,
        0x00, 0x00, 0x0e, 0x00, 0x14, 0x00, 0x00, 0x00, 0x08, 0x00, 0x0c, 0x00,
        0x07, 0x00, 0x10, 0x00, 0x0e, 0x00, 0x00, 0x00, 0x00, 0x00, 0x00, 0x01,
        0x30, 0x00, 0x00, 0x00, 0x24, 0x00, 0x00, 0x00, 0x10, 0x00, 0x00, 0x00,
        0x0c, 0x00, 0x10, 0x00, 0x0e, 0x00, 0x04, 0x00, 0x08, 0x00, 0x0f, 0x00,
        0x0c, 0x00, 0x00, 0x00, 0x01, 0x00, 0x00, 0x00, 0x01, 0x00, 0x00, 0x00,
        0x00, 0x00, 0x01, 0x01, 0x01, 0x00, 0x00, 0x00, 0x08, 0x00, 0x00, 0x00,
        0x03, 0x00, 0x00, 0x00, 0x00, 0x00, 0x00, 0x00, 0x07, 0x00, 0x00, 0x00,
        0x01, 0x00, 0x00, 0x00, 0x00, 0x00, 0x0a, 0x00, 0x0c, 0x00, 0x07, 0x00,
        0x00, 0x00, 0x08, 0x00, 0x0a, 0x00, 0x00, 0x00, 0x00, 0x00, 0x00, 0x03,
        0x01, 0x00, 0x00, 0x00, 0x70, 0xb0, 0xff, 0xff, 0x14, 0x00, 0x00, 0x00,
        0x09, 0x00, 0x00, 0x00, 0x20, 0x00, 0x00, 0x00, 0xb0, 0x00, 0x00, 0x00,
        0x98, 0x00, 0x00, 0x00, 0x04, 0x00, 0x00, 0x00, 0x01, 0x00, 0x00, 0x00,
        0x06, 0x00, 0x00, 0x00, 0x06, 0x00, 0x00, 0x00, 0x08, 0x00, 0x00, 0x00,
        0x7b, 0x00, 0x00, 0x00, 0x73, 0x65, 0x71, 0x75, 0x65, 0x6e, 0x74, 0x69,
        0x61, 0x6c, 0x2f, 0x63, 0x6f, 0x6e, 0x76, 0x32, 0x64, 0x2f, 0x52, 0x65,
        0x6c, 0x75, 0x3b, 0x73, 0x65, 0x71, 0x75, 0x65, 0x6e, 0x74, 0x69, 0x61,
        0x6c, 0x2f, 0x63, 0x6f, 0x6e, 0x76, 0x32, 0x64, 0x2f, 0x42, 0x69, 0x61,
        0x73, 0x41, 0x64, 0x64, 0x3b, 0x73, 0x65, 0x71, 0x75, 0x65, 0x6e, 0x74,
        0x69, 0x61, 0x6c, 0x2f, 0x63, 0x6f, 0x6e, 0x76, 0x32, 0x64, 0x2f, 0x43,
        0x6f, 0x6e, 0x76, 0x32, 0x44, 0x3b, 0x73, 0x65, 0x71, 0x75, 0x65, 0x6e,
        0x74, 0x69, 0x61, 0x6c, 0x2f, 0x63, 0x6f, 0x6e, 0x76, 0x32, 0x64, 0x2f,
        0x42, 0x69, 0x61, 0x73, 0x41, 0x64, 0x64, 0x2f, 0x52, 0x65, 0x61, 0x64,
        0x56, 0x61, 0x72, 0x69, 0x61, 0x62, 0x6c, 0x65, 0x4f, 0x70, 0x2f, 0x72,
        0x65, 0x73, 0x6f, 0x75, 0x72, 0x63, 0x65, 0x00, 0x04, 0x00, 0x00, 0x00,
        0xff, 0xff, 0xff, 0xff, 0x06, 0x00, 0x00, 0x00, 0x06, 0x00, 0x00, 0x00,
        0x08, 0x00, 0x00, 0x00, 0xc4, 0xb0, 0xff, 0xff, 0xce, 0xb1, 0xff, 0xff,
        0x04, 0x00, 0x00, 0x00, 0x20, 0x01, 0x00, 0x00, 0x7b, 0xfc, 0xa7, 0xbd,
        0xd3, 0xc9, 0xb8, 0x3d, 0xb5, 0x4a, 0x71, 0x3d, 0xbb, 0x97, 0x9a, 0xbd,
        0x5b, 0xf2, 0x22, 0x3f, 0xde, 0x68, 0x3f, 0x3e, 0x9a, 0xb0, 0x03, 0x3f,
        0x19, 0xca, 0x03, 0x3f, 0x05, 0x95, 0x0a, 0x3f, 0x4e, 0x20, 0x26, 0x3e,
        0x1a, 0x30, 0xfd, 0xbe, 0x05, 0xa0, 0xed, 0x3e, 0x41, 0x7b, 0x1e, 0x3e,
        0x30, 0x44, 0xd3, 0xbd, 0x9b, 0x4c, 0xdf, 0xbd, 0x32, 0x08, 0x10, 0x3f,
        0xbd, 0x7e, 0x23, 0x3f, 0x32, 0x22, 0xaf, 0xbd, 0xc8, 0xfd, 0x2c, 0x3f,
        0x7d, 0x1f, 0xea, 0x3d, 0x3b, 0xa5, 0x88, 0x3e, 0xa4, 0xe7, 0x1c, 0x3e,
        0xd6, 0x82, 0xc0, 0xbe, 0xae, 0xce, 0x16, 0x3f, 0xaa, 0xa6, 0xf1, 0xbe,
        0xcf, 0xcc, 0x04, 0xbf, 0x33, 0x3b, 0x34, 0x3e, 0x8e, 0xa5, 0xf4, 0x3e,
        0xd7, 0xb5, 0xe7, 0xbe, 0x4d, 0x8b, 0x1e, 0xbf, 0x0a, 0x64, 0xaf, 0x3e,
        0x45, 0x8d, 0xf6, 0x3d, 0x77, 0x0f, 0xf9, 0x3e, 0x2d, 0xa9, 0xfb, 0x3e,
        0x02, 0xb1, 0x5f, 0x3e, 0x9b, 0xf7, 0xf2, 0x3e, 0xc5, 0x22, 0x11, 0x3f,
        0x0a, 0xfa, 0xde, 0x3e, 0xd0, 0x83, 0x6c, 0x3e, 0x07, 0x8c, 0x10, 0x3f,
        0x53, 0x07, 0xfd, 0x3e, 0x93, 0xb4, 0xec, 0x3e, 0xb5, 0x74, 0x0f, 0x3e,
        0xaa, 0x1a, 0xd5, 0xbe, 0xe7, 0x96, 0xbe, 0x3e, 0xdb, 0xdd, 0x5b, 0x3e,
        0x58, 0xbe, 0x18, 0xbe, 0xe1, 0x37, 0xfa, 0x3e, 0x34, 0x1b, 0xdd, 0x3e,
        0x61, 0xee, 0x25, 0x3f, 0x6b, 0x18, 0x07, 0x3f, 0x0d, 0xbc, 0x38, 0xbc,
        0x60, 0x78, 0x9b, 0x3e, 0xeb, 0xc2, 0x83, 0xbe, 0x5a, 0x61, 0x3e, 0x3e,
        0xfb, 0xfe, 0xbc, 0x3e, 0x94, 0xb5, 0x9b, 0x3e, 0x7c, 0x34, 0x9a, 0xbe,
        0x33, 0x51, 0x44, 0xbe, 0x1e, 0x3b, 0xd4, 0x3e, 0xef, 0x41, 0xe1, 0x3c,
        0x15, 0x86, 0x10, 0x3f, 0x1a, 0x22, 0xc6, 0x3e, 0xe8, 0x69, 0x00, 0xbf,
        0xd6, 0x49, 0x49, 0xbf, 0x62, 0xa6, 0xcd, 0xbd, 0xd6, 0x6a, 0xad, 0x3e,
        0x98, 0x6a, 0xe7, 0xbd, 0xd0, 0x42, 0x0b, 0x3f, 0xa1, 0x48, 0xe1, 0x3e,
        0x6d, 0xaf, 0x58, 0x3e, 0xbd, 0x3f, 0x41, 0x3f, 0xc6, 0xb2, 0xff, 0xff,
        0x10, 0x00, 0x00, 0x00, 0x08, 0x00, 0x00, 0x00, 0x1c, 0x00, 0x00, 0x00,
        0x38, 0x00, 0x00, 0x00, 0x04, 0x00, 0x00, 0x00, 0x08, 0x00, 0x00, 0x00,
        0x03, 0x00, 0x00, 0x00, 0x03, 0x00, 0x00, 0x00, 0x01, 0x00, 0x00, 0x00,
        0x18, 0x00, 0x00, 0x00, 0x73, 0x65, 0x71, 0x75, 0x65, 0x6e, 0x74, 0x69,
        0x61, 0x6c, 0x2f, 0x63, 0x6f, 0x6e, 0x76, 0x32, 0x64, 0x2f, 0x43, 0x6f,
        0x6e, 0x76, 0x32, 0x44, 0x00, 0x00, 0x00, 0x00, 0x3c, 0xb2, 0xff, 0xff,
        0x46, 0xb3, 0xff, 0xff, 0x04, 0x00, 0x00, 0x00, 0x80, 0x02, 0x00, 0x00,
        0xb2, 0xf4, 0x03, 0xbf, 0x38, 0xa3, 0x9b, 0x3e, 0xf7, 0x7b, 0x05, 0xbf,
        0x7b, 0x04, 0x1f, 0xbf, 0x9a, 0xf1, 0x1c, 0x3f, 0x39, 0xdc, 0xc9, 0x3e,
        0xc1, 0x7d, 0xb6, 0x3e, 0xfe, 0x1d, 0x12, 0xbc, 0xb8, 0x1e, 0x70, 0xbe,
        0x5a, 0xaa, 0x0a, 0x3f, 0xc8, 0xdd, 0x80, 0x3e, 0x47, 0xa1, 0xb7, 0xbc,
        0x97, 0x29, 0x49, 0xbf, 0x40, 0xe3, 0x4b, 0x3e, 0x23, 0x6d, 0xe1, 0xbe,
        0xe6, 0xbc, 0xed, 0x3e, 0x4a, 0x1d, 0x2a, 0x3e, 0x64, 0xb2, 0x9a, 0xbe,
        0xb1, 0x7e, 0x57, 0xbe, 0x70, 0xac, 0xcd, 0x3e, 0x7f, 0x33, 0xd6, 0x3c,
        0x1f, 0xeb, 0xa0, 0x3e, 0x9f, 0xc7, 0x9c, 0xbe, 0x68, 0x33, 0x23, 0x3f,
        0x6a, 0xca, 0xd8, 0x3e, 0x01, 0xf7, 0x07, 0xbf, 0x63, 0xdd, 0x01, 0x3e,
        0x64, 0xd5, 0x8e, 0x3e, 0x48, 0x2b, 0xfb, 0x3e, 0xd5, 0x2f, 0x91, 0xbe,
        0x78, 0xe7, 0x87, 0x3e, 0x56, 0xed, 0xaa, 0x3e, 0xcb, 0x47, 0x4c, 0x3d,
        0xab, 0x5d, 0x76, 0x3e, 0x9c, 0x40, 0x29, 0x3f, 0xf7, 0xad, 0xe4, 0x3e,
        0x2f, 0xe4, 0xd9, 0x3e, 0xcd, 0xba, 0xf5, 0xbd, 0xca, 0x7f, 0x99, 0x3e,
        0x76, 0xb9, 0x87, 0x3e, 0xf0, 0x46, 0x11, 0xbe, 0xc1, 0x1b, 0x06, 0xbf,
        0x01, 0x49, 0x14, 0xbf, 0x3c, 0xe6, 0x01, 0xbf, 0xb2, 0x26, 0x15, 0xbf,
        0x0f, 0xbc, 0x8e, 0x3e, 0x64, 0x83, 0x2b, 0x3f, 0xe0, 0x35, 0xd6, 0x3d,
        0x50, 0xaa, 0x33, 0x3f, 0x2a, 0xd0, 0x23, 0xbf, 0x36, 0x5b, 0x07, 0xbf,
        0x46, 0x68, 0x5e, 0x3e, 0x53, 0xd0, 0x15, 0x3d, 0x53, 0x32, 0x40, 0xbe,
        0x71, 0x54, 0xd8, 0xbe, 0x7e, 0xe0, 0x32, 0xbe, 0xe0, 0x08, 0x0b, 0xbe,
        0xfa, 0x60, 0x4c, 0x3e, 0xda, 0x04, 0x4d, 0xbf, 0x91, 0x79, 0x09, 0xbf,
        0x47, 0x12, 0x16, 0xbe, 0x22, 0x86, 0x1c, 0x3e, 0x89, 0x2b, 0xcc, 0x3e,
        0xb3, 0x68, 0xda, 0xbe, 0xfb, 0x86, 0xe2, 0xbe, 0x83, 0x08, 0x8d, 0x3d,
        0x17, 0x7e, 0xf2, 0xbe, 0x77, 0x02, 0x17, 0x3f, 0xba, 0x9d, 0x4a, 0xbf,
        0x5f, 0x33, 0x41, 0xbe, 0x45, 0xc3, 0x32, 0xbe, 0xa6, 0x7b, 0x76, 0xbe,
        0xb2, 0x5f, 0xdb, 0xbe, 0x08, 0xcc, 0x64, 0x3d, 0x6d, 0x50, 0xfd, 0x3e,
        0x60, 0x40, 0xb4, 0xbe, 0xf5, 0x7a, 0x8d, 0x3e, 0x13, 0xc6, 0x93, 0x3e,
        0xac, 0xc4, 0x09, 0xbf, 0x8e, 0x59, 0xcf, 0x3e, 0x86, 0x53, 0x6d, 0x3e,
        0xf5, 0x72, 0xc0, 0xbe, 0xa0, 0x11, 0xc0, 0x3d, 0x06, 0xbd, 0x63, 0xbf,
        0xaf, 0xfe, 0xc8, 0x3d, 0x7d, 0x26, 0x8e, 0xbd, 0x62, 0xe8, 0xa0, 0xbe,
        0x3f, 0x76, 0x0d, 0xbf, 0x72, 0xe8, 0xe9, 0x3e, 0x45, 0x2d, 0xdb, 0xbe,
        0xfe, 0x04, 0x23, 0xbe, 0x21, 0xd0, 0x10, 0x3f, 0x46, 0xb0, 0xb2, 0x3e,
        0x91, 0xc8, 0x1a, 0x3f, 0x2a, 0x6a, 0x14, 0xbf, 0xe6, 0xc7, 0x98, 0xbe,
        0x10, 0xa2, 0x23, 0xbf, 0xfa, 0x48, 0x6f, 0xbf, 0x55, 0xaa, 0xc8, 0x3e,
        0xf1, 0x60, 0x0f, 0x3e, 0xc3, 0xe3, 0xe2, 0x3e, 0xa1, 0xd4, 0xd7, 0x3e,
        0x15, 0x86, 0x1f, 0xbe, 0xe0, 0xf5, 0x9c, 0x3e, 0xaf, 0x5f, 0x26, 0x3e,
        0x9d, 0x9f, 0xb6, 0x3e, 0xd0, 0x71, 0x96, 0xbe, 0xa8, 0xcc, 0xc9, 0xbe,
        0xb8, 0xa6, 0x0a, 0x3b, 0x21, 0xea, 0x93, 0x3e, 0x69, 0x98, 0xb1, 0x3e,
        0x40, 0xf4, 0xa7, 0x3b, 0x8a, 0xc2, 0x8b, 0x3d, 0x39, 0x73, 0xb0, 0x3d,
        0x4d, 0x90, 0x35, 0x3f, 0x65, 0x61, 0x12, 0xbf, 0x99, 0xb3, 0x50, 0xbf,
        0x08, 0x00, 0x95, 0x3e, 0xca, 0x07, 0x87, 0xbe, 0xf4, 0x46, 0x97, 0xbe,
        0x4b, 0xb1, 0xe0, 0xbe, 0x55, 0xa6, 0x14, 0x3d, 0xdc, 0x8f, 0x9c, 0x3e,
        0x6a, 0x47, 0x18, 0x3f, 0x4d, 0xbe, 0x85, 0x3e, 0x11, 0xb8, 0xec, 0xbc,
        0xf1, 0x16, 0xde, 0x3e, 0xcb, 0xb4, 0x77, 0xbe, 0x03, 0x3e, 0xa8, 0x3e,
        0xae, 0x4a, 0xc7, 0x3e, 0xae, 0x4b, 0xef, 0x3c, 0x51, 0xdb, 0xdf, 0x3e,
        0x90, 0x83, 0xa9, 0x3e, 0xde, 0x45, 0xbd, 0xbc, 0x6d, 0x20, 0xf2, 0x3d,
        0x95, 0x71, 0x05, 0x3f, 0x91, 0xfe, 0x6e, 0x3e, 0x8e, 0x6d, 0x49, 0x3d,
        0xf5, 0xfc, 0x1f, 0xbf, 0x33, 0xab, 0xb0, 0x3e, 0x13, 0xb7, 0x19, 0xbe,
        0xb6, 0xf1, 0x9f, 0xbd, 0x7e, 0xe1, 0x12, 0xbf, 0xc0, 0x30, 0xe3, 0xbd,
        0xbc, 0xd3, 0xc4, 0x3e, 0x60, 0x05, 0x4b, 0x3f, 0x02, 0x35, 0xf1, 0xbe,
        0x59, 0x3e, 0x48, 0xbf, 0x64, 0x8a, 0x2d, 0x3e, 0x75, 0xcf, 0x8a, 0x3e,
        0x85, 0x67, 0x2d, 0x3e, 0xc7, 0x4b, 0x2a, 0x3d, 0xc0, 0x49, 0xca, 0xbe,
        0x44, 0x9f, 0x8a, 0x3d, 0xea, 0x5b, 0xcf, 0xbe, 0xac, 0x3f, 0x07, 0xbe,
        0xe6, 0xe0, 0x11, 0x3f, 0xe1, 0xbe, 0x95, 0xbe, 0x2b, 0xf7, 0x51, 0x3d,
        0x9e, 0x3a, 0x98, 0x3e, 0x9e, 0xb5, 0xff, 0xff, 0x10, 0x00, 0x00, 0x00,
        0x07, 0x00, 0x00, 0x00, 0x14, 0x00, 0x00, 0x00, 0x30, 0x00, 0x00, 0x00,
        0x02, 0x00, 0x00, 0x00, 0x0a, 0x00, 0x00, 0x00, 0x10, 0x00, 0x00, 0x00,
        0x19, 0x00, 0x00, 0x00, 0x73, 0x65, 0x71, 0x75, 0x65, 0x6e, 0x74, 0x69,
        0x61, 0x6c, 0x2f, 0x64, 0x65, 0x6e, 0x73, 0x65, 0x5f, 0x31, 0x2f, 0x4d,
        0x61, 0x74, 0x4d, 0x75, 0x6c, 0x00, 0x00, 0x00, 0x0c, 0xb5, 0xff, 0xff,
        0x16, 0xb6, 0xff, 0xff, 0x04, 0x00, 0x00, 0x00, 0x00, 0x48, 0x00, 0x00,
        0x6b, 0xb5, 0xe4, 0xbc, 0x04, 0x6c, 0xb5, 0x3e, 0x7d, 0x82, 0x63, 0x3e,
        0x62, 0xf0, 0x24, 0x3d, 0x09, 0x99, 0x39, 0xbc, 0x82, 0xec, 0x3c, 0x3e,
        0xbe, 0x9f, 0x01, 0x3e, 0xe4, 0x3a, 0x5a, 0x3d, 0x98, 0x61, 0xd9, 0xbc,
        0x6a, 0x27, 0x0f, 0xbe, 0x34, 0x0f, 0xfe, 0x3c, 0x8f, 0xa4, 0x82, 0xbe,
        0x5f, 0x1d, 0x4c, 0x3e, 0x3c, 0xee, 0x2e, 0x3e, 0x46, 0xfd, 0x2e, 0x3c,
        0x45, 0x1c, 0x5c, 0xbe, 0xc6, 0x59, 0x0b, 0x3c, 0xca, 0x8e, 0x3f, 0xbe,
        0x8b, 0xc3, 0x19, 0x3f, 0xf8, 0x43, 0xaa, 0xbc, 0xc2, 0x13, 0xad, 0x3e,
        0x42, 0xcd, 0x1b, 0x3e, 0xcc, 0xca, 0x43, 0x3e, 0xab, 0xfa, 0xce, 0xbd,
        0x43, 0x42, 0x01, 0x3e, 0x6a, 0x71, 0x72, 0xbd, 0x76, 0xef, 0x96, 0x3e,
        0xe5, 0xc7, 0x91, 0x3c, 0xf5, 0xf2, 0xed, 0xba, 0x12, 0x1d, 0x70, 0xbb,
        0x1e, 0xca, 0x8e, 0x3e, 0xfb, 0x0f, 0x31, 0x3d, 0xcc, 0xaf, 0x7f, 0x3e,
        0x3b, 0xef, 0x48, 0x3e, 0x29, 0x0f, 0x90, 0xbe, 0x34, 0x3c, 0x97, 0x3d,
        0x8f, 0x0b, 0x8e, 0x3e, 0xf5, 0x53, 0xae, 0x3d, 0x77, 0x33, 0xc0, 0x3e,
        0x02, 0x78, 0x35, 0xbe, 0x9f, 0x88, 0x59, 0x3e, 0xd5, 0x86, 0x83, 0x3e,
        0x7c, 0xed, 0xec, 0x3d, 0x64, 0x70, 0xf1, 0x3d, 0xac, 0x07, 0xa8, 0x3e,
        0x5b, 0x33, 0x07, 0x3e, 0x6b, 0x25, 0x96, 0xbd, 0xb4, 0x3d, 0x5d, 0x3c,
        0x6e, 0xbb, 0x04, 0xbe, 0x0a, 0xd0, 0xa1, 0x3e, 0x6e, 0xaa, 0xea, 0x3d,
        0x52, 0xe3, 0x83, 0xbe, 0xe7, 0xad, 0x09, 0xbd, 0x0d, 0x70, 0x86, 0x3e,
        0x90, 0x10, 0x05, 0xbe, 0x9d, 0xff, 0x80, 0xbe, 0x5c, 0x04, 0x3d, 0xbd,
        0x86, 0xbe, 0x05, 0xbf, 0x08, 0x48, 0xa3, 0x3e, 0xa7, 0xbd, 0x7b, 0xbe,
        0x8c, 0x00, 0x7b, 0x3e, 0xaa, 0x76, 0xc4, 0xbd, 0x9e, 0x68, 0x61, 0xbd,
        0x24, 0x47, 0x10, 0xbe, 0xc6, 0x4d, 0x25, 0x3e, 0x4c, 0x5b, 0x61, 0xbd,
        0xb6, 0x43, 0x8b, 0x3e, 0xaf, 0x9d, 0x4a, 0x3e, 0x5c, 0x3b, 0xc1, 0x3c,
        0x9b, 0x5d, 0xe7, 0x3d, 0x40, 0x7f, 0x2a, 0x3e, 0x01, 0x91, 0xfa, 0x3d,
        0x8c, 0xe4, 0x9a, 0x3e, 0x94, 0x26, 0xa5, 0x3e, 0xd3, 0x6b, 0x27, 0xbe,
        0x00, 0xc6, 0x87, 0xbd, 0x1d, 0x2b, 0xb9, 0xbd, 0x70, 0xc4, 0xac, 0x3e,
        0xfb, 0xfe, 0x9b, 0x3e, 0xb9, 0x59, 0xd3, 0x3d, 0x9a, 0x41, 0x7e, 0x3e,
        0x17, 0xc8, 0xe0, 0xbc, 0x52, 0x13, 0x32, 0xbe, 0x95, 0xe3, 0x52, 0xbd,
        0xe1, 0xf9, 0xe9, 0x3d, 0x6f, 0x0b, 0x59, 0x3e, 0x4b, 0xff, 0x53, 0xbd,
        0xbe, 0x5a, 0x9f, 0xbe, 0x81, 0xc9, 0x18, 0xbd, 0x62, 0xfb, 0xc1, 0xbd,
        0xc6, 0x65, 0xf1, 0x3e, 0xc3, 0xe7, 0x4e, 0x3e, 0x9e, 0x7d, 0x88, 0x3e,
        0x2b, 0x18, 0x5d, 0x3e, 0x05, 0xe9, 0xa0, 0xbe, 0x4f, 0x55, 0x46, 0xbe,
        0x91, 0x24, 0x9c, 0xbe, 0xb3, 0x90, 0xa6, 0xbd, 0x00, 0x1b, 0x8c, 0x3d,
        0xae, 0x87, 0x05, 0xbe, 0x03, 0xb0, 0xa2, 0xbe, 0x3f, 0xb2, 0x7b, 0xbe,
        0x6c, 0x87, 0x13, 0xbe, 0xd6, 0x4c, 0xad, 0xbe, 0x3d, 0xb0, 0x88, 0xbe,
        0x4d, 0x90, 0xc8, 0xbe, 0x84, 0x87, 0xb2, 0x3e, 0xe0, 0xe7, 0xa0, 0x3e,
        0x8d, 0x9a, 0x3f, 0x3e, 0x09, 0x0c, 0x95, 0xbe, 0x35, 0x98, 0xed, 0x3d,
        0xb0, 0x02, 0x92, 0x3e, 0x5b, 0xd1, 0x2a, 0x3e, 0x8f, 0xc2, 0x16, 0xbe,
        0x84, 0xb2, 0x02, 0x3e, 0x55, 0x7e, 0xd3, 0xbc, 0xc7, 0xd3, 0xdf, 0x3c,
        0xda, 0xfb, 0xe1, 0x3d, 0x37, 0x88, 0x09, 0x3e, 0x2e, 0x51, 0xd9, 0x3e,
        0x8d, 0x2f, 0x76, 0x3e, 0xe6, 0x80, 0x29, 0x3e, 0x7f, 0x03, 0x11, 0xbf,
        0xe5, 0x63, 0x8c, 0xbd, 0x17, 0x58, 0x90, 0x3d, 0xe5, 0x31, 0x8f, 0x3e,
        0x3c, 0x86, 0x92, 0x3d, 0x4e, 0x02, 0xc2, 0x3d, 0x74, 0x83, 0x0e, 0x3d,
        0xc5, 0x29, 0xa6, 0x3c, 0x52, 0xf8, 0xa2, 0x3d, 0x7d, 0x34, 0x3f, 0x3e,
        0x1f, 0xee, 0xb5, 0x3e, 0xa3, 0x75, 0x13, 0x3e, 0x19, 0x8e, 0xb2, 0xbd,
        0x44, 0xef, 0x99, 0xbe, 0x1a, 0x77, 0x6f, 0xbe, 0x00, 0x33, 0x8b, 0xbd,
        0x33, 0xa1, 0x69, 0x3e, 0xeb, 0x79, 0x16, 0x3e, 0x9e, 0x5a, 0xa9, 0x3c,
        0x6e, 0x7c, 0x00, 0xbe, 0xea, 0x15, 0x24, 0xbe, 0x1e, 0x3f, 0x04, 0xbe,
        0x5c, 0x69, 0x64, 0xbe, 0x5e, 0xb8, 0xcb, 0xbd, 0xd4, 0x5e, 0x15, 0xbe,
        0xe8, 0x29, 0xf2, 0x3d, 0xd4, 0x40, 0x03, 0xbe, 0x22, 0x81, 0x89, 0xbe,
        0x05, 0x95, 0xa6, 0xbe, 0xe0, 0x7d, 0x4a, 0xbe, 0xf5, 0xdb, 0xa1, 0xbe,
        0x72, 0x6d, 0x4b, 0x3e, 0x55, 0xc9, 0xf3, 0x3e, 0x94, 0x6f, 0xab, 0xbd,
        0x19, 0x0a, 0x89, 0xbd, 0x6d, 0xb0, 0xfc, 0xbb, 0xd7, 0xa0, 0xa6, 0xbc,
        0x64, 0xe1, 0x38, 0x3d, 0xbd, 0xbc, 0xad, 0x3d, 0x7b, 0x32, 0x54, 0xbe,
        0x0c, 0xb5, 0x4c, 0x3e, 0xd0, 0x24, 0xbb, 0xbe, 0x7c, 0x27, 0x8e, 0x3c,
        0x54, 0x4f, 0xf8, 0x3d, 0x78, 0x22, 0x23, 0x3e, 0x11, 0x94, 0x2b, 0x3c,
        0x00, 0x0d, 0x83, 0xbd, 0x37, 0x01, 0x42, 0xbe, 0x45, 0x4a, 0x40, 0x3d,
        0xfb, 0x08, 0x33, 0x3d, 0xe6, 0x37, 0x91, 0x3d, 0x59, 0x05, 0xa2, 0x3d,
        0x0e, 0xbe, 0x4d, 0x3d, 0xe2, 0x85, 0xf2, 0xbd, 0x8b, 0xdd, 0xe8, 0x3d,
        0x6c, 0x17, 0x1e, 0x3e, 0xfc, 0xd8, 0xdf, 0x3d, 0x75, 0xbf, 0x72, 0x3e,
        0xcf, 0xbc, 0xac, 0x3d, 0x49, 0xc2, 0x1f, 0x3e, 0x78, 0x23, 0xfb, 0x3c,
        0x16, 0xfb, 0x83, 0xbe, 0xcd, 0x18, 0x0f, 0x3d, 0x4f, 0x72, 0xba, 0x3c,
        0x5d, 0x42, 0xff, 0xbc, 0x3f, 0x56, 0x93, 0x3d, 0x8a, 0x8a, 0xb8, 0x3d,
        0x09, 0x0a, 0x98, 0xbd, 0x0b, 0x30, 0xc6, 0xbd, 0x9e, 0x73, 0x1f, 0x3e,
        0xbe, 0x6d, 0xe4, 0x3d, 0x18, 0x49, 0xda, 0xbc, 0xcd, 0xed, 0xdc, 0xbd,
        0x52, 0x37, 0x7b, 0x3e, 0x6e, 0xc0, 0x08, 0xbd, 0x63, 0xcc, 0x29, 0xbe,
        0xad, 0xce, 0x88, 0xbe, 0xa2, 0x46, 0x56, 0x3e, 0xf7, 0xfb, 0x4c, 0xbe,
        0x9d, 0xae, 0xb5, 0x3e, 0x46, 0x39, 0x4a, 0xbe, 0xab, 0x93, 0x4a, 0xbe,
        0xce, 0xce, 0xa5, 0xbe, 0xc4, 0x64, 0x86, 0xbd, 0x5e, 0x88, 0xdb, 0xbd,
        0x42, 0x2f, 0x87, 0x3e, 0x1c, 0x13, 0x64, 0xbd, 0xc0, 0xe5, 0x17, 0x3e,
        0xb6, 0xeb, 0x26, 0xbd, 0x9c, 0x63, 0x2b, 0xbe, 0x28, 0x83, 0x10, 0xbe,
        0xdd, 0x33, 0x31, 0xbe, 0x71, 0xbc, 0x74, 0x3e, 0x7a, 0xb8, 0x9a, 0x3d,
        0xa9, 0x4f, 0x1a, 0x3d, 0x85, 0xd7, 0x50, 0xbe, 0xb0, 0xf3, 0xdb, 0x3d,
        0x78, 0xf2, 0x41, 0x3d, 0xcd, 0xcc, 0x7c, 0x3d, 0xdd, 0x52, 0x49, 0xbc,
        0xa3, 0x2e, 0xf8, 0x3d, 0x42, 0x75, 0x53, 0xbe, 0x00, 0xb9, 0x92, 0x3b,
        0x35, 0x7f, 0x3d, 0x3e, 0xa7, 0x72, 0xf4, 0x3c, 0xff, 0xe7, 0xfe, 0x3d,
        0x82, 0xe1, 0xe5, 0x3b, 0xb9, 0x2c, 0x90, 0x3d, 0xbe, 0x13, 0xb2, 0xbd,
        0x6a, 0xd1, 0x92, 0xbc, 0xec, 0x04, 0xa0, 0x3b, 0x94, 0x3f, 0x2d, 0x3d,
        0x7a, 0x1e, 0x71, 0xbd, 0xd8, 0x3d, 0xd0, 0xbc, 0x32, 0x86, 0x8d, 0xbd,
        0x1f, 0xa2, 0x06, 0x3d, 0xd5, 0xc7, 0x2b, 0xbe, 0x1a, 0x05, 0xb4, 0x3e,
        0x7c, 0xbc, 0xec, 0x3d, 0x2c, 0x5c, 0x8f, 0xbe, 0x78, 0x2d, 0x55, 0x3d,
        0x33, 0xe0, 0x88, 0x3e, 0xad, 0xb8, 0x78, 0x3e, 0xe7, 0x09, 0x23, 0xbe,
        0x01, 0x9b, 0xc2, 0xbd, 0xd5, 0x19, 0xe2, 0x3e, 0xe3, 0x9a, 0x8c, 0x3d,
        0x00, 0xfd, 0xc3, 0x3d, 0x11, 0xa2, 0x51, 0xbe, 0xeb, 0x2b, 0xd7, 0x3e,
        0x51, 0xd1, 0x94, 0xbd, 0x86, 0xa4, 0x91, 0x3d, 0x51, 0xdb, 0x36, 0xbe,
        0x14, 0xa5, 0x54, 0x3e, 0xd5, 0xca, 0x14, 0xbd, 0x49, 0x95, 0xa9, 0x3e,
        0xb3, 0x80, 0x42, 0xbe, 0x76, 0x8e, 0x8a, 0xbb, 0x48, 0x52, 0x16, 0xbe,
        0x92, 0x8e, 0x09, 0x3d, 0x28, 0x6b, 0x8d, 0xbd, 0xf3, 0x84, 0xca, 0x3e,
        0x86, 0x7e, 0x34, 0x3d, 0x8c, 0x7b, 0x9b, 0x3d, 0x53, 0xa6, 0xc1, 0xbe,
        0x5c, 0xca, 0xcb, 0x3c, 0x45, 0x90, 0x8b, 0x3d, 0x52, 0x17, 0xf1, 0x3d,
        0xff, 0xeb, 0xca, 0x3d, 0x45, 0x8c, 0x32, 0x3e, 0x60, 0xd0, 0x50, 0x3e,
        0x3a, 0x69, 0x13, 0x3e, 0x11, 0xc9, 0x08, 0xbe, 0x81, 0xe1, 0x44, 0x3e,
        0x78, 0xe3, 0x9c, 0xbc, 0xbb, 0xe1, 0x34, 0x3d, 0x2f, 0xe8, 0xfc, 0x3d,
        0x23, 0x88, 0x57, 0xbd, 0x65, 0xbf, 0x62, 0xbd, 0xf8, 0x7f, 0x09, 0x3d,
        0x89, 0xdc, 0x15, 0x3e, 0x3a, 0xc0, 0x2e, 0x3d, 0x91, 0x11, 0x66, 0x3d,
        0x6b, 0xb3, 0xe5, 0x3d, 0x4f, 0xe6, 0xc9, 0xbd, 0x0e, 0xb3, 0x42, 0xbc,
        0x61, 0x2c, 0xdd, 0x3d, 0x58, 0x08, 0x1e, 0xb7, 0x6b, 0x18, 0x07, 0x3e,
        0x30, 0x74, 0x8e, 0x3e, 0xf4, 0x81, 0x53, 0x3e, 0xdf, 0x0a, 0x42, 0x3e,
        0x5b, 0xf1, 0xe3, 0x3d, 0xae, 0x17, 0x23, 0x3e, 0x22, 0xfd, 0xb7, 0xbc,
        0x26, 0x50, 0x46, 0x3e, 0x08, 0x66, 0xb7, 0xbd, 0x38, 0x17, 0x04, 0xbe,
        0xdc, 0x8b, 0x3c, 0xbd, 0xaa, 0x95, 0x52, 0x3e, 0x02, 0x82, 0x0a, 0x3e,
        0x53, 0x07, 0xe6, 0x3d, 0xf0, 0x17, 0x76, 0xbd, 0xfa, 0xad, 0x09, 0xbd,
        0x64, 0x6b, 0x21, 0xbe, 0x04, 0xa0, 0x06, 0x3d, 0xa3, 0xc0, 0x11, 0x3e,
        0x32, 0xfb, 0x5d, 0x3c, 0x67, 0x67, 0x8d, 0xba, 0x2f, 0x21, 0x72, 0x3c,
        0xe0, 0x18, 0xe0, 0xbc, 0x3b, 0x30, 0x4c, 0xbe, 0xe1, 0xea, 0xb6, 0x3d,
        0xe3, 0xf9, 0x48, 0x3e, 0x0d, 0xa7, 0xbb, 0xbd, 0xf1, 0x30, 0x15, 0x3d,
        0x9f, 0x8e, 0xc3, 0x3c, 0x49, 0xe5, 0xa1, 0x3e, 0xeb, 0x5f, 0x38, 0x3e,
        0xb0, 0xde, 0xd5, 0x3d, 0x74, 0xfa, 0xe7, 0xbe, 0x9c, 0x62, 0x51, 0x3d,
        0x6c, 0x55, 0x34, 0xbe, 0xef, 0x6d, 0x29, 0xbd, 0x97, 0x15, 0x3f, 0xbc,
        0xb1, 0xf3, 0xd0, 0x3e, 0xa9, 0xc6, 0x28, 0x3e, 0xd4, 0xc7, 0x90, 0x3e,
        0xaf, 0x9c, 0x18, 0xbf, 0x50, 0x06, 0x5f, 0xbd, 0xd8, 0xb0, 0xeb, 0xbd,
        0xe9, 0x0b, 0x10, 0xbe, 0xfb, 0x0e, 0xa5, 0xbc, 0x60, 0x99, 0xbf, 0x3e,
        0x1c, 0x7b, 0x5a, 0x3c, 0x82, 0xcc, 0x87, 0xbd, 0x62, 0x1b, 0x69, 0x3e,
        0x20, 0x2b, 0x3f, 0xbe, 0x3b, 0x14, 0x4d, 0x3e, 0x02, 0x57, 0xed, 0x3d,
        0xf0, 0xa6, 0x0b, 0x3e, 0x3d, 0x52, 0xc4, 0x3d, 0xaf, 0x01, 0x01, 0x3e,
        0x3c, 0xcf, 0x54, 0xbd, 0x97, 0x13, 0xe7, 0xbd, 0x0c, 0xa0, 0x29, 0xbe,
        0x2a, 0x9e, 0x17, 0x3e, 0x8f, 0x82, 0x15, 0xbd, 0xdf, 0x7d, 0xaf, 0x3d,
        0xe0, 0xfd, 0x24, 0xbb, 0x06, 0xdf, 0x13, 0xbd, 0x02, 0x1a, 0x31, 0xbd,
        0x0b, 0xc3, 0x19, 0xbd, 0xe8, 0xcb, 0x62, 0x3e, 0x65, 0x25, 0xe5, 0x3c,
        0xb5, 0x05, 0x11, 0xbb, 0x68, 0xbc, 0x46, 0x3d, 0xb3, 0xf2, 0x0a, 0xbd,
        0xe2, 0x87, 0x25, 0x3e, 0x88, 0xd4, 0x0a, 0xbc, 0x90, 0xe6, 0x90, 0x3e,
        0xf4, 0x97, 0xbe, 0x3e, 0x20, 0xde, 0xa1, 0x3d, 0xed, 0xd7, 0x0a, 0x3d,
        0xa4, 0xe7, 0xf9, 0x3d, 0x89, 0x90, 0xa0, 0x3e, 0x27, 0x2d, 0x96, 0x3d,
        0x37, 0xc5, 0xf4, 0x3d, 0x61, 0xcb, 0x7e, 0xbe, 0xbb, 0x0f, 0x29, 0x3e,
        0x4a, 0x69, 0xf0, 0xbb, 0x6d, 0x09, 0x27, 0x3e, 0x10, 0xea, 0x04, 0x3e,
        0x0e, 0x3d, 0x3d, 0x3e, 0xc3, 0xb0, 0xc4, 0x3e, 0xb7, 0x16, 0x19, 0x3e,
        0xa0, 0x36, 0xe9, 0xbd, 0x95, 0x34, 0x51, 0x3e, 0xd3, 0xfb, 0x35, 0x3e,
        0x69, 0xbe, 0x9e, 0x3e, 0xfe, 0x03, 0x6d, 0xbe, 0x5e, 0x8e, 0xc2, 0x3e,
        0xac, 0xce, 0x26, 0x3c, 0x61, 0x86, 0xe1, 0x3d, 0xba, 0x4c, 0x5f, 0x3e,
        0x92, 0x1d, 0xb0, 0xbe, 0xea, 0x2a, 0x9c, 0x3d, 0x85, 0x43, 0x1d, 0x3e,
        0x3b, 0xfa, 0x09, 0x3e, 0xeb, 0x8f, 0x12, 0xbe, 0xcf, 0x30, 0x4f, 0xbc,
        0xa5, 0xb7, 0x4f, 0xbe, 0x44, 0xe0, 0x0d, 0xbc, 0xd3, 0x18, 0xd7, 0xbd,
        0x94, 0x0d, 0x52, 0x3e, 0x00, 0x70, 0x99, 0xbd, 0x56, 0xf1, 0xe4, 0x3c,
        0x98, 0x2a, 0xc6, 0xbd, 0x5d, 0x12, 0x2c, 0xbd, 0xac, 0x32, 0x7b, 0x3e,
        0x58, 0x7d, 0xd4, 0xbb, 0xc3, 0x53, 0x3d, 0x3d, 0x0d, 0x14, 0xeb, 0x3d,
        0xb4, 0xc8, 0x02, 0x3e, 0x8d, 0x04, 0xc1, 0x3c, 0xe3, 0x4b, 0x0f, 0x3d,
        0x14, 0x38, 0x50, 0x3d, 0x1e, 0x57, 0xa9, 0x3d, 0xe5, 0xb7, 0x7f, 0x3e,
        0x28, 0x2c, 0xfe, 0xbd, 0x2d, 0x01, 0x0e, 0x3e, 0x5d, 0x3a, 0x61, 0x3e,
        0xe5, 0x65, 0xe7, 0x3d, 0x23, 0xb4, 0x7a, 0x3e, 0x0e, 0xf4, 0xd2, 0x3d,
        0x79, 0x36, 0xae, 0xbe, 0x41, 0xb6, 0x4e, 0x3e, 0xca, 0xec, 0xc2, 0xbd,
        0xc6, 0x41, 0x51, 0x3e, 0xd3, 0xbd, 0x46, 0xbc, 0xc3, 0xf7, 0xb2, 0xbb,
        0x43, 0xa2, 0xd5, 0xbe, 0x5f, 0x5e, 0x28, 0x3d, 0x6e, 0xa3, 0xbc, 0x3d,
        0xa0, 0xc7, 0xaf, 0x3e, 0x1d, 0x65, 0x91, 0x3d, 0xb9, 0x90, 0x20, 0x3e,
        0xf7, 0xb7, 0x49, 0x3e, 0x1c, 0x6d, 0xf3, 0xbd, 0x1d, 0x1a, 0xc5, 0xbe,
        0xa0, 0x9f, 0x56, 0xbd, 0x7b, 0x2e, 0x4d, 0x3e, 0x05, 0x83, 0x5c, 0x3d,
        0xfd, 0x5a, 0x98, 0xbd, 0x95, 0x28, 0x4a, 0x3c, 0x48, 0x7e, 0x94, 0x3c,
        0x01, 0x7d, 0x10, 0x3e, 0x1c, 0xf6, 0x96, 0x3d, 0xd1, 0x95, 0xbe, 0x3d,
        0x65, 0x52, 0x9f, 0x3d, 0x81, 0xf4, 0xa0, 0xbd, 0xa7, 0x2f, 0xa7, 0xbd,
        0x0d, 0x06, 0x7e, 0x3d, 0x62, 0xfc, 0xe9, 0xbd, 0xff, 0x38, 0x98, 0x3d,
        0x90, 0xc5, 0x55, 0x3d, 0xbf, 0x98, 0x1b, 0x3e, 0x6e, 0xd5, 0xce, 0x3d,
        0xef, 0xb0, 0x27, 0xbe, 0x55, 0x25, 0xad, 0xbd, 0xaf, 0xc1, 0x6f, 0xbd,
        0xf4, 0x87, 0x4b, 0xbb, 0x0b, 0xc7, 0x5b, 0xbd, 0xc9, 0x9b, 0x4b, 0xbe,
        0x28, 0xbf, 0xd9, 0xbd, 0xf2, 0xfc, 0x9d, 0x3c, 0x8f, 0x6e, 0x18, 0x3d,
        0x29, 0xf9, 0x09, 0xbe, 0x73, 0x74, 0x00, 0xbd, 0x8b, 0x21, 0xed, 0x3b,
        0x72, 0x6d, 0x67, 0x3d, 0x86, 0xe8, 0xde, 0xbd, 0x55, 0x81, 0xbf, 0xbd,
        0x8b, 0xcb, 0x43, 0xbe, 0xf8, 0x0d, 0xea, 0x3d, 0x04, 0x90, 0xa0, 0xbe,
        0x18, 0x62, 0x77, 0xbb, 0x80, 0x46, 0x45, 0xbe, 0xba, 0x05, 0xa7, 0x3d,
        0x7f, 0x80, 0x11, 0xbf, 0x4f, 0xd7, 0x61, 0xbe, 0xff, 0x46, 0x60, 0xbd,
        0x13, 0xde, 0xdc, 0x3e, 0x37, 0x61, 0x2b, 0xbd, 0xc7, 0x10, 0x10, 0x3d,
        0x69, 0x38, 0x03, 0xbe, 0x73, 0xe3, 0x68, 0x3e, 0xbf, 0xf6, 0x04, 0xbf,
        0x08, 0x86, 0x71, 0xbd, 0x11, 0x67, 0x37, 0x3e, 0xd4, 0x82, 0x0c, 0x3e,
        0xbd, 0xd9, 0xbe, 0x3d, 0x4c, 0xee, 0x84, 0x3a, 0x2c, 0x41, 0xaa, 0x3c,
        0xa0, 0x7a, 0xe4, 0x3d, 0x59, 0xbb, 0x03, 0xbd, 0x68, 0x29, 0x8c, 0x3d,
        0x4b, 0x28, 0x4b, 0x3e, 0xd1, 0x7e, 0x82, 0xbd, 0x62, 0x92, 0x4b, 0x3d,
        0xa2, 0x77, 0xdc, 0xbc, 0xc6, 0x1e, 0x05, 0x3c, 0x19, 0x7e, 0xb6, 0x3d,
        0x0a, 0x1b, 0x97, 0x3d, 0x18, 0x94, 0xd9, 0xbb, 0x8f, 0x56, 0x24, 0xbe,
        0x2d, 0xf5, 0x31, 0xbe, 0x92, 0x72, 0xb1, 0x3d, 0x74, 0x85, 0xdf, 0xbd,
        0x7c, 0x06, 0x82, 0x3d, 0x1a, 0xb2, 0xc3, 0x3c, 0x13, 0xbc, 0x4a, 0xbe,
        0xdc, 0x64, 0xe7, 0xbd, 0xe1, 0x94, 0xcd, 0x3d, 0xb7, 0x19, 0x47, 0x3e,
        0xa1, 0x70, 0x5b, 0xbd, 0x73, 0x79, 0x43, 0x3d, 0xc1, 0x4a, 0x73, 0xbd,
        0x33, 0x1e, 0x8c, 0x3c, 0x5e, 0x18, 0xbd, 0xbd, 0xc0, 0x36, 0x44, 0xbd,
        0x92, 0xcf, 0xec, 0xbd, 0x90, 0x4c, 0x19, 0x3d, 0x8f, 0xb3, 0x5a, 0xbe,
        0xe0, 0xf9, 0x5a, 0x3b, 0x20, 0xe3, 0x88, 0xbe, 0xc0, 0xbd, 0x4d, 0xbe,
        0x35, 0x09, 0x0d, 0x3e, 0x9d, 0xc2, 0xd1, 0xbd, 0xa3, 0x10, 0x1f, 0xbe,
        0x07, 0x75, 0xc3, 0xbd, 0x26, 0x5a, 0x00, 0xbe, 0x7d, 0x7d, 0x63, 0xbe,
        0x22, 0x86, 0x4a, 0xbd, 0xf8, 0xb6, 0x88, 0x3e, 0x7d, 0x25, 0x8e, 0x3d,
        0xa9, 0x26, 0x2c, 0xbe, 0x3a, 0xa6, 0xf1, 0x3c, 0xe1, 0x68, 0xc7, 0x3d,
        0xf8, 0x10, 0xaf, 0x3d, 0x8d, 0x1a, 0xd3, 0x3d, 0x74, 0xbe, 0x25, 0xbd,
        0x96, 0xd3, 0x98, 0x3c, 0x22, 0x08, 0x19, 0x3d, 0x7b, 0x83, 0x85, 0x3d,
        0xa7, 0x6a, 0x97, 0xbd, 0x64, 0x23, 0x80, 0x3d, 0xe5, 0xe3, 0x13, 0xbe,
        0x47, 0x08, 0x15, 0x3e, 0xa4, 0x73, 0xd8, 0x3d, 0x9d, 0x29, 0xe4, 0xbd,
        0xcb, 0x4c, 0x00, 0x3d, 0x31, 0x10, 0xb8, 0xbc, 0xe9, 0x35, 0xbc, 0xbd,
        0x55, 0x85, 0xd4, 0xbd, 0xc3, 0xef, 0x73, 0x3c, 0x22, 0x9f, 0x82, 0xbd,
        0x4a, 0x59, 0x85, 0xbd, 0x33, 0xbb, 0xb0, 0x3d, 0x64, 0x89, 0xf0, 0xbc,
        0x96, 0xbd, 0x1b, 0x3d, 0x88, 0x3a, 0x70, 0xbd, 0x10, 0xa6, 0x62, 0xbd,
        0xc2, 0x94, 0x1f, 0xbd, 0xd4, 0xde, 0x07, 0xbe, 0x00, 0x91, 0x56, 0xbe,
        0x61, 0xf5, 0xc3, 0xbd, 0x2a, 0xd0, 0x49, 0xbd, 0x91, 0xc4, 0x86, 0xbd,
        0x78, 0x63, 0xc3, 0x3d, 0x3b, 0xca, 0x3e, 0x3e, 0x77, 0xcc, 0x9d, 0x3d,
        0xcd, 0x85, 0x6c, 0xbe, 0x11, 0x56, 0xe4, 0xbc, 0xfa, 0x56, 0x4e, 0xbd,
        0xc6, 0xc1, 0x6e, 0x3e, 0x30, 0xa8, 0x54, 0xbd, 0x92, 0x5c, 0x18, 0xbe,
        0x14, 0x0c, 0x94, 0xbe, 0xbf, 0x99, 0x02, 0xbc, 0xcb, 0x0f, 0x83, 0xbe,
        0xe7, 0xc6, 0xfa, 0xbd, 0x06, 0x9c, 0xd9, 0xbd, 0xbf, 0x00, 0x47, 0x3e,
        0x6c, 0x21, 0x1c, 0xbd, 0xdf, 0x58, 0xff, 0xbc, 0xc6, 0x77, 0x5a, 0x3e,
        0x01, 0x8a, 0x4e, 0x3d, 0xba, 0xd9, 0x4f, 0x3d, 0x1b, 0x96, 0xe7, 0x3d,
        0x86, 0xf7, 0x04, 0x3d, 0x47, 0xd1, 0x4f, 0xbd, 0xac, 0x3a, 0xf8, 0x3d,
        0x5e, 0x55, 0x83, 0xbe, 0x9f, 0x89, 0x06, 0x3e, 0xfb, 0xa3, 0xba, 0xbd,
        0xe4, 0x3b, 0x8a, 0x3d, 0x63, 0x60, 0x83, 0x3b, 0x11, 0x32, 0xdc, 0x3d,
        0x1e, 0x07, 0xae, 0x3d, 0xb4, 0xd6, 0xf6, 0xbd, 0x83, 0x06, 0x2e, 0x3d,
        0xb1, 0x8b, 0xa2, 0x3c, 0xdd, 0x89, 0x49, 0x3d, 0xde, 0x04, 0x88, 0x3d,
        0x40, 0x03, 0x1f, 0x3e, 0xc6, 0x37, 0x08, 0xbe, 0xd9, 0xb2, 0xa0, 0x3d,
        0x4f, 0x94, 0x0b, 0x3d, 0x17, 0x1e, 0x8a, 0x3c, 0x1e, 0x8c, 0x16, 0x3d,
        0xbc, 0x43, 0x30, 0xbe, 0xb9, 0x79, 0xe9, 0x3d, 0xf3, 0x7d, 0x31, 0x3e,
        0x58, 0xb1, 0x9a, 0xbd, 0xbd, 0xac, 0xaa, 0x3d, 0x28, 0x01, 0x8c, 0xbd,
        0xed, 0xda, 0x49, 0x3d, 0x99, 0x32, 0x89, 0x3e, 0xe4, 0xdd, 0xdf, 0xbd,
        0x12, 0x77, 0x1b, 0x3e, 0xa8, 0x9a, 0xe4, 0xbc, 0xca, 0xd5, 0x42, 0x39,
        0xa5, 0x76, 0xa0, 0x3e, 0x61, 0x48, 0x09, 0x3e, 0xa8, 0x2c, 0x48, 0x3d,
        0x24, 0x0a, 0x18, 0x3d, 0x98, 0x0b, 0x42, 0xbc, 0x4b, 0x72, 0x11, 0xbc,
        0x5c, 0xb0, 0x38, 0x3e, 0xc3, 0x6c, 0x7c, 0x3e, 0x96, 0xa2, 0x2f, 0xbe,
        0x68, 0xc1, 0x1f, 0xbe, 0xc4, 0xf5, 0x0b, 0xbd, 0x38, 0xc7, 0xb2, 0x3d,
        0xed, 0xeb, 0x96, 0xbe, 0x0e, 0x58, 0x10, 0xbd, 0xf5, 0x9e, 0xa1, 0x3d,
        0xf7, 0x83, 0x94, 0xbd, 0x13, 0x43, 0xc3, 0x3c, 0xea, 0x33, 0x0f, 0xbe,
        0xb8, 0xe6, 0xb0, 0xbd, 0x50, 0xb7, 0xd4, 0x3d, 0xc7, 0x92, 0xea, 0xbe,
        0x04, 0x83, 0x2d, 0xbe, 0x96, 0xd6, 0x8d, 0x3c, 0xef, 0x2e, 0x26, 0x3d,
        0x60, 0xed, 0xe5, 0xbd, 0x49, 0x6f, 0x07, 0xbc, 0x92, 0xba, 0x09, 0x3e,
        0xf0, 0x3d, 0x64, 0x3e, 0xe7, 0x79, 0x01, 0xbe, 0x9b, 0xe6, 0x13, 0xbd,
        0xd8, 0x9d, 0xeb, 0xbd, 0x34, 0x04, 0x0c, 0x3d, 0x45, 0x53, 0x75, 0xbe,
        0xda, 0xad, 0xac, 0xbd, 0x32, 0x39, 0xa4, 0xbd, 0x0c, 0x5d, 0x70, 0x3e,
        0x9d, 0x85, 0x33, 0xbe, 0x2e, 0x2c, 0xfe, 0x3c, 0x74, 0xb4, 0x97, 0xbd,
        0xa5, 0xcb, 0xa4, 0x3d, 0xce, 0x62, 0x1f, 0xbe, 0xf0, 0x5d, 0x92, 0xbd,
        0x87, 0xf0, 0xd5, 0x3b, 0xf0, 0xe8, 0xb3, 0x3d, 0xfb, 0xbb, 0xf5, 0x3d,
        0x4e, 0x79, 0xd8, 0x3d, 0xad, 0xda, 0x8a, 0x3d, 0x65, 0x1b, 0xa1, 0x3e,
        0x92, 0x4a, 0x21, 0xbe, 0xf5, 0xe2, 0x44, 0x3e, 0xe2, 0xe3, 0xb2, 0x3d,
        0x5a, 0x79, 0x7f, 0xbe, 0xe1, 0xe7, 0x3c, 0x3d, 0xc0, 0xdf, 0x08, 0x3e,
        0xb0, 0x91, 0xa4, 0xbd, 0x64, 0x22, 0x3f, 0x3d, 0x95, 0x4c, 0x0f, 0xbe,
        0x99, 0x6b, 0xc6, 0xbd, 0xb4, 0x56, 0x74, 0xbd, 0x09, 0x74, 0xb0, 0xbd,
        0x7d, 0xe6, 0xb9, 0x3d, 0x51, 0x3e, 0x29, 0xbe, 0x4e, 0x69, 0xa0, 0x3b,
        0xe0, 0x41, 0x96, 0xbd, 0xe6, 0x56, 0x66, 0xba, 0xcf, 0xbf, 0xa8, 0xbd,
        0x57, 0x6b, 0x31, 0xbd, 0x94, 0xb0, 0xac, 0xbe, 0xdb, 0xc0, 0x1b, 0xbe,
        0x0d, 0x5c, 0x93, 0xbd, 0x83, 0xbb, 0x08, 0xbe, 0x75, 0x79, 0x24, 0x3d,
        0xd7, 0x99, 0xd7, 0x3d, 0xa8, 0xd3, 0x90, 0x3d, 0x54, 0xc4, 0x23, 0x3e,
        0x25, 0x87, 0xab, 0x3d, 0xd1, 0x7b, 0x8d, 0x3d, 0xc8, 0xc5, 0xee, 0xbd,
        0x84, 0xf5, 0x2b, 0xbe, 0x61, 0xbc, 0xcd, 0xbd, 0x6a, 0x72, 0xdd, 0x3d,
        0x53, 0x9d, 0x9d, 0xbd, 0x81, 0x45, 0x04, 0x3e, 0xd4, 0x01, 0x45, 0x3d,
        0xc3, 0x47, 0x47, 0x3e, 0xd1, 0x7f, 0x5c, 0x3d, 0xe4, 0x63, 0x90, 0xbd,
        0xaf, 0xa9, 0x46, 0x3e, 0x1c, 0x46, 0x17, 0x3e, 0xee, 0x1e, 0x03, 0x3c,
        0xed, 0x73, 0xb9, 0x3c, 0xfc, 0x3f, 0xd2, 0x3d, 0xd8, 0xef, 0x23, 0xbe,
        0xff, 0xd5, 0xf2, 0x3b, 0x03, 0xcf, 0xb0, 0xbd, 0xb2, 0xbb, 0x04, 0xbe,
        0x12, 0x45, 0x33, 0x3e, 0xb0, 0x47, 0x0e, 0xbe, 0x46, 0x2d, 0xae, 0x3b,
        0x7a, 0xef, 0x12, 0x3e, 0x54, 0x38, 0x98, 0xbd, 0x86, 0x09, 0x0d, 0x3e,
        0x06, 0xd6, 0x15, 0x3d, 0x21, 0x95, 0x3b, 0x3c, 0xbe, 0x4c, 0x48, 0x3e,
        0xba, 0xf3, 0x8b, 0x3d, 0x4f, 0xb9, 0x36, 0x3e, 0x72, 0xa1, 0x47, 0x3e,
        0xbe, 0x3c, 0x17, 0x3e, 0xe5, 0x2f, 0xae, 0xbc, 0x7d, 0xb7, 0x16, 0xbe,
        0x23, 0x77, 0xa9, 0x3c, 0x79, 0xfc, 0x7c, 0x3d, 0x72, 0xd3, 0x6e, 0x3e,
        0xe4, 0xf8, 0x15, 0xbd, 0xc9, 0x9a, 0x2d, 0xbe, 0xee, 0xb0, 0x9f, 0x3d,
        0xc4, 0x8d, 0x27, 0xbe, 0xa1, 0x66, 0x10, 0xbe, 0xd9, 0x99, 0x41, 0xbc,
        0x13, 0xd2, 0xac, 0x3e, 0xce, 0xd1, 0x10, 0x3e, 0x12, 0xe1, 0x69, 0x3d,
        0x57, 0x31, 0x8f, 0xbb, 0x6e, 0x8b, 0x81, 0x3b, 0xe2, 0x0e, 0x0b, 0xbd,
        0x5d, 0xb2, 0x35, 0x3d, 0x0a, 0x3b, 0x17, 0xbd, 0xc8, 0x0e, 0x29, 0x3e,
        0x64, 0x91, 0x66, 0xbd, 0x03, 0x74, 0x16, 0x3d, 0xac, 0xec, 0xbe, 0xbd,
        0x29, 0xb2, 0xd5, 0x3c, 0x32, 0x9c, 0xb5, 0x3c, 0x3c, 0xac, 0xca, 0x3d,
        0xc1, 0x20, 0x2a, 0xbe, 0x30, 0x35, 0x2f, 0x3d, 0xbf, 0xbf, 0x35, 0xbe,
        0x3a, 0x32, 0x8a, 0xbd, 0x20, 0xbc, 0x1a, 0xbd, 0x15, 0x81, 0x6a, 0xbc,
        0x01, 0x1c, 0x82, 0x3c, 0xd7, 0x24, 0x53, 0x3d, 0xc6, 0x45, 0x8d, 0xbe,
        0x0f, 0x8f, 0x7a, 0xbd, 0x8f, 0xd1, 0x63, 0xbd, 0xea, 0x92, 0x32, 0x3d,
        0xc8, 0xea, 0xa4, 0x3e, 0x1f, 0x7c, 0xf2, 0xbc, 0x6f, 0x83, 0x44, 0x3d,
        0x0c, 0x80, 0x5e, 0xbd, 0x6d, 0x1e, 0xe2, 0xbd, 0x8f, 0xdb, 0x35, 0xbe,
        0x38, 0x08, 0x16, 0xbe, 0x35, 0x75, 0x8d, 0x3b, 0x11, 0x5c, 0x71, 0x3e,
        0x67, 0x7a, 0xd7, 0xbc, 0x7f, 0x1a, 0x2e, 0x3d, 0xca, 0x26, 0xc0, 0x3d,
        0x39, 0x00, 0xa9, 0xbd, 0x47, 0x33, 0x6a, 0xbc, 0x46, 0xb4, 0x18, 0x3e,
        0x1b, 0xfd, 0x08, 0xbe, 0x4d, 0xfa, 0x2d, 0x3e, 0x8a, 0x3a, 0x4d, 0x3e,
        0xb7, 0x66, 0xc9, 0x3c, 0x60, 0x3e, 0x40, 0x3e, 0x95, 0x45, 0x0c, 0x3e,
        0x42, 0x45, 0x95, 0x3e, 0x80, 0x93, 0x69, 0x3e, 0x4b, 0x73, 0x00, 0x3e,
        0x71, 0x7e, 0x14, 0xbe, 0x19, 0xa0, 0xdd, 0xbc, 0x1f, 0x7e, 0x97, 0x3d,
        0xb9, 0xb5, 0xc2, 0x3d, 0x0f, 0xd9, 0x36, 0xbd, 0x73, 0xd1, 0x83, 0xbd,
        0x4f, 0x94, 0x80, 0xbd, 0xc9, 0x88, 0x84, 0x3e, 0x96, 0xc8, 0xc9, 0xbd,
        0x6a, 0x03, 0x5b, 0x3c, 0x30, 0x15, 0x53, 0x3e, 0x2b, 0xac, 0xa1, 0xbb,
        0x85, 0x9a, 0x18, 0xbe, 0xdd, 0xa1, 0x51, 0x3d, 0x5d, 0xf5, 0x8c, 0x3d,
        0x9f, 0xf6, 0xd7, 0x3d, 0x91, 0xa8, 0x2b, 0x3e, 0xdd, 0x32, 0x08, 0xbd,
        0x37, 0x64, 0xdf, 0xbb, 0x5a, 0xf9, 0x0d, 0xbe, 0xd1, 0xaa, 0x83, 0xbd,
        0x7b, 0x0d, 0x00, 0xbe, 0x1c, 0x23, 0x71, 0x3d, 0x3f, 0x42, 0xc3, 0x3d,
        0x97, 0x6d, 0x04, 0x3e, 0xa3, 0x09, 0xb4, 0x3d, 0x32, 0x2e, 0x02, 0xbe,
        0x36, 0x9e, 0x02, 0xbe, 0x8e, 0xf4, 0x64, 0x3e, 0x4e, 0x48, 0xdc, 0x3c,
        0x67, 0xab, 0xd2, 0x3d, 0xce, 0xfd, 0xd7, 0x3c, 0x65, 0x16, 0x4b, 0x3d,
        0x1a, 0xb3, 0x07, 0xbe, 0x14, 0x88, 0xf6, 0x3d, 0x55, 0x02, 0xa5, 0x3d,
        0x74, 0xa8, 0xd0, 0xbc, 0xbe, 0x6f, 0xd1, 0x3b, 0x0d, 0x7b, 0xa6, 0xbd,
        0x45, 0x97, 0x7d, 0x3d, 0x51, 0xae, 0x18, 0x3e, 0x28, 0x3d, 0x93, 0xbe,
        0xf8, 0x78, 0x48, 0x3e, 0xe0, 0x76, 0x71, 0x3e, 0x2a, 0xb6, 0x9b, 0x3d,
        0xf0, 0xf1, 0x57, 0x3d, 0x14, 0x4f, 0xa1, 0xbd, 0x85, 0xfb, 0x98, 0xbd,
        0x9c, 0xcf, 0x1c, 0xbe, 0x12, 0x53, 0x8c, 0xbd, 0x3b, 0xe4, 0xf6, 0x3d,
        0x35, 0xae, 0x0b, 0x3e, 0x06, 0x08, 0x13, 0x3e, 0xb0, 0xeb, 0xad, 0xbe,
        0x2e, 0x82, 0xf4, 0xbd, 0x0d, 0x67, 0x4f, 0xbe, 0x70, 0x09, 0x0e, 0x3f,
        0x6a, 0x70, 0x42, 0x3e, 0x66, 0x19, 0x13, 0x3e, 0x7e, 0xe5, 0x01, 0xbe,
        0xec, 0x43, 0xe5, 0xbd, 0xd6, 0x7c, 0x0e, 0xbe, 0x0d, 0x9f, 0xb9, 0xbd,
        0x29, 0xb0, 0x82, 0xbd, 0xad, 0xfc, 0x72, 0x3d, 0x9e, 0x7c, 0x61, 0x3e,
        0xe4, 0xe1, 0x63, 0x3d, 0xba, 0xf0, 0x74, 0xbd, 0x62, 0x28, 0x45, 0xbd,
        0x09, 0x3a, 0x42, 0x3e, 0x08, 0xec, 0x64, 0x3e, 0xd7, 0xb9, 0x27, 0x3d,
        0x9e, 0xd0, 0x1f, 0xbe, 0xae, 0x3f, 0xeb, 0xbd, 0xab, 0x54, 0x76, 0xbd,
        0xe1, 0x5d, 0x07, 0x3d, 0x77, 0xd9, 0x4b, 0x3e, 0x75, 0xf3, 0x26, 0x3e,
        0xf2, 0x52, 0xe8, 0xbd, 0x91, 0x44, 0x1f, 0xbe, 0xa4, 0xd4, 0x82, 0xbe,
        0x69, 0xe6, 0xe8, 0x3d, 0x67, 0x74, 0x3e, 0xbe, 0xf6, 0xc5, 0xa4, 0xbe,
        0xc8, 0xce, 0x1e, 0xbe, 0xf4, 0x39, 0x42, 0xbe, 0x6d, 0xfb, 0x34, 0xbe,
        0xc2, 0x6e, 0xcf, 0x3c, 0x11, 0x22, 0x74, 0x3e, 0xfd, 0xf7, 0x12, 0x3e,
        0x15, 0xa2, 0x39, 0xbe, 0x3e, 0x0a, 0xfc, 0xbd, 0x46, 0xc6, 0x62, 0xbd,
        0xb0, 0xda, 0x14, 0x3e, 0xc8, 0xcd, 0x02, 0x3e, 0x3c, 0x76, 0x88, 0x3d,
        0x66, 0xde, 0xe9, 0x3b, 0xcf, 0xb1, 0x31, 0xbd, 0x24, 0x3a, 0x50, 0xbd,
        0xa4, 0x09, 0xff, 0xbd, 0x06, 0x10, 0xa9, 0x3c, 0x65, 0x5d, 0xa6, 0x3d,
        0xbf, 0x9d, 0x74, 0x3d, 0x06, 0xd1, 0x2c, 0xbd, 0x1b, 0x58, 0x9b, 0xbe,
        0x64, 0x1d, 0x1d, 0xbe, 0x8e, 0xa3, 0x4a, 0xbe, 0xa5, 0x53, 0x44, 0xbe,
        0xbe, 0x7b, 0xe8, 0x3b, 0x86, 0xdd, 0x93, 0x3c, 0xbb, 0x68, 0x4c, 0x3c,
        0x9e, 0xb8, 0x99, 0x3d, 0xbd, 0x66, 0x24, 0x3d, 0xcc, 0x5c, 0x33, 0x3e,
        0xac, 0xfa, 0xe2, 0xbd, 0x90, 0x29, 0x69, 0xbc, 0x6c, 0x2a, 0x74, 0x3b,
        0xe0, 0xed, 0x2f, 0xbd, 0xa6, 0x6b, 0xa4, 0xbd, 0x0d, 0xc2, 0x04, 0x3e,
        0x1d, 0x84, 0xa8, 0xbd, 0x64, 0xbb, 0x44, 0xbd, 0x6d, 0x79, 0x28, 0xbe,
        0x05, 0x33, 0xb0, 0xbb, 0xaa, 0xeb, 0xd4, 0xbd, 0x3a, 0x84, 0xb4, 0x3d,
        0x61, 0xba, 0x79, 0xbd, 0x22, 0x5f, 0x0e, 0x38, 0x16, 0x8d, 0xe5, 0xbd,
        0xcc, 0x7d, 0x91, 0x3d, 0x9b, 0x62, 0xd1, 0xbd, 0x6e, 0x17, 0x70, 0xbd,
        0xd5, 0x44, 0xc1, 0xbd, 0x4c, 0x71, 0x2c, 0x3d, 0xc3, 0xf7, 0x8b, 0x3b,
        0x1d, 0x34, 0x21, 0x3d, 0xa8, 0xd6, 0x50, 0x3e, 0x3a, 0x59, 0x84, 0x3e,
        0x1f, 0x24, 0x7d, 0xbd, 0x11, 0x17, 0x12, 0xbd, 0xb4, 0xb2, 0x86, 0xbc,
        0xa9, 0x2a, 0xc1, 0x3e, 0x93, 0x3a, 0x10, 0x3e, 0xdd, 0x6d, 0xae, 0xbd,
        0xaf, 0x17, 0x70, 0xbd, 0xd5, 0x21, 0x64, 0x3d, 0x94, 0xf3, 0x0b, 0xbe,
        0x58, 0x1f, 0xa6, 0x3d, 0x42, 0xac, 0xe4, 0xbd, 0x8e, 0x6d, 0x88, 0x3e,
        0x58, 0xb3, 0xb0, 0xbd, 0xa3, 0x10, 0x61, 0xbd, 0xd8, 0x53, 0x4a, 0xbc,
        0x84, 0xa0, 0x0b, 0x3e, 0xcd, 0xbb, 0xdf, 0xbd, 0x00, 0xe6, 0x47, 0x3d,
        0x27, 0xa8, 0x03, 0xbe, 0xd3, 0x60, 0x41, 0x3e, 0xfe, 0x1c, 0xc5, 0xbd,
        0xbc, 0x85, 0x5b, 0x3d, 0x99, 0xed, 0x66, 0x3c, 0x29, 0x67, 0xcc, 0x3d,
        0x09, 0xfa, 0x65, 0xbd, 0x39, 0x5c, 0xa2, 0x3d, 0x29, 0x7c, 0x8d, 0xbe,
        0xb5, 0x2c, 0xd1, 0x3e, 0x70, 0x83, 0xca, 0xbd, 0xce, 0x7e, 0x42, 0xbd,
        0xf7, 0x33, 0xf6, 0x3b, 0x62, 0x5d, 0xe9, 0xbd, 0xbf, 0x48, 0xf1, 0xbd,
        0x4f, 0xad, 0x71, 0xbc, 0xa0, 0xa5, 0x92, 0xbe, 0x98, 0xde, 0x2e, 0x3e,
        0x77, 0x84, 0x14, 0x3c, 0x2e, 0x27, 0xa8, 0x3d, 0xee, 0xf6, 0x41, 0xbe,
        0x4b, 0xc6, 0x3a, 0x3e, 0xfa, 0xed, 0xc3, 0xbd, 0xc7, 0x01, 0x1e, 0x3d,
        0x22, 0xec, 0x3f, 0x3d, 0xd8, 0x62, 0xfa, 0x3d, 0x1d, 0x2b, 0x0b, 0xbd,
        0x6d, 0x70, 0x2c, 0x3e, 0xe9, 0xf4, 0x9a, 0x3d, 0x11, 0xbe, 0xd5, 0xbd,
        0xa0, 0xad, 0xed, 0xbc, 0x83, 0x1a, 0x81, 0x3d, 0x0e, 0xce, 0x2c, 0x3e,
        0x4e, 0x7c, 0x0a, 0x3e, 0xc0, 0x23, 0x48, 0x3e, 0xdd, 0x22, 0x58, 0xbe,
        0x40, 0x92, 0xd2, 0x3d, 0xba, 0x55, 0x9a, 0xba, 0xf1, 0x4d, 0x30, 0xbc,
        0xaa, 0x76, 0x28, 0xbe, 0x3a, 0x82, 0x93, 0x3e, 0xd2, 0x50, 0x41, 0x3e,
        0xf8, 0x61, 0xc6, 0x3d, 0x6d, 0xfd, 0xfd, 0x3d, 0xdb, 0xa2, 0x9d, 0xbe,
        0xe6, 0xd6, 0x1f, 0x3d, 0xf6, 0x55, 0x86, 0x3c, 0x1e, 0x35, 0x9d, 0xbd,
        0xa2, 0x0a, 0x5b, 0x3e, 0x71, 0x40, 0x50, 0xbe, 0x37, 0x53, 0x1f, 0x3d,
        0xae, 0xd4, 0x01, 0x3e, 0xd2, 0x92, 0x2a, 0x3d, 0x3a, 0x3d, 0x84, 0x3e,
        0x63, 0xcd, 0xbe, 0x3d, 0xba, 0xdd, 0xf0, 0xbd, 0x25, 0x56, 0x50, 0x3d,
        0x75, 0x3b, 0xbf, 0xbd, 0x74, 0xf7, 0xe2, 0xbd, 0xf4, 0x75, 0xc2, 0xbc,
        0x4d, 0xc5, 0x79, 0x3e, 0x3d, 0x58, 0x38, 0xbe, 0x90, 0x56, 0x2c, 0x3c,
        0xf6, 0x4e, 0x15, 0xbe, 0xb0, 0x56, 0xb2, 0xbd, 0xbd, 0xd0, 0x30, 0xbe,
        0x66, 0xbc, 0x7b, 0x3d, 0xba, 0xa0, 0x89, 0xbd, 0x3d, 0x65, 0x25, 0xbe,
        0x2f, 0x4c, 0x22, 0x3d, 0x50, 0xd3, 0x5e, 0x3d, 0xdb, 0xcc, 0xe4, 0xbd,
        0x19, 0x01, 0x8e, 0x3d, 0x9c, 0xed, 0xa9, 0x3d, 0xbc, 0xca, 0x5c, 0x3d,
        0x13, 0xd8, 0x8a, 0x3e, 0x09, 0x7c, 0x8e, 0xb9, 0x73, 0xfc, 0xd1, 0x3d,
        0x2a, 0x97, 0x78, 0x3d, 0x0f, 0xd2, 0xc1, 0x3c, 0x91, 0xea, 0x1d, 0x3e,
        0xe9, 0x1d, 0xdc, 0x3d, 0xa8, 0x3b, 0x9b, 0x3e, 0x31, 0xb1, 0x0e, 0x3e,
        0xb1, 0xfa, 0x39, 0xbe, 0x7e, 0xa7, 0x82, 0x3e, 0x6d, 0xe0, 0xcd, 0x3d,
        0xfc, 0x34, 0x42, 0x3e, 0xae, 0x28, 0xa6, 0x3e, 0xc9, 0x84, 0x97, 0x3e,
        0x05, 0xa3, 0x87, 0x3e, 0x56, 0xf3, 0xf4, 0x3d, 0xce, 0xdc, 0x37, 0xbe,
        0x36, 0xc7, 0xe0, 0x3d, 0xcd, 0xae, 0xfc, 0x3d, 0xa2, 0x50, 0x83, 0x3d,
        0xaa, 0xb7, 0xd2, 0xbd, 0x2e, 0x1c, 0x3c, 0xbd, 0xaf, 0x7a, 0x7a, 0xbd,
        0x44, 0xa2, 0x1b, 0x3e, 0xaf, 0xb6, 0xb1, 0xbd, 0x59, 0x3c, 0xde, 0x3d,
        0x38, 0xf2, 0x97, 0x3d, 0xda, 0x03, 0x3a, 0xbd, 0xe9, 0xc6, 0x28, 0xbe,
        0x13, 0x16, 0x2f, 0xbe, 0x52, 0x0b, 0x88, 0xbd, 0x55, 0xc3, 0xb0, 0xbd,
        0x53, 0x26, 0xdf, 0x3d, 0x36, 0xb5, 0x73, 0xbd, 0xa7, 0xae, 0xf7, 0xbd,
        0x21, 0x8b, 0x04, 0xbe, 0x29, 0xa5, 0xae, 0xbd, 0x8d, 0xdf, 0x45, 0x3e,
        0xef, 0x0e, 0x9e, 0xbd, 0x97, 0xeb, 0x3b, 0xbe, 0x4e, 0x4c, 0xa4, 0x3e,
        0xf7, 0xc3, 0x4f, 0x3d, 0x55, 0xd5, 0x65, 0x3e, 0x0b, 0x60, 0x4d, 0x3e,
        0x24, 0x87, 0x0c, 0xbd, 0x8d, 0x9b, 0x29, 0x3e, 0x0d, 0xa0, 0x00, 0xbd,
        0xd5, 0x72, 0x55, 0xbd, 0xb5, 0x40, 0x6d, 0x3e, 0x55, 0x4c, 0x0c, 0x3e,
        0x96, 0xd8, 0x47, 0x3e, 0xc7, 0xf6, 0x3f, 0x3e, 0x40, 0x32, 0x92, 0x3d,
        0xac, 0x3f, 0x89, 0x3c, 0x79, 0x08, 0x63, 0x3e, 0xae, 0xc5, 0xed, 0x3d,
        0x90, 0xa6, 0xa7, 0x3d, 0x5e, 0x53, 0xd8, 0xbd, 0x97, 0x9c, 0x98, 0x3e,
        0x39, 0xdc, 0xf4, 0x3d, 0x5a, 0xcc, 0x98, 0x3c, 0x09, 0xe4, 0x82, 0x3d,
        0x83, 0x5f, 0x27, 0x3e, 0x3b, 0xbe, 0x8d, 0xbc, 0x7b, 0xe3, 0x98, 0xbd,
        0x39, 0xf3, 0xe1, 0xbd, 0x7f, 0x6a, 0x3c, 0x3d, 0xe8, 0xbc, 0x6a, 0x3d,
        0x10, 0x8d, 0x08, 0x3e, 0x5e, 0xfb, 0xd6, 0xbd, 0xaf, 0x31, 0xf9, 0x3d,
        0xcf, 0x88, 0x6b, 0x3e, 0x0f, 0x06, 0xb4, 0xbd, 0x46, 0xd8, 0x8e, 0x3e,
        0x60, 0x3e, 0xf0, 0x3d, 0xff, 0xcb, 0xe5, 0x3c, 0x26, 0x2a, 0xa9, 0x3c,
        0xb0, 0x32, 0xb3, 0xbd, 0x92, 0x06, 0x05, 0x3e, 0xfa, 0xb3, 0x3c, 0x3e,
        0xbf, 0xa3, 0xcb, 0xbd, 0x5c, 0xdc, 0x14, 0xbd, 0x24, 0xaf, 0x89, 0x3d,
        0xaf, 0xda, 0x99, 0xbc, 0x68, 0x86, 0xd2, 0xbc, 0x80, 0xa7, 0x4b, 0x3e,
        0xb2, 0xee, 0xd8, 0xbd, 0x0a, 0xd6, 0xb0, 0x3e, 0xe2, 0x21, 0xcc, 0xbc,
        0x48, 0x50, 0x8a, 0xbe, 0x53, 0xa4, 0xfd, 0xbd, 0x0b, 0xe8, 0x59, 0x3d,
        0x34, 0x11, 0x1e, 0x3d, 0x06, 0xf2, 0x2c, 0xbe, 0xe5, 0x00, 0x7b, 0xbd,
        0x62, 0x7d, 0xb8, 0xbd, 0x3e, 0x93, 0x7b, 0x3e, 0x07, 0x07, 0x5b, 0xbe,
        0xef, 0xa1, 0x36, 0x3d, 0xf2, 0xc1, 0xc0, 0x3d, 0x5b, 0xcb, 0x87, 0xbd,
        0xc7, 0x3d, 0x17, 0xbe, 0xc7, 0x96, 0xf2, 0x3c, 0xc8, 0xae, 0x56, 0xbe,
        0xc3, 0x11, 0xbb, 0x3e, 0xf5, 0x11, 0xb8, 0x3c, 0x0d, 0x0f, 0xa9, 0x3e,
        0xa5, 0x69, 0x8b, 0xbd, 0xe9, 0x2b, 0x8c, 0x3d, 0x11, 0xa2, 0x82, 0xbe,
        0xc5, 0x27, 0xf9, 0x3d, 0x25, 0x8f, 0xdb, 0x3d, 0x87, 0x3c, 0xe5, 0x3d,
        0x75, 0xa9, 0x1a, 0x3e, 0x51, 0x3b, 0x4c, 0x3e, 0x17, 0xa8, 0xa0, 0xbc,
        0x3a, 0x53, 0x97, 0x3e, 0xfe, 0xb8, 0x1a, 0xbe, 0x2c, 0x12, 0x89, 0x3e,
        0x7a, 0x87, 0x9c, 0x3d, 0x04, 0xe7, 0x66, 0xbe, 0x76, 0x30, 0x38, 0x3e,
        0xd9, 0xdb, 0xc5, 0x3d, 0xab, 0x65, 0x87, 0x3c, 0x00, 0x5f, 0xf0, 0x3c,
        0x79, 0x85, 0x04, 0x3d, 0xd1, 0x51, 0xe1, 0x3d, 0xf3, 0xfb, 0xb7, 0x3e,
        0x6f, 0xf4, 0xd4, 0x3c, 0x9e, 0x14, 0x42, 0x3e, 0xd9, 0xbe, 0x3e, 0x3d,
        0x7b, 0xa4, 0x09, 0x3e, 0xf4, 0x76, 0x0d, 0x3d, 0x1e, 0xc3, 0xad, 0x3e,
        0x49, 0xf8, 0x97, 0x3e, 0x0b, 0x56, 0x4e, 0xbe, 0xe6, 0xa2, 0x37, 0x3d,
        0x18, 0x23, 0xf0, 0x3d, 0x0e, 0xc8, 0xcf, 0x3d, 0x3b, 0xeb, 0x45, 0xbe,
        0x9a, 0x55, 0x2f, 0x3c, 0x70, 0x08, 0x69, 0x3c, 0x19, 0x7d, 0x45, 0xbc,
        0x70, 0x39, 0x64, 0x3e, 0x52, 0x6e, 0x75, 0xbe, 0x86, 0x47, 0xd1, 0x3d,
        0x7f, 0x3a, 0x21, 0xbe, 0x1d, 0x2d, 0x5f, 0x3e, 0xf3, 0x34, 0xff, 0x3d,
        0xd6, 0x2b, 0xf0, 0xbd, 0x62, 0xf8, 0xd3, 0x3d, 0x69, 0x8c, 0x5a, 0xbc,
        0x8d, 0xc3, 0x71, 0xbe, 0x16, 0x8c, 0x91, 0xbd, 0x41, 0x07, 0xb5, 0xbd,
        0xb6, 0x00, 0x92, 0x3d, 0x17, 0xcc, 0x3c, 0xbd, 0x09, 0x8a, 0x91, 0xbd,
        0x07, 0x63, 0xac, 0x3c, 0xf5, 0x37, 0x26, 0xbd, 0x8a, 0xc7, 0xdb, 0x3d,
        0x57, 0xc9, 0xee, 0x3c, 0x28, 0x0f, 0x75, 0x3d, 0x16, 0x73, 0x96, 0x3c,
        0x9a, 0x8b, 0x44, 0xbd, 0x08, 0x96, 0x30, 0x3e, 0xac, 0x0e, 0x00, 0xbe,
        0x7d, 0x57, 0xe3, 0xbd, 0x87, 0x13, 0x2e, 0x3d, 0xac, 0x98, 0x74, 0x3d,
        0x4c, 0x12, 0x8d, 0xbc, 0x0d, 0xd6, 0x6e, 0xbd, 0xc3, 0x4e, 0x09, 0x3c,
        0x06, 0x86, 0x80, 0xbe, 0x20, 0xd4, 0x8f, 0x3d, 0xb0, 0x14, 0x0d, 0x3e,
        0xdd, 0x07, 0x1c, 0xbe, 0x35, 0xbd, 0x24, 0x3e, 0xf8, 0xbf, 0xdc, 0xbd,
        0xf4, 0xb8, 0x12, 0x3d, 0x9a, 0x00, 0x0d, 0xbe, 0xc7, 0xf3, 0x76, 0x3e,
        0xa2, 0x35, 0xe0, 0x3b, 0x14, 0x11, 0xf1, 0xbd, 0xee, 0xf2, 0xc0, 0x3d,
        0x8f, 0x7b, 0x36, 0x3d, 0x8e, 0xc0, 0x3c, 0x3e, 0xda, 0x36, 0x00, 0x3e,
        0x71, 0x4d, 0xa4, 0x3c, 0x43, 0x30, 0xed, 0x3d, 0x2a, 0x71, 0x55, 0x3e,
        0x27, 0xed, 0x4c, 0xbe, 0xee, 0xcc, 0x10, 0xbe, 0xa1, 0xbb, 0x03, 0x3e,
        0x96, 0xa3, 0x8b, 0x3e, 0x7b, 0x26, 0x55, 0x3d, 0xd9, 0xec, 0x20, 0xbd,
        0x19, 0x09, 0x61, 0x3d, 0x9c, 0xaf, 0x0d, 0x3c, 0xe4, 0xdf, 0x40, 0x3e,
        0x13, 0xa0, 0xce, 0xbd, 0x94, 0x3b, 0x8b, 0x3d, 0x94, 0x39, 0xbf, 0x3d,
        0xaf, 0x8b, 0x44, 0x3e, 0xb4, 0xda, 0x14, 0xbe, 0xa2, 0xb1, 0x3c, 0xbe,
        0xe4, 0xc3, 0xab, 0xbd, 0x84, 0xc3, 0xcd, 0x3d, 0x62, 0x82, 0xda, 0xbc,
        0x30, 0x4a, 0x31, 0x3e, 0x85, 0xb7, 0xf9, 0xbd, 0xec, 0x25, 0xb8, 0xbd,
        0x2d, 0xe0, 0xf6, 0x3c, 0xc9, 0x57, 0xea, 0x3d, 0x23, 0xd9, 0x05, 0x3c,
        0x32, 0xb0, 0x35, 0xbe, 0xa5, 0xaa, 0x86, 0x3d, 0x22, 0x54, 0xa2, 0xbc,
        0x61, 0x73, 0x69, 0xbc, 0x12, 0xa6, 0x35, 0x3a, 0xfe, 0x0e, 0x99, 0xbc,
        0xf8, 0x2a, 0x20, 0xbe, 0xf6, 0x94, 0x22, 0xbe, 0x10, 0x2d, 0x76, 0x3d,
        0x27, 0xb6, 0x5b, 0x3e, 0xff, 0xc6, 0xc6, 0xbd, 0xd3, 0xde, 0x18, 0x3e,
        0x81, 0x01, 0x21, 0x3e, 0xfa, 0x70, 0x5e, 0xbe, 0x70, 0x29, 0x30, 0xbe,
        0x31, 0x9e, 0x9f, 0xbd, 0x8f, 0x9f, 0x40, 0x3e, 0x52, 0x25, 0xdd, 0xbd,
        0x29, 0x26, 0x9d, 0xbe, 0x25, 0xde, 0x1b, 0x3e, 0x4e, 0xea, 0x5b, 0x3e,
        0xd9, 0x4d, 0x62, 0x3c, 0xd0, 0xd2, 0x75, 0x3d, 0x68, 0x5d, 0x07, 0x3d,
        0xe2, 0xf6, 0x80, 0xbc, 0x5d, 0x29, 0x24, 0x3e, 0x5b, 0x1b, 0xc3, 0x3d,
        0x04, 0x9f, 0x26, 0x3e, 0xb5, 0x0f, 0xad, 0x3d, 0xd9, 0xfe, 0x38, 0x3e,
        0x34, 0x86, 0x62, 0xbe, 0xcd, 0x1f, 0xf3, 0xbd, 0x1e, 0x59, 0xaf, 0xbd,
        0xaf, 0x6d, 0x19, 0x3e, 0x16, 0xaf, 0x47, 0x3e, 0x0c, 0xbf, 0x8b, 0x3c,
        0xe2, 0xee, 0xe9, 0x3d, 0xe6, 0x7e, 0x0f, 0x3d, 0x30, 0x2f, 0x9c, 0xbe,
        0xbe, 0x00, 0x0e, 0xbc, 0x26, 0xe9, 0x98, 0x3b, 0x64, 0xe3, 0x69, 0xbc,
        0x4a, 0xfb, 0x54, 0xbb, 0x4a, 0x67, 0xe6, 0x3d, 0xfe, 0x75, 0xdb, 0x3d,
        0xb4, 0x40, 0x51, 0xbe, 0x96, 0xae, 0x5a, 0x3d, 0x0b, 0x5d, 0x68, 0xba,
        0x68, 0x61, 0x6b, 0xbe, 0x41, 0x1c, 0x7b, 0xbd, 0xf5, 0xf5, 0xe3, 0xbd,
        0x3e, 0x11, 0x5b, 0xbe, 0x3a, 0x82, 0xe9, 0xbd, 0x86, 0xbe, 0x4c, 0xba,
        0x62, 0xb8, 0x1f, 0xbe, 0x5b, 0x32, 0x52, 0xbe, 0x08, 0xc6, 0x7d, 0xbc,
        0x76, 0x72, 0xb6, 0x3d, 0x1f, 0x69, 0x77, 0xbd, 0x29, 0xe5, 0x0a, 0xbe,
        0x06, 0x5c, 0xaa, 0x3d, 0x4d, 0x0c, 0xe2, 0xbd, 0x52, 0xb4, 0x36, 0xbe,
        0x54, 0xc0, 0xdf, 0x3d, 0xe6, 0x03, 0x7d, 0xbe, 0xf4, 0xb3, 0xfe, 0xbd,
        0xea, 0xda, 0xf0, 0x3d, 0xc8, 0xe5, 0x77, 0x3d, 0x49, 0x0c, 0x0a, 0xbe,
        0x1a, 0xca, 0xf3, 0x3c, 0xaf, 0x9f, 0x07, 0x3e, 0x57, 0xa4, 0x2e, 0xbd,
        0xbe, 0x49, 0x36, 0x3e, 0x5d, 0xe8, 0x25, 0xbd, 0x7d, 0x73, 0x08, 0xbe,
        0x5b, 0x6c, 0x6a, 0x3d, 0x7b, 0xf4, 0x24, 0x3e, 0x42, 0x0c, 0xeb, 0xbc,
        0xa0, 0x67, 0x7a, 0xbd, 0xbc, 0x89, 0xa0, 0x3d, 0xc2, 0x53, 0x31, 0xbd,
        0x12, 0x46, 0x9f, 0xbd, 0xe7, 0xa1, 0xca, 0xbd, 0xa5, 0x63, 0xcb, 0x3d,
        0xc4, 0xc8, 0x71, 0x3c, 0x14, 0x8b, 0x2b, 0xbe, 0x0a, 0xa3, 0xa5, 0xbe,
        0x6c, 0x5c, 0x5f, 0xbe, 0xdb, 0xfe, 0x9e, 0xbd, 0x09, 0x4a, 0x72, 0x3e,
        0x2f, 0x25, 0xde, 0x3d, 0x8b, 0x8b, 0x72, 0x3c, 0x27, 0xfd, 0x24, 0xbe,
        0xc2, 0xd9, 0x18, 0xbe, 0x33, 0x3d, 0x1b, 0xbd, 0x86, 0x7c, 0x86, 0xbd,
        0x95, 0x6e, 0xcd, 0x3d, 0x44, 0xbd, 0x83, 0xbd, 0xb4, 0xe7, 0x49, 0xbc,
        0xc4, 0x6d, 0xd1, 0xbd, 0x37, 0x6c, 0x6d, 0xbe, 0x33, 0x6a, 0x66, 0xba,
        0xb7, 0x8a, 0x65, 0x3d, 0x3e, 0x71, 0xaf, 0x3b, 0x94, 0x79, 0x46, 0xbd,
        0x5b, 0x34, 0x73, 0x3d, 0xb9, 0x6d, 0xf6, 0xbd, 0x4e, 0xb2, 0x3c, 0xbe,
        0x56, 0x67, 0xa0, 0xbd, 0x4b, 0x69, 0x64, 0x3c, 0x36, 0xd9, 0x7b, 0xbe,
        0x87, 0xd7, 0x65, 0x3e, 0xfc, 0x27, 0x86, 0xbe, 0x0a, 0x9f, 0x83, 0x3d,
        0x5d, 0x78, 0x80, 0x3e, 0x5b, 0x94, 0x3e, 0x3d, 0x76, 0xb6, 0xb8, 0x3c,
        0x69, 0xde, 0xfb, 0x3c, 0x4e, 0xc2, 0x8e, 0x3e, 0x3c, 0x8f, 0x55, 0x3e,
        0x00, 0xd2, 0x52, 0x3d, 0x80, 0xc5, 0xf6, 0xbd, 0x0d, 0x55, 0x52, 0xbe,
        0xff, 0x9d, 0xa7, 0xbc, 0x00, 0xaf, 0x67, 0x3d, 0xcc, 0xc1, 0xa9, 0x3c,
        0xcd, 0xd6, 0x7d, 0xbd, 0x13, 0xdf, 0xf2, 0xbc, 0x72, 0x4c, 0x31, 0x3e,
        0x96, 0x52, 0x3f, 0xbe, 0x3a, 0x98, 0x54, 0x3e, 0x83, 0xfa, 0x0f, 0x3e,
        0xd5, 0x1b, 0xe9, 0xbd, 0xe7, 0xd4, 0xc3, 0xbd, 0x86, 0xe8, 0x0f, 0xbe,
        0x07, 0x92, 0x1f, 0x3e, 0x3c, 0x3f, 0x2f, 0x3e, 0x62, 0x47, 0x87, 0x3e,
        0x6c, 0x74, 0x38, 0x3e, 0xdc, 0xf9, 0xc4, 0x3d, 0x66, 0x6f, 0x35, 0xbe,
        0x27, 0x33, 0xfd, 0x3c, 0xb3, 0x0d, 0xc5, 0x3e, 0x50, 0x72, 0x92, 0x3e,
        0x48, 0xe1, 0xe0, 0x3d, 0xe1, 0xa6, 0xd0, 0xbd, 0xb2, 0x53, 0x69, 0xbd,
        0x7a, 0x24, 0x36, 0xbe, 0x92, 0xea, 0x7f, 0x3d, 0xdd, 0x75, 0x52, 0x3e,
        0x63, 0x62, 0x80, 0x3e, 0xe9, 0x3f, 0x48, 0x3e, 0xf2, 0x40, 0x06, 0x3e,
        0x12, 0xd2, 0x95, 0xbe, 0x36, 0x87, 0x83, 0x3e, 0x68, 0x45, 0x4f, 0x3d,
        0xb6, 0x73, 0xa4, 0x3d, 0x0a, 0x51, 0xd6, 0x3b, 0xc2, 0x74, 0xb9, 0x3e,
        0xad, 0xb2, 0xde, 0x3c, 0x59, 0xa6, 0x37, 0x3e, 0x12, 0xa0, 0x21, 0x3e,
        0xa6, 0x53, 0x02, 0xbe, 0x0e, 0x1b, 0x3e, 0x3e, 0x64, 0x3d, 0x9b, 0x3e,
        0x82, 0x41, 0xa6, 0x3c, 0xc1, 0x55, 0x09, 0xbc, 0x36, 0x1e, 0x6f, 0x3d,
        0xb4, 0xb4, 0xc6, 0xbd, 0x57, 0xd1, 0x88, 0xbe, 0xe0, 0xbe, 0x49, 0xbd,
        0x4b, 0x04, 0xe4, 0xba, 0x61, 0x4d, 0x77, 0x3d, 0x83, 0x09, 0xda, 0x3c,
        0x0b, 0x87, 0x23, 0x3c, 0x84, 0xf9, 0xde, 0x3d, 0x03, 0x2c, 0xe7, 0x3c,
        0xa1, 0xd6, 0x1a, 0x3e, 0x44, 0x65, 0x85, 0x3e, 0x49, 0xdc, 0x2c, 0x3e,
        0xb0, 0x73, 0x4d, 0x3e, 0xdc, 0x63, 0xce, 0x3c, 0xe7, 0x6e, 0x02, 0x3e,
        0x86, 0x60, 0x44, 0x3e, 0xd5, 0x1d, 0x6c, 0x3e, 0xa8, 0x74, 0x90, 0x3d,
        0x34, 0x4d, 0x86, 0x3e, 0x99, 0xe2, 0x2f, 0x3e, 0x14, 0xcc, 0x31, 0x3d,
        0x4f, 0x50, 0x23, 0x3e, 0x72, 0x19, 0xbb, 0x3e, 0x04, 0xc0, 0x39, 0x3e,
        0xef, 0x63, 0x7a, 0x3e, 0x06, 0x74, 0x3c, 0xbe, 0xcc, 0x47, 0x37, 0x3e,
        0xf5, 0x95, 0xd4, 0xbd, 0x33, 0x0e, 0x9e, 0x3e, 0xcd, 0xd7, 0xff, 0x3d,
        0x25, 0x91, 0xcc, 0x3e, 0x47, 0x2b, 0x9e, 0x3e, 0x15, 0x4f, 0xa6, 0x3e,
        0xb4, 0xd7, 0x9a, 0xbe, 0x79, 0xdb, 0xa9, 0x3e, 0xa3, 0x12, 0x87, 0x3e,
        0xe3, 0xa8, 0xee, 0x3d, 0xe6, 0x7c, 0xa4, 0xbd, 0xcd, 0x05, 0x0f, 0x3e,
        0xc4, 0x82, 0x73, 0x3d, 0x14, 0x62, 0xd7, 0x3d, 0x68, 0xb1, 0xad, 0xbd,
        0xae, 0xd7, 0x82, 0x3d, 0x3a, 0x4c, 0xcc, 0xbd, 0xae, 0x44, 0x13, 0x3d,
        0xb4, 0x76, 0x85, 0xbd, 0x98, 0xec, 0x58, 0xbd, 0x04, 0xc6, 0x7f, 0xbd,
        0xdd, 0xe4, 0x9c, 0x3d, 0x5e, 0x9b, 0xe1, 0xbd, 0xcb, 0xba, 0x03, 0x3e,
        0x46, 0xe2, 0xd0, 0xbd, 0x2d, 0x0d, 0x3e, 0xbd, 0x62, 0x33, 0x70, 0xbc,
        0x7e, 0x3f, 0x03, 0xbe, 0xcf, 0x97, 0xe3, 0xbd, 0x89, 0x6a, 0xc6, 0x3c,
        0x40, 0x96, 0x53, 0x3c, 0x2c, 0x0b, 0x00, 0xbe, 0x5e, 0xeb, 0xa5, 0x3b,
        0xc6, 0x52, 0xa6, 0xbd, 0xc9, 0x0f, 0x8d, 0x3d, 0x80, 0x2b, 0x73, 0x3d,
        0x09, 0x36, 0x73, 0xbd, 0x71, 0x88, 0xc8, 0x3c, 0xf4, 0xb8, 0xc9, 0x3d,
        0x8f, 0xc0, 0x63, 0x3c, 0x25, 0x5c, 0xc6, 0x3c, 0xc0, 0xf1, 0xe4, 0xbd,
        0xb4, 0x67, 0x3d, 0xbd, 0xde, 0xa1, 0xac, 0xbd, 0x58, 0x3e, 0x80, 0x3d,
        0x7a, 0x8b, 0xa0, 0x3d, 0x16, 0xb1, 0xfd, 0x3d, 0x32, 0xc5, 0x13, 0xbe,
        0xf5, 0xc3, 0xcc, 0xbc, 0xe4, 0xf0, 0x53, 0xbd, 0xcc, 0xd2, 0x6f, 0x3d,
        0x45, 0x20, 0x53, 0xbd, 0xde, 0x06, 0x69, 0xbd, 0x7c, 0xa0, 0xcc, 0xbd,
        0x56, 0x8f, 0x88, 0x3d, 0x62, 0xe9, 0x8c, 0x3c, 0xec, 0x7a, 0x18, 0x3d,
        0xa3, 0xea, 0xd5, 0xbc, 0x1b, 0x46, 0x35, 0x3d, 0x1c, 0x4c, 0xb8, 0xbc,
        0x0d, 0xd9, 0x5d, 0x3d, 0x93, 0xe1, 0xa5, 0xbd, 0x9c, 0xd7, 0xb3, 0x3d,
        0x1c, 0x8d, 0x0e, 0xbe, 0xfa, 0x92, 0x86, 0x3c, 0x94, 0x87, 0xd1, 0xbc,
        0x17, 0x01, 0x02, 0xbd, 0xd8, 0xb9, 0xf8, 0xbd, 0x28, 0x69, 0x8c, 0xbb,
        0xf9, 0x82, 0xf4, 0xbd, 0x36, 0x48, 0xb3, 0x3d, 0xab, 0xef, 0xbb, 0xbd,
        0x98, 0x3f, 0xaa, 0x3d, 0x2b, 0x59, 0x5b, 0x39, 0x8c, 0xee, 0xb6, 0x3d,
        0xe4, 0xc6, 0xa5, 0xbd, 0x82, 0xd5, 0xf1, 0x3c, 0x60, 0xbd, 0xcf, 0x3c,
        0x50, 0xbc, 0x0e, 0xbe, 0x3b, 0x8e, 0x89, 0xbd, 0x91, 0x0a, 0x9d, 0x3c,
        0x38, 0x2c, 0xed, 0x3d, 0xff, 0x7a, 0xb9, 0xbd, 0x4b, 0x45, 0xec, 0xbd,
        0xb1, 0xf8, 0x8a, 0x3d, 0x4f, 0x5e, 0xd1, 0xbd, 0xb1, 0x5f, 0xf7, 0x3b,
        0xee, 0x81, 0xdc, 0x3c, 0x76, 0xf0, 0xe2, 0x3d, 0x78, 0xf2, 0xbd, 0x3d,
        0xa7, 0x1b, 0x09, 0x3d, 0x16, 0x74, 0x03, 0xbe, 0x21, 0x14, 0xf6, 0xbd,
        0xb6, 0xec, 0x8b, 0xbd, 0x43, 0x6b, 0x7f, 0xbd, 0xfb, 0x1e, 0xea, 0xbd,
        0x55, 0x75, 0x50, 0xbd, 0xf6, 0xe7, 0x07, 0x3e, 0xf0, 0x19, 0xfa, 0xbd,
        0x10, 0x7d, 0xab, 0x3c, 0xa2, 0xdb, 0x90, 0xbd, 0xc8, 0x86, 0xc3, 0x3d,
        0x64, 0x55, 0x41, 0x3d, 0x7f, 0xd0, 0x07, 0xbe, 0xf3, 0xa5, 0x86, 0xbc,
        0x8b, 0x67, 0x51, 0x3c, 0xb0, 0x95, 0x70, 0x3d, 0x36, 0x65, 0x99, 0x3d,
        0x9d, 0x82, 0x06, 0x3d, 0x99, 0xba, 0x10, 0xbe, 0x94, 0x19, 0x90, 0xbc,
        0x30, 0x76, 0x6d, 0x3d, 0x97, 0xd9, 0xca, 0x3d, 0x5d, 0x59, 0x93, 0xbd,
        0x59, 0x78, 0xd3, 0x3d, 0x4d, 0x2a, 0x5d, 0xbd, 0xa1, 0x53, 0xaf, 0xbd,
        0x28, 0x73, 0x44, 0xbd, 0xa4, 0xbb, 0x44, 0x3d, 0x77, 0x48, 0x24, 0xbc,
        0xf3, 0x6a, 0xf6, 0x3d, 0x8f, 0x07, 0xa7, 0x3b, 0x23, 0xe6, 0xe2, 0xbd,
        0x88, 0x47, 0xa4, 0x3d, 0x0f, 0x00, 0xd4, 0x3b, 0x2f, 0xac, 0xf0, 0x3d,
        0xc3, 0x1e, 0x05, 0x3e, 0x82, 0xa2, 0xc4, 0xbd, 0xae, 0xac, 0x68, 0x3d,
        0x15, 0x82, 0xfe, 0xbd, 0x34, 0xfa, 0xd5, 0x3d, 0x60, 0x50, 0xe0, 0x3b,
        0x3c, 0x30, 0x3b, 0x3d, 0xc5, 0x9a, 0xd1, 0x3d, 0x1a, 0x0e, 0x56, 0xbd,
        0x19, 0xd7, 0x59, 0xbd, 0xbd, 0xfd, 0xb2, 0x3d, 0x99, 0x2b, 0x61, 0xbd,
        0xd1, 0x90, 0x59, 0xbd, 0xe1, 0xe5, 0x63, 0xbd, 0xdf, 0x7a, 0xa0, 0x3d,
        0xbc, 0x40, 0x57, 0x3d, 0x37, 0xff, 0x21, 0x3d, 0xb3, 0x35, 0xd6, 0x3d,
        0x38, 0xff, 0xd1, 0xbc, 0x23, 0x9c, 0x87, 0x3d, 0x8c, 0x6a, 0x88, 0xbc,
        0xff, 0xf9, 0x34, 0xbd, 0x5c, 0x1e, 0x05, 0xbe, 0xd9, 0x14, 0xcf, 0xbd,
        0x25, 0xe8, 0x99, 0xbd, 0xe5, 0x9f, 0x0f, 0xbe, 0x7f, 0xa3, 0xff, 0xbd,
        0x91, 0x71, 0xaa, 0x3d, 0xd4, 0x99, 0xc4, 0x3d, 0x36, 0xbf, 0xc5, 0x3c,
        0xa9, 0x17, 0xb1, 0x3d, 0xf0, 0x41, 0x00, 0xbd, 0xf5, 0x55, 0xcc, 0xbc,
        0xf7, 0x53, 0x1d, 0xbd, 0xd5, 0x71, 0xe4, 0xbd, 0x59, 0xcd, 0x11, 0xbe,
        0x4a, 0xc5, 0xb2, 0x3d, 0xfd, 0x1a, 0xf4, 0x3d, 0xc1, 0x2d, 0x05, 0xbd,
        0xba, 0x84, 0x18, 0xbd, 0xfe, 0x3a, 0x02, 0xbe, 0xa9, 0x76, 0xac, 0x3d,
        0x7b, 0xc6, 0xca, 0xbd, 0xfa, 0x98, 0x26, 0x3d, 0x56, 0x80, 0x96, 0xbc,
        0x1a, 0xd3, 0x91, 0xbd, 0x41, 0x69, 0x6c, 0xbd, 0x20, 0x6a, 0xb2, 0xbd,
        0xb4, 0xfc, 0x8d, 0xbc, 0x1c, 0x06, 0x87, 0x3d, 0xb8, 0x2b, 0x83, 0x3b,
        0x80, 0x2a, 0x2e, 0xbb, 0xe9, 0x79, 0xc6, 0xbd, 0xdd, 0xb7, 0x4a, 0x3c,
        0x1b, 0x8a, 0x98, 0x3d, 0x41, 0xf2, 0x79, 0x3d, 0x82, 0xed, 0x93, 0x3d,
        0x46, 0xcc, 0xf6, 0xbd, 0x06, 0x51, 0x78, 0xbd, 0x90, 0x17, 0x87, 0xbd,
        0x53, 0xc2, 0xb2, 0x3d, 0xba, 0xe1, 0x99, 0x3d, 0x9d, 0x08, 0xfc, 0xbd,
        0x34, 0xcd, 0xec, 0x3d, 0xd0, 0x72, 0xdc, 0xbd, 0xeb, 0x4f, 0xc7, 0xbd,
        0xa2, 0xff, 0xbc, 0xbd, 0x55, 0xf5, 0xf0, 0xbd, 0x62, 0x8d, 0xf8, 0x3d,
        0x84, 0xd2, 0x26, 0xbc, 0xcb, 0x77, 0xf2, 0xbb, 0x8e, 0x30, 0x8a, 0x3d,
        0xe8, 0xff, 0xa3, 0xbd, 0x5b, 0xb9, 0x8f, 0xbb, 0x98, 0x1e, 0x0c, 0xbd,
        0x32, 0xf9, 0x14, 0xbd, 0x64, 0x2c, 0xdf, 0xbd, 0x1d, 0x5a, 0xa4, 0xbd,
        0xc5, 0x76, 0xa9, 0xbc, 0xf6, 0x8e, 0x69, 0x3d, 0x32, 0x77, 0xa4, 0x3d,
        0xc6, 0x42, 0xff, 0xbd, 0x21, 0x2f, 0xab, 0x3d, 0x7a, 0x12, 0x62, 0x3d,
        0xec, 0x2e, 0xd0, 0x3d, 0xad, 0xba, 0xad, 0xbd, 0x4a, 0xb6, 0x80, 0x3d,
        0x57, 0xdc, 0x2f, 0x3d, 0x48, 0x4a, 0x90, 0x3d, 0x01, 0x66, 0x40, 0xbd,
        0xfa, 0x0a, 0xe3, 0x3a, 0xda, 0x5b, 0xa0, 0xbd, 0x00, 0x34, 0xaf, 0x3d,
        0xe9, 0x3c, 0xee, 0xbd, 0xe8, 0x2a, 0xb3, 0x3d, 0x48, 0x5e, 0xf4, 0x3d,
        0x5a, 0x1c, 0xe6, 0xbd, 0xe7, 0xe3, 0xff, 0xbb, 0x7b, 0x23, 0x79, 0x3b,
        0x3d, 0x11, 0x04, 0xbe, 0x73, 0x1a, 0xe1, 0x3d, 0x14, 0xd9, 0xc3, 0x3d,
        0x1c, 0xaf, 0xaa, 0x3c, 0x4f, 0xde, 0x8e, 0xbc, 0xb4, 0xc3, 0x84, 0x3d,
        0x9a, 0x28, 0xce, 0xbd, 0x6d, 0xb7, 0x82, 0xbd, 0xac, 0x24, 0x62, 0x3d,
        0xa3, 0xe7, 0x66, 0xbd, 0x00, 0xe0, 0x05, 0xba, 0x76, 0xc3, 0xae, 0xbd,
        0x5d, 0x14, 0x7a, 0x3d, 0xb9, 0x46, 0x02, 0xbe, 0xd2, 0x0a, 0x10, 0xbe,
        0x7e, 0x10, 0x42, 0x3d, 0x72, 0x4b, 0x05, 0xbd, 0x86, 0xf6, 0xea, 0x3d,
        0xc8, 0x0e, 0x05, 0xbd, 0x59, 0x12, 0xb2, 0x3d, 0x42, 0x86, 0x13, 0xbd,
        0xdc, 0x21, 0xfa, 0x3d, 0x27, 0xe1, 0x94, 0xbd, 0x03, 0x28, 0x80, 0xba,
        0x28, 0x94, 0x02, 0xbe, 0xda, 0x2b, 0x93, 0x3d, 0xb6, 0xd2, 0x4d, 0xbd,
        0x1b, 0x2d, 0xf1, 0xbd, 0x82, 0xc6, 0xb4, 0x3d, 0xde, 0xdf, 0x01, 0xbc,
        0x9e, 0xd0, 0x04, 0x3e, 0xc8, 0xa2, 0x3b, 0x3d, 0xb4, 0xa9, 0xf8, 0xbd,
        0xc2, 0x77, 0x02, 0x3e, 0xd6, 0xb9, 0x4b, 0xbd, 0x5f, 0x44, 0xdd, 0x3d,
        0xfb, 0xf0, 0x27, 0x3b, 0x52, 0x6c, 0xe9, 0xbd, 0x3b, 0xe3, 0x0f, 0xbe,
        0xa1, 0x37, 0x18, 0x3d, 0x82, 0x4f, 0x84, 0x3d, 0x94, 0x0d, 0xd1, 0xbd,
        0xa2, 0x77, 0xe9, 0xbd, 0x2c, 0x6a, 0x40, 0x3d, 0xb1, 0xad, 0xf2, 0xbd,
        0xe5, 0x66, 0x04, 0x3e, 0x5d, 0xe6, 0xf6, 0x3c, 0x56, 0x56, 0x05, 0xbd,
        0xa8, 0x38, 0xa7, 0xbd, 0x49, 0xef, 0x77, 0xbb, 0xec, 0xb6, 0x1f, 0x3d,
        0x59, 0xfc, 0xe5, 0xbd, 0xdf, 0xb7, 0xd8, 0xbd, 0xf7, 0x29, 0x04, 0xbe,
        0xaa, 0xaa, 0xa4, 0xbd, 0x1d, 0x38, 0x57, 0x3d, 0x78, 0x53, 0xfe, 0x3d,
        0x60, 0xfc, 0x32, 0xbc, 0x18, 0xfc, 0x09, 0x3d, 0xdb, 0xc7, 0x91, 0xbd,
        0x94, 0xf3, 0x04, 0xbd, 0xbb, 0xcd, 0x7b, 0x3c, 0x4f, 0x9e, 0xba, 0xbd,
        0xb3, 0x3b, 0xd5, 0xbd, 0x99, 0xbd, 0xd0, 0xbd, 0x4e, 0xcd, 0xe7, 0xbc,
        0x20, 0x74, 0xd2, 0x3c, 0xdc, 0xf0, 0xb8, 0x3c, 0x87, 0x54, 0xfc, 0xbc,
        0x5e, 0x12, 0xfa, 0xbd, 0xf9, 0x69, 0x99, 0xbb, 0x88, 0x5c, 0xed, 0xbd,
        0xb0, 0xdb, 0x62, 0xbd, 0x88, 0xf3, 0x6b, 0x3d, 0xf4, 0x77, 0xbb, 0x3d,
        0xa9, 0xa6, 0xe3, 0xbd, 0xdf, 0x87, 0x8b, 0xbc, 0xcb, 0x4a, 0xf4, 0x3d,
        0x05, 0x7a, 0xd9, 0x3d, 0x77, 0x81, 0x89, 0xbc, 0x54, 0x85, 0x40, 0x3d,
        0x24, 0xe0, 0xec, 0x3d, 0xa2, 0x10, 0x13, 0xbd, 0xb4, 0x49, 0x9d, 0xbd,
        0x98, 0x70, 0xf9, 0xbd, 0x34, 0x7f, 0xc0, 0xbc, 0xc3, 0xf1, 0x7c, 0x3d,
        0x1b, 0x8b, 0x8c, 0xbd, 0x69, 0x3f, 0xaf, 0x3d, 0x7b, 0xd2, 0xa2, 0x3d,
        0x51, 0x18, 0x97, 0xbc, 0x45, 0xdb, 0xee, 0x3d, 0x61, 0x87, 0x07, 0xbe,
        0x4e, 0x44, 0x59, 0xbd, 0x4c, 0x7f, 0x3e, 0xbc, 0xa3, 0x14, 0xa6, 0x3d,
        0x2c, 0x15, 0x44, 0x3d, 0xed, 0x95, 0xcc, 0xbd, 0xa0, 0x57, 0x2d, 0xbd,
        0xbb, 0xeb, 0xa9, 0x3b, 0xc3, 0x36, 0x89, 0x3c, 0xa2, 0xf5, 0xe1, 0xbd,
        0x10, 0xb8, 0xb6, 0x3d, 0xdc, 0x07, 0x84, 0x3d, 0xf1, 0xe8, 0x1b, 0xbe,
        0xda, 0x8f, 0x26, 0x3d, 0x80, 0x46, 0xeb, 0xbd, 0xfc, 0x28, 0x9d, 0xbd,
        0x18, 0xfe, 0xd0, 0x3d, 0xcd, 0xf9, 0x78, 0x3d, 0x43, 0x0d, 0x24, 0xbd,
        0x5c, 0xf2, 0x71, 0xbd, 0x17, 0x52, 0x0d, 0xbe, 0xee, 0xd1, 0x65, 0x3d,
        0xb1, 0xbd, 0x85, 0x3d, 0x56, 0x1c, 0x3c, 0xbd, 0xd4, 0x1c, 0x92, 0xbd,
        0x97, 0x71, 0x39, 0xbc, 0xd2, 0x05, 0x43, 0xbd, 0xdb, 0x0b, 0x96, 0x3d,
        0x40, 0x90, 0xc7, 0x3d, 0xe0, 0x04, 0xe7, 0xbd, 0xd9, 0x87, 0x5a, 0xbc,
        0x88, 0x8e, 0x9a, 0x3d, 0xb8, 0x39, 0xe9, 0xbd, 0xaa, 0xd8, 0xb0, 0x3d,
        0x94, 0x0f, 0xe3, 0xbd, 0x4d, 0xbd, 0x84, 0xbd, 0x06, 0xeb, 0x0b, 0xbd,
        0xce, 0xe9, 0x1a, 0xbe, 0xa0, 0x69, 0x89, 0xbc, 0xeb, 0xbc, 0xcd, 0xbc,
        0x65, 0xbc, 0x93, 0x3c, 0xb0, 0x37, 0x08, 0xbe, 0x30, 0x21, 0x89, 0xbd,
        0x8c, 0x43, 0x13, 0xbe, 0x8b, 0xfe, 0xe3, 0xbc, 0xfa, 0x46, 0xe8, 0x3d,
        0x01, 0x29, 0x74, 0xbd, 0xf8, 0x9d, 0xdb, 0xbd, 0x13, 0xf1, 0xdf, 0x3d,
        0x90, 0x2a, 0x7d, 0x3d, 0x6d, 0x39, 0x90, 0x3d, 0x7d, 0xeb, 0x0a, 0xbe,
        0xab, 0xe6, 0x9b, 0xbd, 0xde, 0x78, 0xf8, 0xbd, 0xcc, 0x7a, 0xd4, 0xbc,
        0x11, 0xdc, 0xe7, 0xbc, 0xce, 0x2b, 0x90, 0x3d, 0x3f, 0x4c, 0x69, 0xbd,
        0x93, 0x3b, 0xca, 0x3d, 0x1d, 0x3a, 0x92, 0x3d, 0xe7, 0x63, 0xc3, 0xbd,
        0x37, 0xcf, 0xae, 0x3d, 0x1c, 0x99, 0xb7, 0xbd, 0xc1, 0xd3, 0x6f, 0xbd,
        0x9d, 0x6c, 0xe3, 0x3d, 0x8f, 0xb5, 0x89, 0xbc, 0x4c, 0x0f, 0x94, 0xbd,
        0x9d, 0x73, 0xd0, 0xbd, 0x3c, 0xc3, 0xc8, 0xbd, 0xe4, 0xf1, 0x63, 0xbc,
        0xb3, 0x67, 0xe0, 0xbd, 0xe6, 0x82, 0x57, 0xbd, 0xa2, 0xdd, 0xc2, 0x3b,
        0x73, 0xb4, 0xbf, 0x3d, 0x25, 0xe1, 0x5d, 0x3d, 0x09, 0x33, 0xcc, 0xbd,
        0x00, 0x80, 0xf9, 0xbd, 0xa8, 0x64, 0x3a, 0x3c, 0xb9, 0x02, 0xf9, 0x3c,
        0x99, 0x98, 0xc8, 0xbd, 0xd5, 0x05, 0xa8, 0x3b, 0xe7, 0xba, 0x1e, 0xbd,
        0xf0, 0xc9, 0xeb, 0x3d, 0x81, 0x36, 0x16, 0xbe, 0x0a, 0x1a, 0x0d, 0xbd,
        0x60, 0x6d, 0x55, 0x3d, 0xbb, 0x35, 0xe8, 0x3d, 0x36, 0xa5, 0x17, 0xbe,
        0x53, 0x28, 0x83, 0x3d, 0xa5, 0x70, 0xf6, 0x3d, 0x5c, 0x33, 0x8f, 0xbd,
        0x6a, 0x47, 0x05, 0x3d, 0x35, 0x29, 0x00, 0xbd, 0xdb, 0x57, 0x0d, 0x3d,
        0xb6, 0xc5, 0x0d, 0xbe, 0x54, 0xcd, 0x3c, 0xbd, 0xd7, 0x0f, 0x61, 0x3c,
        0xee, 0xd7, 0x05, 0xbe, 0x8a, 0x21, 0x29, 0xbd, 0x89, 0x25, 0x36, 0x39,
        0xe3, 0xfa, 0xf6, 0x3d, 0x04, 0xc7, 0x01, 0xbd, 0x79, 0xb7, 0x61, 0x3c,
        0xe6, 0x07, 0x94, 0xbb, 0x1b, 0xf0, 0xf8, 0x3c, 0xa8, 0xa7, 0xdc, 0x3c,
        0xfa, 0x5d, 0x9f, 0x3c, 0x1d, 0x32, 0x7a, 0x3d, 0x10, 0x0b, 0xa2, 0xbd,
        0x63, 0x51, 0x25, 0x3d, 0xd1, 0x2a, 0xf3, 0xbd, 0xd5, 0xf7, 0x21, 0xbd,
        0x96, 0x39, 0x28, 0x3d, 0x22, 0x9a, 0x09, 0xbe, 0x6a, 0xab, 0x05, 0xbe,
        0x38, 0x60, 0x8e, 0xbc, 0xa8, 0x8f, 0x01, 0xbe, 0x74, 0x9f, 0xeb, 0xbd,
        0xe3, 0xe6, 0x8b, 0xbd, 0xa8, 0xad, 0xc9, 0x3d, 0xd2, 0xb2, 0x27, 0xbd,
        0xe6, 0x63, 0xd9, 0x3c, 0xfc, 0x35, 0x03, 0xbe, 0xc0, 0xbe, 0x8f, 0x3d,
        0xf3, 0x3a, 0x84, 0x3d, 0x21, 0x59, 0x8e, 0x3d, 0x69, 0xe2, 0x68, 0xbd,
        0x13, 0xb4, 0xd2, 0xbd, 0x5d, 0xed, 0xea, 0x3d, 0x88, 0xc2, 0xdc, 0xbd,
        0x31, 0xc0, 0x84, 0xbd, 0xdc, 0x77, 0xc4, 0xbd, 0x8c, 0x74, 0xc4, 0xbd,
        0x12, 0x84, 0xa6, 0x3d, 0x4b, 0x46, 0x7f, 0x3d, 0xc4, 0x98, 0xd7, 0x3d,
        0x6b, 0x19, 0xd2, 0xbd, 0x8c, 0x35, 0xf1, 0xbb, 0xb5, 0xdb, 0x70, 0xbd,
        0xe6, 0xa3, 0x94, 0x3d, 0xae, 0x6a, 0x5d, 0x3d, 0x4a, 0x70, 0x80, 0xbc,
        0x48, 0x49, 0x0b, 0xbe, 0xe2, 0xc5, 0x06, 0xbe, 0x9d, 0x75, 0x12, 0x3e,
        0x3e, 0x2a, 0x48, 0x3d, 0x6e, 0xe5, 0xa5, 0xbd, 0x65, 0xa0, 0xf2, 0x3d,
        0xd9, 0x9e, 0x11, 0xbe, 0x75, 0xfe, 0x44, 0x3c, 0x6c, 0x01, 0x03, 0x3d,
        0x84, 0xc5, 0x00, 0x3e, 0xa3, 0x85, 0xa0, 0x3d, 0xe0, 0x80, 0xc3, 0xbd,
        0x67, 0x6f, 0xc0, 0xbd, 0x92, 0x9c, 0xcb, 0x3c, 0x01, 0xda, 0x81, 0xbd,
        0x84, 0xe6, 0x19, 0xbd, 0xd3, 0x63, 0x04, 0x3e, 0x46, 0xbd, 0xb9, 0xbd,
        0x58, 0xf3, 0xf9, 0xbd, 0x0a, 0x4c, 0xd7, 0xbd, 0xdd, 0x67, 0x75, 0x3d,
        0x17, 0x94, 0x18, 0x3c, 0xa0, 0xa6, 0xdc, 0x3d, 0xd3, 0x3e, 0x72, 0x3d,
        0x50, 0xfe, 0xb3, 0x3d, 0x6a, 0x41, 0xb7, 0x3a, 0x95, 0x61, 0xe4, 0x3d,
        0xf4, 0xc8, 0xaf, 0xbd, 0x4a, 0xce, 0x0c, 0xbe, 0x46, 0xa3, 0x8c, 0x3d,
        0xd2, 0x7c, 0xd9, 0xbc, 0x61, 0x17, 0xd2, 0xbd, 0xb8, 0x75, 0xda, 0x3d,
        0xf7, 0x49, 0xe9, 0x3d, 0xff, 0xda, 0x11, 0xbb, 0x63, 0xc8, 0x7c, 0x3c,
        0xcd, 0xb4, 0x49, 0xbd, 0xd0, 0xf7, 0x6f, 0xbd, 0x95, 0x07, 0x07, 0xbe,
        0x19, 0x27, 0xba, 0xbd, 0xfa, 0xdf, 0xea, 0x3d, 0xc6, 0x25, 0xbb, 0xbd,
        0x68, 0x8d, 0x05, 0xbe, 0x40, 0x2c, 0x0d, 0xbe, 0x48, 0x00, 0x23, 0xbd,
        0xe3, 0x1e, 0x45, 0xbd, 0x95, 0xd9, 0x20, 0x3d, 0x16, 0xa7, 0xa9, 0x3a,
        0x7d, 0xa4, 0xb7, 0xbd, 0x84, 0x6f, 0x1a, 0xbe, 0x3e, 0x52, 0xf0, 0xbb,
        0x42, 0x62, 0x58, 0xbd, 0x82, 0xaf, 0x7d, 0xbd, 0x0c, 0x67, 0x19, 0xbd,
        0xbb, 0x3b, 0xfe, 0x3c, 0x08, 0x8a, 0xef, 0x3c, 0x4a, 0x86, 0xb8, 0xbd,
        0x3d, 0x3f, 0xa5, 0x3d, 0x42, 0x0f, 0x66, 0x3c, 0x5f, 0x3b, 0x07, 0x3e,
        0x68, 0xbe, 0x67, 0x3d, 0x40, 0x9e, 0xfc, 0xbd, 0xba, 0x89, 0xeb, 0x3d,
        0xde, 0x0c, 0x06, 0xbd, 0x5a, 0x5a, 0xec, 0xbc, 0xe8, 0x60, 0x34, 0x3d,
        0xe0, 0x0b, 0xce, 0x3c, 0x40, 0x9b, 0x99, 0x3c, 0x1f, 0x6c, 0xfa, 0xbd,
        0x7d, 0xae, 0xff, 0x3b, 0xc3, 0xfc, 0x9c, 0xbd, 0xfb, 0x2c, 0x71, 0x3d,
        0xc2, 0x6b, 0x01, 0x3e, 0xfa, 0xed, 0xbd, 0x3d, 0x5f, 0xde, 0xee, 0xbd,
        0xcb, 0x6e, 0xb8, 0x3d, 0x55, 0x33, 0xf7, 0x3d, 0x8e, 0x0c, 0xd4, 0xbd,
        0xcd, 0x40, 0xb7, 0xbd, 0x81, 0xd3, 0xe4, 0x3d, 0xb7, 0xb8, 0xf2, 0x3d,
        0x09, 0x00, 0xf1, 0x3c, 0xdc, 0xf5, 0x18, 0xbd, 0x22, 0x4d, 0x1c, 0xbd,
        0xd9, 0x03, 0x10, 0xbe, 0x9b, 0x52, 0x08, 0xbe, 0xf5, 0xc0, 0x8e, 0x3d,
        0x95, 0xd6, 0xb9, 0xbb, 0x9b, 0x59, 0xf0, 0xbd, 0x45, 0x54, 0x91, 0x3d,
        0xe2, 0x38, 0xab, 0xbd, 0x80, 0xf7, 0x0d, 0x3e, 0x87, 0x5e, 0xf0, 0x3d,
        0x43, 0xce, 0x90, 0x3c, 0xa6, 0x9c, 0xdf, 0xbd, 0x10, 0x6b, 0x1e, 0xbe,
        0x38, 0x10, 0x90, 0x3d, 0xf3, 0x6a, 0xc2, 0x3d, 0x77, 0x1d, 0x7a, 0x3c,
        0x84, 0xb9, 0x7d, 0x3d, 0x9b, 0x69, 0xe1, 0xbc, 0xc8, 0x35, 0xf7, 0x3d,
        0xf7, 0x3e, 0xbf, 0xbd, 0xe3, 0xb2, 0x01, 0xbd, 0xf4, 0x73, 0x7d, 0x3d,
        0xc3, 0x84, 0xf0, 0x3d, 0xc0, 0x9e, 0x0f, 0xbe, 0xea, 0xc9, 0xfe, 0x3d,
        0x1d, 0x65, 0x2e, 0x3d, 0xce, 0x1e, 0x57, 0xbd, 0x97, 0x16, 0xd3, 0xbd,
        0x70, 0xf7, 0xbf, 0xbc, 0xb5, 0x3f, 0xca, 0xbc, 0xc0, 0x3b, 0xee, 0xbc,
        0x6d, 0xf9, 0xa8, 0xbd, 0x71, 0x5f, 0x72, 0xbb, 0x6a, 0x03, 0x97, 0x3c,
        0x80, 0x80, 0xe7, 0x3c, 0xb4, 0x19, 0x14, 0xbe, 0x2f, 0x01, 0x18, 0x3d,
        0xe2, 0x19, 0xe8, 0x3d, 0x57, 0x7f, 0xff, 0xbd, 0x34, 0x49, 0xeb, 0xbb,
        0xb9, 0x78, 0xc2, 0x3d, 0xa6, 0x47, 0x9f, 0xbd, 0xf1, 0xac, 0x97, 0x3d,
        0x3f, 0x6b, 0x11, 0xbd, 0x47, 0xab, 0xcf, 0x3d, 0xad, 0xae, 0x0b, 0xbe,
        0x5c, 0x70, 0xd5, 0xbd, 0xcd, 0xc3, 0x07, 0xbe, 0x0e, 0x49, 0xce, 0x3c,
        0x0f, 0x3c, 0x3c, 0xbd, 0x3d, 0x4b, 0x53, 0x3d, 0xdb, 0x85, 0xfd, 0xbd,
        0x7f, 0x9e, 0x2f, 0xbe, 0x07, 0x12, 0x2f, 0xbe, 0x0d, 0x4a, 0x28, 0xbd,
        0xb2, 0x5f, 0x85, 0x3d, 0x42, 0xad, 0xa7, 0x3d, 0x7e, 0x2d, 0x57, 0x3d,
        0x64, 0x36, 0x4e, 0xbe, 0x56, 0xa6, 0x22, 0x3c, 0xa3, 0x95, 0xa3, 0x3d,
        0xd3, 0x6b, 0x67, 0x3e, 0x4b, 0x3e, 0xbf, 0xbc, 0x3f, 0xb7, 0x41, 0x3d,
        0x98, 0xfc, 0x90, 0xbe, 0xc8, 0x59, 0xcd, 0x3b, 0x24, 0x0a, 0xc4, 0xbd,
        0x5f, 0x11, 0xdc, 0xbd, 0xe2, 0x38, 0x2c, 0xbc, 0xf8, 0x99, 0xe4, 0xbb,
        0xa3, 0x25, 0x8e, 0x3d, 0xbd, 0x45, 0x0e, 0x3e, 0x0b, 0x51, 0x12, 0xbe,
        0x03, 0xb2, 0x9a, 0x3d, 0x41, 0xd4, 0xd1, 0x3c, 0xe7, 0x85, 0x12, 0x3c,
        0x33, 0x7b, 0xdb, 0x3d, 0x8c, 0xd4, 0x56, 0x3e, 0xdc, 0x00, 0xd6, 0x3d,
        0x5a, 0xf1, 0x23, 0xbc, 0xe7, 0x83, 0xa0, 0xbd, 0xca, 0x84, 0x60, 0xbd,
        0x6e, 0x52, 0xa0, 0xbc, 0x5e, 0x9b, 0xbd, 0x3c, 0x8d, 0xe7, 0xf9, 0xbb,
        0x9b, 0x9b, 0xec, 0xbd, 0x34, 0x79, 0x03, 0xbe, 0x1d, 0xdf, 0x91, 0x3d,
        0xb5, 0x10, 0xa6, 0xbd, 0x36, 0x02, 0x91, 0xbd, 0xd4, 0xaf, 0xa9, 0x3d,
        0x6f, 0x42, 0xcd, 0x3d, 0xa3, 0x33, 0x06, 0xbe, 0xdf, 0x39, 0x0e, 0xbd,
        0xd5, 0x8a, 0x03, 0xbd, 0x89, 0x77, 0x6e, 0xbe, 0x08, 0x91, 0x28, 0x3e,
        0x75, 0x2b, 0x63, 0xbd, 0xd6, 0xe0, 0xd3, 0xbd, 0xcb, 0xb8, 0x0b, 0xbd,
        0x01, 0x28, 0x3d, 0xbe, 0x2b, 0xb1, 0xa7, 0xbc, 0x92, 0xc6, 0x03, 0x3e,
        0x9f, 0xe0, 0x3d, 0xbe, 0xee, 0x87, 0x19, 0xbd, 0x4c, 0xb6, 0xa4, 0x3e,
        0x49, 0xa5, 0x83, 0x3c, 0x3f, 0xb3, 0x85, 0x3d, 0xfc, 0xfb, 0xd7, 0x3d,
        0x79, 0xbe, 0x98, 0x3e, 0x0a, 0xc5, 0xf4, 0x3c, 0xdd, 0xb2, 0x0d, 0x3e,
        0x28, 0xdb, 0xab, 0xbe, 0x77, 0x61, 0xc5, 0x3d, 0x45, 0xe9, 0x38, 0x3d,
        0x48, 0x12, 0xf8, 0x3c, 0x99, 0x56, 0xd5, 0x3d, 0xc2, 0x49, 0xb9, 0x3d,
        0x86, 0x47, 0x5d, 0xbc, 0xd4, 0x05, 0xaa, 0x3d, 0x90, 0x97, 0xce, 0xbc,
        0x74, 0xa4, 0x1a, 0x3e, 0x63, 0x7b, 0xe9, 0xbd, 0xa3, 0xc1, 0x72, 0x3d,
        0xa3, 0x87, 0xff, 0xbd, 0x67, 0xba, 0x8c, 0x3e, 0xd1, 0x56, 0x82, 0x3d,
        0x7a, 0x0c, 0x8e, 0xbc, 0xfc, 0x25, 0x8f, 0xbd, 0x4b, 0xd4, 0x33, 0xbe,
        0x5d, 0x5a, 0x07, 0xbe, 0xf9, 0xac, 0xef, 0xbd, 0x87, 0x07, 0x91, 0xbd,
        0x64, 0x41, 0xe2, 0xbc, 0xe1, 0x3d, 0xbc, 0x3d, 0x9f, 0x58, 0xd2, 0xbd,
        0xef, 0xbb, 0x5a, 0x3d, 0xc6, 0x24, 0x80, 0xbd, 0x94, 0xeb, 0x47, 0x3d,
        0x4f, 0x4c, 0x0c, 0x3e, 0x4c, 0x63, 0x5d, 0xbe, 0xa1, 0x24, 0x14, 0xbe,
        0x0d, 0x84, 0x05, 0x3d, 0x65, 0x5f, 0x10, 0x3e, 0x42, 0xe0, 0xa0, 0xbd,
        0x0e, 0xaa, 0xe9, 0x3b, 0x0a, 0x34, 0xe9, 0x3d, 0xe5, 0xfc, 0xd2, 0xbd,
        0x59, 0x91, 0xd3, 0x3b, 0xc5, 0x3c, 0x80, 0x3d, 0x0f, 0x22, 0xc9, 0x3d,
        0xc0, 0x0a, 0x81, 0xbd, 0xad, 0x54, 0xc0, 0x3d, 0xf3, 0xcc, 0xfa, 0xbd,
        0xe9, 0xfd, 0xce, 0xbc, 0xa1, 0xc3, 0xa7, 0xbc, 0x23, 0x87, 0x54, 0x3d,
        0xa4, 0x76, 0x71, 0x3e, 0x04, 0x8e, 0xcd, 0x3a, 0x0d, 0xec, 0x97, 0x3c,
        0x3f, 0x49, 0xd5, 0xbd, 0x82, 0xb5, 0x97, 0x3d, 0xc6, 0x6b, 0x94, 0x3d,
        0x48, 0x60, 0x18, 0x3e, 0x70, 0xb8, 0x3a, 0x3e, 0x1c, 0xd8, 0xc5, 0xbc,
        0x39, 0x00, 0xbe, 0xbd, 0xfa, 0xf8, 0x6a, 0x3e, 0xfa, 0x48, 0x3a, 0xbe,
        0xa1, 0xef, 0x37, 0x3e, 0x95, 0xff, 0x9d, 0x3a, 0xbc, 0xec, 0x33, 0x3e,
        0x2f, 0xac, 0x0e, 0x3d, 0x01, 0x2a, 0x40, 0x3d, 0xb3, 0x54, 0xbd, 0xbd,
        0x48, 0xaf, 0x03, 0xbe, 0xfc, 0xa0, 0x51, 0x3d, 0xc2, 0x05, 0xd1, 0x3c,
        0xc4, 0x6d, 0xc9, 0x3d, 0x52, 0x72, 0x2a, 0xbe, 0x2f, 0x0c, 0x70, 0xbe,
        0x3a, 0xa7, 0x31, 0xbe, 0x83, 0x6d, 0x23, 0xbe, 0x76, 0x17, 0x16, 0xbe,
        0x80, 0x12, 0x26, 0x3e, 0x55, 0xed, 0x9e, 0xbd, 0x9d, 0x2f, 0xbd, 0x3d,
        0x5b, 0xd5, 0x36, 0xbe, 0xde, 0x2f, 0xca, 0xbe, 0xd8, 0x2f, 0x48, 0xbe,
        0x45, 0x16, 0x19, 0x3e, 0xb8, 0x00, 0x8c, 0x3c, 0x16, 0x5c, 0xd4, 0x39,
        0x4a, 0x27, 0xef, 0x3d, 0x47, 0xe8, 0x46, 0x3e, 0x1d, 0x14, 0x38, 0xbe,
        0xc2, 0xa0, 0xc8, 0xbd, 0x52, 0x2d, 0x8e, 0x3d, 0xb3, 0xb2, 0x10, 0x3e,
        0x23, 0xa9, 0x77, 0x3d, 0x43, 0xd9, 0x86, 0x3b, 0x79, 0x06, 0x1a, 0xbe,
        0x8c, 0xa3, 0x22, 0x3d, 0x4b, 0x1e, 0x41, 0x3e, 0xae, 0x81, 0xc4, 0x3d,
        0xb0, 0x20, 0x23, 0x3d, 0x87, 0xde, 0xa1, 0x3d, 0x19, 0x4d, 0xb0, 0x3d,
        0xbd, 0x87, 0x4c, 0xbe, 0x7d, 0x02, 0x24, 0x3e, 0x28, 0x79, 0xcd, 0x3d,
        0x28, 0x7e, 0x1c, 0x3d, 0xc8, 0x8d, 0x0f, 0x3e, 0xff, 0x54, 0x14, 0xbe,
        0x26, 0x2a, 0xcc, 0x3d, 0xf1, 0xdd, 0xb1, 0x3d, 0x0e, 0x50, 0x1a, 0xbe,
        0x49, 0xda, 0xe8, 0x3d, 0x95, 0x64, 0x82, 0x3d, 0x3a, 0x0d, 0x83, 0xbd,
        0xe8, 0x46, 0x1b, 0xbe, 0x4c, 0xc5, 0x24, 0xbe, 0xc6, 0x7a, 0x18, 0xbe,
        0x04, 0xcc, 0x6b, 0xbc, 0x16, 0xe3, 0xc8, 0xbd, 0x70, 0x61, 0xba, 0xbb,
        0x58, 0x22, 0x01, 0x3d, 0xa2, 0x40, 0xc0, 0x3c, 0x57, 0x73, 0xdd, 0xbd,
        0x25, 0x28, 0x3e, 0xbe, 0x1b, 0x78, 0xa9, 0xbe, 0x7a, 0x03, 0xaa, 0xbd,
        0xf4, 0x23, 0x83, 0x3d, 0x84, 0x42, 0x69, 0x3d, 0x58, 0xe0, 0x71, 0xbd,
        0xf1, 0xdf, 0x8a, 0xbe, 0x8c, 0x1c, 0xb2, 0xbd, 0x4a, 0xe2, 0x9d, 0xbe,
        0xd3, 0x7f, 0xea, 0xbd, 0x55, 0x26, 0xf3, 0xbd, 0x0d, 0xa3, 0xaa, 0x3e,
        0x8e, 0xf6, 0xa6, 0x3d, 0xeb, 0xb7, 0x5f, 0x3d, 0xa4, 0xee, 0xc4, 0xbd,
        0xbe, 0x7d, 0x26, 0x3e, 0xd1, 0x20, 0x09, 0x3d, 0x7a, 0xff, 0xe2, 0xbc,
        0xf0, 0x16, 0x7d, 0xbe, 0x72, 0x9e, 0x5e, 0x3c, 0x5e, 0x42, 0xfe, 0xbd,
        0x40, 0x82, 0x85, 0x3d, 0x3f, 0x34, 0x37, 0x3d, 0x08, 0x97, 0x06, 0xbd,
        0xa9, 0x80, 0x4a, 0xbd, 0x30, 0x76, 0xb9, 0xbd, 0x18, 0xae, 0x6d, 0x3d,
        0x3d, 0x3d, 0x3f, 0x3d, 0x0b, 0xce, 0xb1, 0x3d, 0xa9, 0x5b, 0x33, 0x3e,
        0xac, 0x28, 0x14, 0x3e, 0x62, 0x76, 0x02, 0x3e, 0x99, 0xd7, 0xc9, 0xbd,
        0x34, 0x7d, 0xda, 0x3d, 0xce, 0x3a, 0xb8, 0xbd, 0x35, 0x10, 0xb7, 0x3d,
        0x81, 0x9e, 0x93, 0x3d, 0xee, 0xf6, 0xd4, 0x3d, 0x26, 0x47, 0x45, 0xbd,
        0x79, 0x24, 0xa8, 0x3a, 0x52, 0x23, 0xa9, 0xbd, 0xe9, 0x38, 0xc7, 0xbd,
        0xe0, 0x6c, 0x93, 0x3e, 0xf7, 0x78, 0x9f, 0xbd, 0xe1, 0x9d, 0xe9, 0x3d,
        0xc0, 0xf9, 0xa6, 0x3d, 0xe2, 0x90, 0xc0, 0xbd, 0x6d, 0x9c, 0x10, 0xbd,
        0xa8, 0x74, 0x04, 0xbc, 0x42, 0xa7, 0x48, 0xbc, 0xa0, 0x3b, 0xa1, 0x3e,
        0xd1, 0x8f, 0xd8, 0xbd, 0x87, 0xb9, 0xb2, 0xbd, 0x0c, 0x8d, 0x2f, 0xbd,
        0xb6, 0xce, 0x2f, 0xbe, 0x5d, 0xe5, 0x08, 0xbd, 0xd7, 0xaa, 0xb3, 0x3e,
        0x91, 0xb9, 0x30, 0xbe, 0x8f, 0x17, 0x84, 0x3e, 0x69, 0x32, 0x27, 0x3d,
        0xda, 0xce, 0xb2, 0xbe, 0x05, 0x97, 0x4f, 0xbe, 0x9b, 0x20, 0xa0, 0x3e,
        0xec, 0xc0, 0xd4, 0xbb, 0xd7, 0x93, 0x58, 0xbe, 0x92, 0xda, 0xa8, 0x3c,
        0xdb, 0x2d, 0xba, 0xbe, 0x08, 0x73, 0xb6, 0xbd, 0x0d, 0x5e, 0x92, 0xbe,
        0x97, 0x01, 0x39, 0xbd, 0x84, 0xa3, 0xe0, 0x3c, 0x95, 0x20, 0x54, 0xbe,
        0xe5, 0x89, 0x70, 0xbe, 0xc1, 0x11, 0xeb, 0xbd, 0x5d, 0xc3, 0x8e, 0xbd,
        0x58, 0x13, 0x37, 0x3e, 0x36, 0xb4, 0x8f, 0x3d, 0x8e, 0xef, 0x61, 0x3e,
        0x6c, 0xf1, 0x64, 0xbd, 0xa0, 0xf9, 0xca, 0x3b, 0x07, 0x3b, 0x00, 0xbe,
        0xa5, 0xce, 0x72, 0xbd, 0x7f, 0x78, 0xff, 0x3c, 0x1f, 0x27, 0x2c, 0x3d,
        0x6e, 0x61, 0x0d, 0x3e, 0x31, 0xa9, 0xd2, 0x3d, 0x31, 0xd1, 0x49, 0xbb,
        0x3a, 0x1b, 0x45, 0x3e, 0x8f, 0xaf, 0x6f, 0xbc, 0xb4, 0x05, 0x64, 0x3e,
        0x14, 0x3e, 0xee, 0x3d, 0xf1, 0x0a, 0x97, 0xbe, 0xd8, 0x09, 0xa7, 0x3e,
        0xbf, 0x4e, 0xba, 0xbc, 0x5f, 0x1e, 0x30, 0x3e, 0x12, 0x1a, 0xbc, 0x3d,
        0xf6, 0x2b, 0x90, 0x3e, 0x4a, 0x9b, 0x6f, 0x3e, 0x51, 0x05, 0x3f, 0x3e,
        0xc5, 0x4f, 0x8f, 0xbe, 0xe7, 0xfd, 0x61, 0x3e, 0x25, 0x34, 0x2e, 0x3e,
        0x28, 0xe8, 0x8a, 0x3e, 0x95, 0x29, 0xf1, 0x3d, 0xda, 0x37, 0x0f, 0x3f,
        0x0f, 0x10, 0x30, 0xbd, 0xf8, 0xe9, 0x50, 0x3d, 0x83, 0xf0, 0x61, 0xbd,
        0x1e, 0xb4, 0xe1, 0x3d, 0xa2, 0x11, 0x4b, 0xbc, 0xc4, 0x2a, 0xe9, 0x3d,
        0x54, 0xa7, 0xb4, 0xbd, 0x00, 0x17, 0x88, 0xbd, 0xf0, 0x2b, 0x93, 0xbc,
        0xe5, 0x0c, 0xb6, 0xbd, 0x95, 0x27, 0xf3, 0xbc, 0x43, 0x66, 0x05, 0x3e,
        0x86, 0x8a, 0x03, 0xbd, 0x31, 0x5f, 0xd4, 0x3d, 0x35, 0x1c, 0x32, 0xbd,
        0x6b, 0x43, 0x90, 0xbb, 0x25, 0x43, 0xb3, 0x3c, 0x79, 0x99, 0xcb, 0xbd,
        0xc0, 0xe3, 0xd8, 0x3c, 0x88, 0x45, 0xf1, 0x3d, 0xd0, 0xf2, 0xd7, 0x3d,
        0xa6, 0x90, 0x1e, 0x3d, 0x5a, 0x3b, 0x02, 0x3d, 0xbb, 0x4f, 0x8d, 0x3d,
        0xf6, 0x39, 0xd9, 0xbd, 0x1c, 0xf0, 0xa2, 0xbd, 0x25, 0xe2, 0x00, 0xbe,
        0xf7, 0x4d, 0x01, 0x3e, 0xad, 0xfa, 0xd3, 0x3c, 0x15, 0x24, 0x18, 0xbe,
        0x95, 0xa8, 0xa1, 0xbc, 0xe4, 0xd0, 0x2c, 0xbd, 0x6d, 0xf4, 0xba, 0xbd,
        0x75, 0x85, 0xae, 0x3d, 0x93, 0x69, 0xcf, 0xbc, 0xec, 0x72, 0x1e, 0x3d,
        0x0e, 0x31, 0xe1, 0xbd, 0x29, 0x4c, 0x88, 0xbd, 0x3c, 0xef, 0xa4, 0x3c,
        0xe0, 0xae, 0x94, 0xbc, 0x08, 0x61, 0x03, 0xbd, 0xb7, 0xbf, 0x6d, 0x3d,
        0x6d, 0xc9, 0xd2, 0xb9, 0x3d, 0x86, 0xdd, 0xbc, 0x00, 0x8e, 0x1c, 0x3d,
        0xe1, 0xb0, 0x6c, 0x3d, 0x83, 0xa3, 0xf7, 0x3d, 0x09, 0x58, 0xcf, 0xbd,
        0x66, 0xcb, 0xc7, 0x3c, 0xed, 0x40, 0x27, 0xbd, 0xfc, 0xf4, 0xd3, 0x3a,
        0x1c, 0xe7, 0xd5, 0xbd, 0x47, 0x25, 0x9b, 0xbd, 0xe2, 0xba, 0xe8, 0x3d,
        0xf5, 0x9c, 0xce, 0xbd, 0x16, 0xdc, 0x15, 0x3e, 0xe0, 0xbb, 0x7f, 0x3d,
        0x3e, 0x1e, 0xbc, 0xbd, 0x2c, 0xfd, 0x77, 0x3c, 0xa7, 0x1e, 0x01, 0xbe,
        0x97, 0x1f, 0xaa, 0xbd, 0xe7, 0xf0, 0x04, 0xbe, 0xf0, 0x54, 0x82, 0x3d,
        0xb3, 0x76, 0xa8, 0xbd, 0x9e, 0x48, 0xd7, 0xbd, 0x38, 0xe3, 0x2a, 0xbc,
        0x81, 0xab, 0x8a, 0x3d, 0xae, 0x92, 0xb3, 0xbd, 0xd3, 0xf5, 0xd1, 0xbc,
        0x93, 0xb5, 0x8c, 0x3b, 0x62, 0x48, 0x2d, 0xbd, 0x80, 0x7e, 0xa5, 0xbc,
        0xb1, 0x2d, 0xf0, 0xbd, 0x12, 0x7c, 0xf1, 0xbd, 0x1f, 0x2e, 0xf4, 0x3d,
        0x93, 0xdb, 0x92, 0x3c, 0xf6, 0x22, 0x91, 0xbd, 0x23, 0xe0, 0x89, 0x3d,
        0xa6, 0x43, 0xa2, 0xbc, 0x36, 0x08, 0x97, 0xbd, 0x7a, 0x22, 0x8c, 0xbd,
        0x15, 0x3d, 0xd5, 0xbd, 0xa7, 0x4e, 0x8d, 0xbd, 0xa1, 0x7c, 0x92, 0xbc,
        0xe5, 0x38, 0xf8, 0xbd, 0x33, 0x24, 0xfe, 0xbd, 0xc5, 0xf2, 0xc5, 0x3d,
        0x9b, 0x2d, 0x6c, 0xbd, 0xf5, 0xc2, 0xa2, 0x3d, 0x77, 0xae, 0xaf, 0xbd,
        0xde, 0xd7, 0xee, 0x3c, 0xb4, 0x1a, 0x93, 0xba, 0xe4, 0xf3, 0x41, 0x3d,
        0xcb, 0x40, 0x6d, 0xbd, 0xd3, 0xa6, 0x73, 0xbd, 0x21, 0x98, 0x5d, 0x3c,
        0x90, 0xf4, 0xed, 0x3d, 0x10, 0x64, 0xdd, 0xbd, 0x3e, 0x9b, 0xbd, 0xbd,
        0xbf, 0x66, 0xc4, 0x3d, 0xc4, 0x49, 0xdf, 0xbd, 0x6d, 0x50, 0xdd, 0xbd,
        0x08, 0x46, 0x09, 0xbe, 0x22, 0x0b, 0x7a, 0x3d, 0xe5, 0x41, 0xd2, 0xbc,
        0xb4, 0xd0, 0xf3, 0x3d, 0x36, 0x01, 0xf1, 0xbd, 0x93, 0x0e, 0xe7, 0x3d,
        0x21, 0x7d, 0x26, 0x3c, 0xc7, 0x74, 0xb7, 0x3d, 0x63, 0xeb, 0x8c, 0x3d,
        0xb9, 0x2a, 0x51, 0x3d, 0xac, 0x4c, 0xed, 0x3c, 0x3d, 0xb5, 0xd9, 0x3d,
        0x08, 0x1f, 0xe1, 0xbb, 0x9f, 0x82, 0x0f, 0x3e, 0x8f, 0x96, 0xe0, 0xbd,
        0xb1, 0x5b, 0xc3, 0xbd, 0x02, 0x95, 0x52, 0x3d, 0xfa, 0x07, 0x0e, 0xbe,
        0xe1, 0x59, 0x05, 0xbd, 0x71, 0x34, 0x2a, 0xbd, 0x1e, 0x71, 0xee, 0x3d,
        0x8c, 0xbc, 0x3d, 0x3d, 0xf0, 0x35, 0x1c, 0x3d, 0x58, 0x49, 0xe7, 0xbc,
        0xee, 0x96, 0x9a, 0xbd, 0x26, 0x8d, 0x11, 0xbe, 0x70, 0xf6, 0x64, 0xbd,
        0x71, 0x41, 0x87, 0x3d, 0xb6, 0x81, 0xd7, 0x3d, 0xf5, 0x0d, 0x12, 0x3b,
        0xb7, 0xdf, 0x18, 0xbe, 0xe6, 0xf3, 0x9f, 0x3d, 0xd0, 0x9d, 0xfa, 0x3d,
        0x92, 0x00, 0xf7, 0x3d, 0xc7, 0xa4, 0xfe, 0x3d, 0x50, 0xaa, 0xa9, 0xbc,
        0x21, 0xa4, 0xc4, 0x3c, 0x42, 0xae, 0x0d, 0x3b, 0x35, 0x32, 0xa2, 0x3d,
        0xab, 0xf8, 0x08, 0xbe, 0xcd, 0x38, 0xeb, 0xbd, 0x33, 0xe3, 0x4b, 0xbc,
        0x1f, 0xb8, 0x05, 0xbd, 0x15, 0x4e, 0x38, 0x3d, 0xfb, 0x23, 0x3f, 0xbc,
        0x8c, 0x5e, 0x2d, 0x3d, 0xb7, 0x52, 0x02, 0xbe, 0x3f, 0x8c, 0xb3, 0xbd,
        0x54, 0x46, 0xe3, 0x3d, 0x91, 0x8d, 0x5d, 0xbd, 0x78, 0x5d, 0xfb, 0xbd,
        0x61, 0x09, 0x03, 0x3e, 0x4b, 0x4f, 0xd2, 0xbd, 0x20, 0xd5, 0xc9, 0x3d,
        0x0e, 0x3f, 0xe2, 0x3d, 0xfc, 0x8e, 0x0a, 0xbd, 0xa2, 0xec, 0x9e, 0xbc,
        0xfd, 0xfd, 0x96, 0xbc, 0xf2, 0x6e, 0x26, 0x3b, 0xa0, 0xe0, 0x80, 0x3d,
        0xf0, 0xbc, 0x11, 0xbd, 0x29, 0x45, 0xe3, 0x3d, 0x60, 0x0f, 0x0c, 0xbe,
        0xc4, 0x2f, 0x9f, 0xbd, 0xbb, 0xcc, 0x6e, 0xbc, 0xa3, 0x93, 0x06, 0xbe,
        0x2d, 0x47, 0x93, 0xbd, 0xa8, 0xd6, 0xdc, 0x3d, 0xb9, 0x6e, 0x0f, 0x3d,
        0x30, 0xb4, 0xff, 0x3d, 0x52, 0xc3, 0xa6, 0x3d, 0xe2, 0x8b, 0xbd, 0xbd,
        0xbb, 0x1a, 0xcd, 0xbd, 0xbc, 0x46, 0x14, 0x3d, 0x94, 0x38, 0xbb, 0x3d,
        0x5c, 0x1d, 0xb9, 0x3d, 0xf4, 0x0b, 0x02, 0xbd, 0xa0, 0x3e, 0xe8, 0xbd,
        0x42, 0xef, 0xae, 0x3d, 0x3e, 0x33, 0x33, 0x3c, 0xb0, 0xfe, 0x53, 0xbd,
        0x60, 0xc7, 0x94, 0xbd, 0x9d, 0xfa, 0x6d, 0x3d, 0x8c, 0xd5, 0x9f, 0xbd,
        0x4c, 0x6c, 0x9d, 0x3d, 0x2d, 0x94, 0xc5, 0x3c, 0x98, 0x37, 0x7e, 0x3d,
        0x12, 0x03, 0x9e, 0x3d, 0x55, 0x4f, 0xb9, 0xbb, 0x20, 0x2f, 0xe0, 0xbc,
        0x80, 0x65, 0x0b, 0xbe, 0x41, 0x24, 0x0e, 0x3e, 0x5d, 0x16, 0xed, 0x3d,
        0x88, 0xdf, 0xcd, 0x3a, 0xfb, 0x7f, 0x63, 0xbd, 0xed, 0x4b, 0xc4, 0xbd,
        0x09, 0x8c, 0xd6, 0xbd, 0xa4, 0x98, 0x48, 0x3d, 0xfb, 0xf0, 0x6b, 0xbd,
        0x49, 0xc4, 0x42, 0x3d, 0xee, 0xe2, 0xd8, 0xbd, 0xb9, 0x7a, 0x27, 0xbc,
        0x76, 0xd3, 0xbb, 0xbd, 0x9d, 0xf1, 0x35, 0xbd, 0x59, 0x86, 0x0a, 0xbe,
        0xbc, 0xcb, 0x0e, 0xbe, 0x46, 0x35, 0x07, 0xbe, 0xcf, 0x92, 0x8d, 0xbd,
        0x44, 0x50, 0x32, 0xbd, 0x68, 0x9c, 0x44, 0xbc, 0x9d, 0x00, 0x37, 0xbc,
        0xe5, 0x15, 0xb5, 0xbc, 0x16, 0x0c, 0xc2, 0xbd, 0xab, 0x2d, 0x43, 0xbd,
        0xf8, 0x64, 0x3f, 0x3b, 0x6b, 0x7d, 0x1e, 0xbd, 0xe5, 0x0b, 0x0f, 0x3e,
        0x32, 0x7c, 0xcc, 0xbd, 0x71, 0x08, 0xf7, 0x3d, 0x47, 0x58, 0x89, 0x3d,
        0xb4, 0xdd, 0xba, 0xbd, 0x35, 0xf0, 0xf5, 0x3d, 0x20, 0x62, 0x83, 0x3d,
        0x13, 0xbb, 0x9e, 0x3d, 0x88, 0xb8, 0x5b, 0x3d, 0x92, 0x35, 0x7e, 0x3b,
        0xdd, 0x64, 0xf4, 0x3d, 0xa3, 0xb6, 0xf5, 0x3c, 0x6b, 0x4f, 0x81, 0x3c,
        0xad, 0x6f, 0xf6, 0xbd, 0x13, 0x7e, 0xa4, 0xbd, 0xe8, 0xf2, 0xd6, 0x3d,
        0x54, 0x2d, 0x0d, 0xbe, 0xc7, 0x26, 0x9b, 0xbd, 0x95, 0x27, 0x06, 0xbe,
        0x7a, 0x9c, 0xaa, 0xbd, 0x66, 0x69, 0xeb, 0x3d, 0x7e, 0x50, 0xdd, 0x3d,
        0xe0, 0x28, 0x70, 0xbd, 0xec, 0x9f, 0x0b, 0x3d, 0x06, 0x3d, 0x29, 0xbc,
        0x70, 0xf7, 0x00, 0x3e, 0x19, 0x1d, 0xa1, 0xbd, 0x2d, 0xf4, 0xad, 0x3d,
        0xf2, 0xa0, 0xe0, 0x3d, 0x41, 0x35, 0xe1, 0xbd, 0x99, 0x5e, 0xa4, 0xbd,
        0x00, 0x93, 0x87, 0x3d, 0xf9, 0xd3, 0x03, 0x3e, 0x4d, 0x48, 0xf0, 0x3c,
        0x66, 0xed, 0xcc, 0x3c, 0x45, 0xfb, 0xfb, 0x3c, 0xe2, 0xcd, 0x7a, 0x3d,
        0x44, 0x29, 0x61, 0xbc, 0xd3, 0x6a, 0x27, 0x3c, 0x52, 0x5c, 0xda, 0x3c,
        0xad, 0x76, 0xb5, 0xbd, 0x52, 0x2e, 0xed, 0xbd, 0xd6, 0x54, 0x69, 0x3d,
        0x37, 0xcc, 0xc4, 0xbd, 0x6d, 0xdd, 0xec, 0xbd, 0xc5, 0x61, 0x81, 0x3d,
        0xc3, 0xee, 0xe6, 0x3d, 0x97, 0xb2, 0x5c, 0x3d, 0xd8, 0x5f, 0x8f, 0xbd,
        0x5a, 0x50, 0x8d, 0x3d, 0xf8, 0x4b, 0x97, 0x3d, 0x6d, 0x67, 0xbd, 0xbd,
        0xc6, 0x89, 0x98, 0xbd, 0xcd, 0x15, 0x02, 0x3e, 0xaa, 0x5e, 0x0b, 0xbd,
        0xe6, 0x0b, 0xf9, 0xbd, 0xf1, 0xd9, 0xb5, 0xbd, 0xae, 0x2f, 0xa4, 0xbb,
        0xb7, 0x2f, 0x3b, 0xbd, 0x5d, 0x13, 0x93, 0xbc, 0x7a, 0x91, 0x36, 0x3d,
        0xc8, 0x81, 0x0b, 0xbe, 0x8f, 0xf0, 0x0e, 0x3e, 0xc9, 0x9d, 0x76, 0x3d,
        0x42, 0x2b, 0xc7, 0x3b, 0x06, 0x85, 0x65, 0x3d, 0x63, 0x20, 0x7b, 0x3d,
        0xd1, 0xd9, 0x65, 0x3c, 0xc8, 0xcc, 0xbc, 0xbd, 0x80, 0x59, 0xd1, 0x3a,
        0xde, 0x0b, 0x25, 0xbe, 0xe8, 0x8c, 0xaf, 0xbe, 0xfa, 0x94, 0xce, 0x3d,
        0xaf, 0x0e, 0x13, 0x3e, 0xed, 0xbc, 0x7c, 0x3d, 0xb4, 0x11, 0x63, 0xbe,
        0x18, 0x38, 0x8d, 0xbc, 0x14, 0x67, 0x57, 0xbd, 0xc1, 0x07, 0x3e, 0x3d,
        0xdc, 0x98, 0x9b, 0x3e, 0x7b, 0x3a, 0x1b, 0x3e, 0x42, 0x5f, 0x95, 0xbd,
        0xa3, 0x68, 0x43, 0xbc, 0x51, 0xe7, 0x46, 0x3e, 0xda, 0xf9, 0x56, 0x3d,
        0xc5, 0x78, 0x97, 0x3d, 0x18, 0x51, 0x38, 0x3d, 0xea, 0x50, 0x52, 0xbd,
        0x6d, 0x65, 0x93, 0xbd, 0x71, 0xc5, 0xbc, 0xbe, 0xa1, 0x40, 0xd5, 0xbd,
        0x14, 0x00, 0xed, 0x3d, 0xe6, 0x08, 0x0f, 0xbd, 0x44, 0x61, 0xbf, 0xbd,
        0xb9, 0x34, 0x88, 0xbd, 0xea, 0xf9, 0xd7, 0xbe, 0xf0, 0xf3, 0x9a, 0x3e,
        0x44, 0xf4, 0x22, 0x3e, 0x80, 0x7e, 0x2c, 0x3e, 0x41, 0x96, 0x49, 0xbd,
        0xe5, 0x38, 0xdb, 0x3d, 0xe2, 0xf8, 0x1d, 0xbe, 0xa8, 0x07, 0x81, 0x3d,
        0xdd, 0x03, 0xbb, 0x3d, 0x34, 0xe8, 0xbf, 0x3c, 0x12, 0x75, 0x86, 0x3e,
        0x4c, 0x7d, 0x30, 0xbd, 0xab, 0x3d, 0x7b, 0x3e, 0x38, 0xe9, 0x42, 0x3d,
        0x0a, 0xcd, 0x2e, 0xbe, 0xbd, 0xf6, 0x22, 0x3e, 0xc4, 0xfa, 0x70, 0x3e,
        0xbc, 0x2c, 0x63, 0xbe, 0xb8, 0x82, 0x68, 0x3e, 0xfd, 0xba, 0x9e, 0xbd,
        0x08, 0xa4, 0xd2, 0x3d, 0x75, 0xaa, 0x06, 0xbe, 0x62, 0x81, 0xc3, 0x3e,
        0x5e, 0xe2, 0x9f, 0xbd, 0x05, 0x88, 0x9d, 0x3d, 0x88, 0x5d, 0xf3, 0x3d,
        0xfe, 0x1d, 0x16, 0x3e, 0x26, 0xe8, 0x31, 0xbe, 0x04, 0x6a, 0xb7, 0xbd,
        0x93, 0xd3, 0xa6, 0xbc, 0xba, 0xf0, 0xe6, 0x3c, 0x10, 0x93, 0x4b, 0x3c,
        0x7c, 0x5f, 0x5b, 0x3e, 0x5f, 0x29, 0x82, 0xbc, 0x45, 0xb2, 0xca, 0xbe,
        0xf5, 0x6d, 0x6b, 0xbd, 0xf3, 0x80, 0x17, 0xbd, 0x8a, 0x46, 0x45, 0x3c,
        0xf6, 0xa1, 0x05, 0xbe, 0x1b, 0x0b, 0x42, 0xbe, 0xeb, 0x87, 0xc6, 0xbc,
        0xc2, 0x7f, 0xe7, 0x39, 0x23, 0xcf, 0xc2, 0xbd, 0xcd, 0x53, 0xbe, 0x3d,
        0xe8, 0x8b, 0xd7, 0x3c, 0x92, 0xab, 0xf1, 0xbd, 0x8d, 0x2d, 0x5e, 0xbe,
        0x1b, 0x56, 0xfb, 0xbd, 0x3a, 0xfd, 0xe6, 0xbd, 0x57, 0x56, 0xd9, 0x3e,
        0xa4, 0x6f, 0x8f, 0x3e, 0x79, 0x95, 0xc1, 0x3d, 0xb4, 0x50, 0x0c, 0x3e,
        0xd7, 0x72, 0xfa, 0x3d, 0x7e, 0xf5, 0x9c, 0xba, 0x94, 0x0a, 0x31, 0x3e,
        0x14, 0xe0, 0x00, 0xbe, 0xb6, 0xab, 0x04, 0xbb, 0xfd, 0xdb, 0xfa, 0x3d,
        0x46, 0x47, 0x80, 0x3d, 0x7d, 0x0b, 0x12, 0x3e, 0xd3, 0xcb, 0xc9, 0x3b,
        0xca, 0xbe, 0x88, 0x3b, 0x50, 0x1b, 0x90, 0x3e, 0xed, 0x91, 0xee, 0x3d,
        0x73, 0x8c, 0xe2, 0xbd, 0xb6, 0xac, 0x72, 0x3d, 0xaa, 0x06, 0xa3, 0x3d,
        0x28, 0xfb, 0xc6, 0x3e, 0x11, 0xf1, 0xae, 0x3d, 0xcf, 0x40, 0x8c, 0x3e,
        0x1b, 0xaa, 0x40, 0xbd, 0xe4, 0x1e, 0x4d, 0x3d, 0x0f, 0x00, 0xdb, 0xbd,
        0x7a, 0x41, 0xd4, 0xbc, 0x93, 0x1a, 0xf7, 0x3c, 0xc4, 0xad, 0x12, 0x3d,
        0x30, 0x6b, 0x30, 0x3d, 0x6e, 0xf3, 0x16, 0x3e, 0x74, 0xb6, 0x3e, 0x3e,
        0x59, 0xfc, 0x3b, 0x3d, 0x28, 0xb7, 0x3b, 0x3e, 0x52, 0x32, 0xac, 0x3d,
        0xeb, 0x6a, 0xed, 0xbc, 0x41, 0x59, 0x26, 0xba, 0xc6, 0x77, 0x04, 0x3e,
        0x2d, 0xdc, 0xbe, 0x3d, 0xf0, 0x20, 0x33, 0xbd, 0x5b, 0x48, 0x5c, 0x3e,
        0x58, 0xe0, 0xd3, 0xbd, 0x9e, 0xca, 0x4b, 0x3e, 0xa6, 0xd3, 0x27, 0xbb,
        0x98, 0xfc, 0x37, 0xbd, 0x39, 0x28, 0xcf, 0xbd, 0x50, 0xf3, 0x47, 0x3e,
        0x32, 0xef, 0xca, 0xbc, 0x13, 0x81, 0x58, 0x3e, 0xe4, 0x08, 0x20, 0x3e,
        0xb3, 0x1c, 0x27, 0x3e, 0x79, 0x79, 0x43, 0x3e, 0x71, 0x4a, 0xc1, 0x3d,
        0xef, 0xa3, 0x75, 0x3e, 0x7a, 0xf3, 0x3f, 0x3e, 0xb0, 0x08, 0x68, 0x3e,
        0x3a, 0xe6, 0x55, 0x3d, 0x4b, 0x58, 0xc3, 0xbc, 0xec, 0x25, 0xb2, 0xbc,
        0x4a, 0x74, 0xa2, 0xbd, 0xbb, 0x3b, 0x60, 0xbd, 0xb4, 0xfd, 0x92, 0x3e,
        0x13, 0x7a, 0xd7, 0xbd, 0x36, 0x8e, 0xa8, 0x3e, 0xab, 0x7d, 0x68, 0x3e,
        0xc1, 0xab, 0x62, 0x3e, 0x2f, 0x0f, 0x3c, 0x3e, 0xfb, 0x9e, 0x3c, 0x3e,
        0xc6, 0x41, 0x85, 0x3e, 0xb0, 0x1f, 0xee, 0x3e, 0x2f, 0x02, 0x0e, 0xbd,
        0xeb, 0x71, 0x69, 0x3e, 0x50, 0x0d, 0x63, 0xbe, 0x0f, 0xd7, 0xbe, 0xbd,
        0x00, 0x0e, 0xab, 0x3e, 0xd5, 0x46, 0x0d, 0xbd, 0xaf, 0xf1, 0x0b, 0x3d,
        0xb0, 0x88, 0x55, 0x3d, 0x0d, 0x0d, 0x4b, 0x3e, 0x68, 0xdb, 0x2c, 0x3e,
        0xa3, 0x58, 0xb5, 0x3e, 0x7a, 0xca, 0x14, 0xbe, 0x4f, 0xd2, 0xe2, 0xbc,
        0x47, 0xea, 0x46, 0xbe, 0x7b, 0x0f, 0x12, 0x3e, 0xc6, 0xc6, 0x77, 0xbd,
        0xe9, 0x59, 0x2b, 0xbe, 0x5f, 0xad, 0xd1, 0x3d, 0x19, 0xbb, 0xde, 0x3c,
        0x11, 0x65, 0x4c, 0xbe, 0x39, 0x5b, 0x6d, 0x3d, 0x7f, 0x8f, 0xfa, 0x3d,
        0xda, 0x1a, 0x7b, 0xbd, 0x2e, 0xcd, 0x06, 0xbe, 0x3e, 0x03, 0x1c, 0x3e,
        0x05, 0x81, 0x44, 0x3d, 0x59, 0x21, 0x1a, 0xbd, 0xab, 0x5d, 0x2d, 0x3e,
        0x37, 0x52, 0xeb, 0x3d, 0x66, 0xde, 0x0b, 0x3d, 0xcf, 0xc3, 0x3e, 0x3d,
        0x2f, 0xb3, 0xa8, 0xbd, 0xd9, 0x5e, 0xa8, 0x3e, 0x4b, 0x7f, 0x80, 0x3d,
        0x29, 0x56, 0xf5, 0xbc, 0x77, 0xd1, 0xd2, 0x3d, 0x86, 0x12, 0xa0, 0xbd,
        0x16, 0xbc, 0x93, 0xbd, 0x66, 0x00, 0x89, 0x3d, 0xf3, 0x5f, 0x83, 0x3e,
        0xeb, 0xde, 0x74, 0x3d, 0xcb, 0xee, 0x79, 0x3e, 0x47, 0x96, 0x9a, 0x3e,
        0x8e, 0x2d, 0x8e, 0xbe, 0x39, 0xc5, 0x40, 0x3e, 0x57, 0xda, 0xd9, 0x3c,
        0xa0, 0x3a, 0xa4, 0x3e, 0x92, 0x99, 0xbe, 0x3e, 0xf2, 0x76, 0x33, 0x3d,
        0xb4, 0x10, 0xd4, 0x3d, 0xcd, 0x7d, 0x07, 0xbe, 0xc2, 0x70, 0xc0, 0x3d,
        0xb4, 0x44, 0xaa, 0x3d, 0x09, 0xd0, 0xd7, 0x3d, 0xba, 0xc0, 0x9c, 0x3d,
        0x18, 0x26, 0x24, 0x3e, 0x4f, 0x74, 0x59, 0x3e, 0xc0, 0x61, 0x1d, 0x3d,
        0x20, 0x65, 0xab, 0x3d, 0xa2, 0x0d, 0x39, 0xbe, 0x59, 0xad, 0xad, 0xbd,
        0x11, 0x0f, 0x42, 0xbd, 0x6c, 0xd9, 0x3e, 0x3e, 0x4a, 0xc2, 0x97, 0x3d,
        0x00, 0x7a, 0x77, 0xbe, 0x7b, 0xb2, 0x85, 0xbd, 0x2f, 0x58, 0x4a, 0x3e,
        0x2e, 0xd6, 0x37, 0xbe, 0x82, 0xb9, 0xe7, 0x3d, 0xf5, 0xeb, 0x25, 0x3d,
        0xd3, 0xbd, 0x41, 0x3d, 0x73, 0x30, 0x01, 0xbe, 0x73, 0xe4, 0x4c, 0xbe,
        0xe9, 0xff, 0x09, 0xbe, 0x4e, 0x08, 0x42, 0xbd, 0xc8, 0x4f, 0x88, 0x3e,
        0x5b, 0x34, 0x4a, 0x3e, 0xd5, 0x0e, 0x6e, 0x3e, 0x27, 0x8d, 0xd5, 0x3d,
        0x34, 0x88, 0x4d, 0x3e, 0x67, 0x84, 0xcd, 0xba, 0xc5, 0x49, 0xbc, 0x3d,
        0x81, 0xf5, 0x9e, 0xbe, 0x15, 0xbd, 0x4b, 0x3e, 0x91, 0x0e, 0x0a, 0xbe,
        0x8e, 0x84, 0x43, 0x3e, 0xaf, 0x7e, 0x43, 0x3e, 0xa0, 0x2f, 0xbf, 0x3c,
        0x1c, 0x1a, 0xc1, 0x3d, 0x08, 0xa2, 0x7c, 0x3e, 0x01, 0xb4, 0x52, 0xbd,
        0xf4, 0x9f, 0x6c, 0xbe, 0xa0, 0x68, 0x53, 0x3c, 0x9d, 0xaa, 0x65, 0x3e,
        0x62, 0xf8, 0xcc, 0x3e, 0x32, 0xc5, 0x64, 0xbe, 0x9f, 0x52, 0x80, 0xbe,
        0x1c, 0x16, 0x63, 0xbe, 0x8d, 0xc5, 0x85, 0x3e, 0x36, 0x92, 0x30, 0x3e,
        0x9f, 0x8d, 0xbe, 0xbd, 0xc9, 0x4f, 0x79, 0x3d, 0x98, 0xeb, 0x4e, 0x3e,
        0xe5, 0xce, 0x38, 0x3d, 0x1a, 0x5d, 0xf1, 0xbd, 0xcc, 0xc4, 0xd8, 0x3d,
        0xda, 0xa6, 0xb4, 0xbe, 0x86, 0x28, 0x3b, 0xbe, 0x2c, 0x67, 0x3b, 0xbd,
        0x88, 0x5d, 0x2a, 0x3e, 0x67, 0xce, 0x1a, 0xbe, 0x56, 0xee, 0x93, 0x3d,
        0xaa, 0xa7, 0x49, 0xbe, 0xb6, 0xc6, 0xe7, 0xbd, 0xe7, 0xd9, 0x3e, 0x3e,
        0x73, 0xf1, 0x9e, 0x3e, 0x0b, 0xa9, 0x29, 0x3c, 0x5d, 0xe6, 0xb5, 0xbb,
        0x9c, 0x2c, 0x0a, 0xbd, 0x0d, 0xfc, 0x05, 0xbe, 0x5d, 0x12, 0xbe, 0xbd,
        0xb5, 0x7e, 0xfe, 0x3c, 0xec, 0x74, 0x77, 0x3e, 0xef, 0xe4, 0xd7, 0x3d,
        0x5b, 0xf6, 0x91, 0xbc, 0x24, 0xd6, 0x4d, 0xbe, 0xc8, 0xf7, 0xf1, 0x3c,
        0xe0, 0xd4, 0x82, 0x3d, 0x56, 0x5b, 0x01, 0x3e, 0x02, 0xc5, 0xc8, 0x3d,
        0x16, 0xbb, 0x05, 0xbe, 0x72, 0xae, 0xed, 0x3d, 0xd8, 0xde, 0xb3, 0xbd,
        0xe7, 0x86, 0x5b, 0x3d, 0x07, 0x3e, 0x11, 0x3e, 0xc2, 0x22, 0x73, 0x3e,
        0x93, 0xf4, 0x24, 0xbe, 0xd0, 0xaa, 0x5d, 0xbb, 0x75, 0x02, 0x84, 0xbe,
        0x5f, 0x28, 0xc7, 0x3d, 0xf4, 0x5a, 0xd1, 0x3b, 0x57, 0xdc, 0x05, 0x3c,
        0xb0, 0x1d, 0xc3, 0x3c, 0x03, 0xd7, 0xb0, 0xbd, 0xfe, 0x51, 0xfc, 0xbe,
        0xb3, 0x0e, 0x3f, 0xbe, 0x22, 0xb8, 0x08, 0xbe, 0xbc, 0xd7, 0xcb, 0xbd,
        0x6b, 0x5f, 0x19, 0xbe, 0x1e, 0x40, 0x77, 0x3c, 0x22, 0xf4, 0xe3, 0xbd,
        0x3e, 0x23, 0x06, 0xbd, 0x54, 0xc6, 0x06, 0xbe, 0xd3, 0xb6, 0x41, 0x3d,
        0x1c, 0x97, 0xd7, 0xbd, 0x62, 0x79, 0x56, 0x3e, 0x8f, 0x9c, 0x2e, 0x3e,
        0xdb, 0xb7, 0x18, 0x3e, 0x05, 0x9c, 0xe1, 0xbd, 0x47, 0x14, 0xb6, 0x3d,
        0x1a, 0x25, 0xa4, 0x3d, 0x0b, 0xf1, 0x65, 0x3e, 0xb2, 0xb8, 0xa3, 0x3d,
        0x8c, 0x26, 0x8a, 0x3c, 0x7c, 0xea, 0x23, 0x3e, 0xb5, 0x84, 0x3a, 0xbc,
        0xf5, 0xda, 0x36, 0xbd, 0x20, 0x39, 0xc2, 0x3d, 0x6d, 0x38, 0x5d, 0x3e,
        0x15, 0xb3, 0x84, 0x3e, 0x24, 0x7b, 0x62, 0x3e, 0xd1, 0x7f, 0xc4, 0xbe,
        0x45, 0x08, 0x1c, 0x3e, 0x1a, 0xd8, 0x4c, 0xbd, 0x34, 0x77, 0xf8, 0x3d,
        0xfd, 0x23, 0xc8, 0xbd, 0xc8, 0x5c, 0x46, 0x3e, 0x1c, 0xc9, 0xde, 0x3d,
        0x3f, 0x20, 0x61, 0x3d, 0x3a, 0xa2, 0x87, 0xbd, 0x33, 0x17, 0x7e, 0xbc,
        0x3b, 0x30, 0xed, 0xbd, 0xe0, 0x6b, 0xb0, 0x3b, 0x99, 0x28, 0xb3, 0xbd,
        0x02, 0x5c, 0x96, 0x3e, 0xb0, 0x50, 0x7e, 0xbd, 0x36, 0xe3, 0xcc, 0x3d,
        0xcb, 0x46, 0x9b, 0x3e, 0x51, 0xbd, 0x96, 0xbd, 0x19, 0x4e, 0xef, 0xbd,
        0xf8, 0x17, 0x1c, 0xbe, 0xab, 0xda, 0xb3, 0x3e, 0xcb, 0x94, 0x20, 0xbe,
        0x7a, 0x4f, 0x08, 0x3d, 0xba, 0x5c, 0xa4, 0x3c, 0x8d, 0x9c, 0x5d, 0xbd,
        0xb0, 0x9a, 0x9a, 0x3e, 0x17, 0x83, 0xaa, 0x3d, 0x25, 0x13, 0x52, 0xbd,
        0x35, 0x72, 0x25, 0x3e, 0x8e, 0xf1, 0xb7, 0x3d, 0xf4, 0xeb, 0x83, 0x3c,
        0x7f, 0x81, 0x81, 0x3e, 0x52, 0x9e, 0x4a, 0xbd, 0x13, 0x5f, 0x3d, 0x3e,
        0xf5, 0x56, 0x2c, 0xbe, 0x7e, 0x01, 0x1a, 0x3e, 0x95, 0x8d, 0x05, 0x3e,
        0x75, 0xdf, 0x69, 0x3e, 0x28, 0xa4, 0xb5, 0xbc, 0x1b, 0xb7, 0x2f, 0x3d,
        0x50, 0x18, 0x9d, 0xbe, 0xf6, 0x80, 0x22, 0xbe, 0x38, 0x58, 0x0f, 0xbd,
        0xdb, 0xd8, 0x3e, 0x3e, 0xcd, 0xbd, 0xf9, 0xbd, 0xee, 0xc1, 0x32, 0x3e,
        0xfc, 0x2a, 0x2a, 0xbd, 0x82, 0x8a, 0x61, 0xbe, 0x78, 0x29, 0xde, 0x3d,
        0x61, 0x5c, 0xa8, 0x3d, 0xf4, 0x93, 0x66, 0x3d, 0x22, 0xdb, 0x1a, 0xbd,
        0x37, 0xc0, 0xfc, 0xbd, 0x3a, 0x93, 0x8a, 0x3d, 0x42, 0xa0, 0xcb, 0x3d,
        0xb7, 0xae, 0x76, 0xbc, 0x5d, 0x82, 0xca, 0x3c, 0xec, 0xc8, 0x00, 0x3c,
        0xcc, 0x1e, 0x8f, 0xbc, 0x6e, 0x61, 0x48, 0x3e, 0x1d, 0x03, 0x22, 0x3e,
        0x52, 0x55, 0x8f, 0x3e, 0x81, 0x12, 0x3b, 0x3e, 0x1c, 0x44, 0x20, 0x3d,
        0x97, 0x8e, 0x9d, 0xbe, 0x82, 0x3a, 0x41, 0x3c, 0x81, 0x29, 0x05, 0xbd,
        0x43, 0x0d, 0xa3, 0x3d, 0x70, 0xfd, 0x34, 0x3e, 0x51, 0x7a, 0x2a, 0x3e,
        0x96, 0x2e, 0x60, 0x3e, 0x7c, 0x69, 0x0a, 0xbe, 0x1f, 0x2e, 0xe6, 0x3d,
        0x01, 0xd1, 0xf1, 0x3e, 0x82, 0x77, 0xd6, 0x3d, 0xde, 0xed, 0x66, 0x3e,
        0xb5, 0x71, 0x80, 0x3e, 0xc9, 0x73, 0x26, 0x3e, 0x72, 0xe8, 0x1b, 0x3e,
        0x5e, 0x46, 0x98, 0x3e, 0xec, 0x62, 0xcd, 0xbe, 0x2f, 0xe9, 0x24, 0x3d,
        0xf0, 0x94, 0x86, 0x3d, 0x8c, 0x67, 0x98, 0x3e, 0xc9, 0xb3, 0x0c, 0x3e,
        0xea, 0x44, 0x09, 0x3d, 0xd6, 0x2e, 0xff, 0x3d, 0x6d, 0xfb, 0x54, 0x3e,
        0xb7, 0x3a, 0xb2, 0xbd, 0xe7, 0x8b, 0x84, 0xbb, 0xa2, 0x88, 0x8b, 0x3d,
        0x19, 0x8e, 0x39, 0xbd, 0xd0, 0xc7, 0x77, 0x3d, 0x3c, 0x4e, 0x08, 0xbe,
        0x7b, 0x1d, 0xbe, 0x3b, 0x49, 0x09, 0x1f, 0xbe, 0x43, 0x01, 0xaa, 0x3e,
        0xda, 0x44, 0x60, 0x3d, 0xdc, 0xea, 0xf6, 0x3d, 0xf7, 0x59, 0xad, 0xbd,
        0x99, 0x8a, 0xcd, 0x3c, 0x66, 0xf2, 0xf6, 0x3c, 0xe5, 0x9b, 0x0a, 0x3e,
        0x80, 0xc2, 0x92, 0x3c, 0xed, 0xc2, 0xc0, 0xbc, 0x9f, 0xf5, 0x4a, 0x3e,
        0x66, 0xa8, 0xa1, 0x3d, 0x50, 0x87, 0x94, 0x3b, 0x73, 0xbc, 0xbb, 0x3e,
        0xb4, 0xfa, 0x4e, 0x3e, 0x3d, 0x24, 0x27, 0x3e, 0x0d, 0x2f, 0x0d, 0x3e,
        0xe3, 0xb5, 0x68, 0xbe, 0x54, 0xa7, 0x11, 0x3e, 0xf4, 0x64, 0xd3, 0x3d,
        0x41, 0xd6, 0xba, 0x3d, 0x63, 0xe4, 0xf0, 0x3d, 0x97, 0x73, 0xd3, 0x3c,
        0x0d, 0x45, 0x87, 0x3e, 0x23, 0xe8, 0x1b, 0x3e, 0x30, 0xfb, 0x85, 0x3e,
        0x65, 0x6c, 0x91, 0xbc, 0xcc, 0x1f, 0x9f, 0x3e, 0xb5, 0x7f, 0x14, 0x3e,
        0xcc, 0xf9, 0x53, 0x3e, 0xb2, 0xd0, 0xc7, 0xbd, 0x03, 0x97, 0x21, 0x3e,
        0x19, 0x4b, 0x1f, 0xbe, 0xf2, 0x0d, 0x0d, 0xbe, 0x13, 0x13, 0x89, 0x3d,
        0x66, 0xbb, 0x1e, 0x3e, 0x86, 0xec, 0x1d, 0x3d, 0xdb, 0x43, 0xee, 0x3d,
        0xf1, 0x64, 0x7f, 0x3c, 0x8d, 0x2f, 0x88, 0xbd, 0x3b, 0x17, 0x8b, 0x3e,
        0xe7, 0xcf, 0xa6, 0xbb, 0xe0, 0x43, 0x8e, 0x3e, 0x0a, 0xdc, 0x82, 0x3c,
        0xec, 0x43, 0xf5, 0xbb, 0x60, 0xc5, 0x01, 0x3d, 0xce, 0xa2, 0x8f, 0x3b,
        0xb1, 0x09, 0x86, 0x3d, 0xed, 0xd7, 0x63, 0x3e, 0x5a, 0x8f, 0x9c, 0x3d,
        0xd9, 0x3a, 0xa8, 0xbc, 0x2a, 0x0b, 0x1a, 0xbe, 0xd3, 0xcb, 0xd0, 0x3d,
        0xe9, 0x8b, 0xd8, 0x3d, 0x7f, 0x63, 0x61, 0x3e, 0xa8, 0x71, 0x84, 0x3c,
        0x24, 0x6a, 0xd3, 0x3d, 0x68, 0xe5, 0x41, 0xbe, 0xe9, 0x65, 0x90, 0xbc,
        0x20, 0xac, 0x05, 0x3e, 0x2f, 0x81, 0x4a, 0x3d, 0xcf, 0x04, 0x0a, 0x3e,
        0x27, 0x0e, 0x5a, 0x3d, 0xda, 0xb4, 0x76, 0x3d, 0x1e, 0xd3, 0x5f, 0xbe,
        0x5c, 0x4f, 0xbf, 0x3d, 0x11, 0x42, 0xab, 0xbd, 0x9c, 0xc5, 0xbd, 0x3d,
        0x49, 0xdb, 0x7c, 0x3e, 0x3b, 0xee, 0x86, 0x3d, 0x22, 0xb2, 0x2f, 0xbe,
        0xef, 0xba, 0xad, 0xbd, 0xcb, 0xca, 0x6d, 0x3d, 0xbf, 0xc4, 0xa0, 0x3c,
        0x28, 0x9a, 0xb5, 0xbe, 0x70, 0xef, 0x8f, 0x3d, 0x96, 0x50, 0x94, 0x3e,
        0x8e, 0x3b, 0x8f, 0x3c, 0xc3, 0x65, 0x1c, 0xbe, 0x62, 0xc2, 0xd6, 0xbd,
        0x40, 0xab, 0xbc, 0xbe, 0x1f, 0xa3, 0x65, 0x3e, 0xca, 0xdd, 0x02, 0x3e,
        0xae, 0xbd, 0x91, 0x3e, 0xd1, 0x5a, 0x59, 0xbd, 0xa1, 0x2b, 0x75, 0x3d,
        0x9a, 0x1d, 0x0f, 0xbe, 0xbd, 0x7a, 0x81, 0x3d, 0x18, 0xc6, 0x23, 0xbe,
        0x85, 0x03, 0x64, 0x3e, 0x87, 0x23, 0xe1, 0x3d, 0x3e, 0xa1, 0x78, 0x3e,
        0x83, 0x2b, 0xbe, 0x3d, 0x9d, 0x40, 0x96, 0xbd, 0x92, 0x64, 0x77, 0xbd,
        0x3e, 0x5f, 0xf3, 0x3d, 0x64, 0x84, 0x6c, 0x3e, 0xda, 0x03, 0xa1, 0xbe,
        0xb7, 0xfd, 0xe7, 0xbd, 0xc4, 0xdb, 0x6a, 0x3d, 0x23, 0xe6, 0x9c, 0x3e,
        0x73, 0xeb, 0x40, 0x3d, 0xc8, 0xe3, 0x48, 0x3e, 0xe1, 0xe6, 0x47, 0xbd,
        0x49, 0x4c, 0xc3, 0x3d, 0x0a, 0xd0, 0x98, 0x3d, 0x7b, 0xb3, 0x4d, 0x3d,
        0x6d, 0x50, 0x18, 0x3e, 0xdb, 0x10, 0x20, 0x3e, 0xd7, 0x71, 0x7b, 0xbc,
        0xc9, 0x3b, 0x3e, 0x3d, 0x93, 0x9a, 0x1a, 0xbe, 0xf6, 0xd7, 0x89, 0xbe,
        0xd3, 0x50, 0x21, 0x3e, 0x23, 0x31, 0x14, 0xbe, 0xc7, 0x8e, 0xd7, 0x3c,
        0x56, 0x64, 0xe8, 0xbd, 0x2e, 0xdb, 0x4c, 0x3e, 0x8d, 0xba, 0x9e, 0xbe,
        0x1f, 0x2b, 0x5b, 0xbd, 0xc7, 0xe1, 0x43, 0x3e, 0xc8, 0x13, 0xae, 0xbd,
        0x6d, 0xc7, 0x6a, 0xbc, 0x18, 0xa1, 0x73, 0xbe, 0x23, 0xf4, 0x38, 0xbe,
        0x2d, 0xf8, 0xbf, 0x3c, 0x6f, 0x39, 0x2c, 0xbe, 0xa2, 0x60, 0xd1, 0xbd,
        0xde, 0x36, 0x9d, 0x3d, 0xae, 0xf8, 0x52, 0x3e, 0xfe, 0x74, 0x85, 0xbe,
        0x61, 0xcb, 0x09, 0x3e, 0xc6, 0xc0, 0x0c, 0xbe, 0xb6, 0x7f, 0x0a, 0x3d,
        0x5d, 0x06, 0xba, 0x3c, 0xec, 0x11, 0x09, 0xbe, 0x8e, 0x71, 0xa5, 0xbe,
        0x15, 0x0c, 0x91, 0x3e, 0xe7, 0xbc, 0x49, 0xbe, 0x8e, 0x09, 0x93, 0x3d,
        0xfd, 0x7f, 0x0c, 0x3d, 0xd8, 0x65, 0xa5, 0x3d, 0x63, 0x81, 0x64, 0xbe,
        0xac, 0x31, 0x99, 0x3d, 0xd9, 0xce, 0x2a, 0xbd, 0x26, 0x2b, 0x75, 0x3c,
        0xeb, 0x9b, 0x40, 0xbe, 0xd6, 0x32, 0x2a, 0x3e, 0xb3, 0xb0, 0x31, 0x3e,
        0xbf, 0x07, 0x02, 0x3d, 0x05, 0x80, 0x48, 0xbe, 0x44, 0xc4, 0x29, 0xbe,
        0xd5, 0xc6, 0xde, 0x3d, 0x54, 0x93, 0xef, 0x3d, 0xf7, 0xd6, 0xc7, 0xbd,
        0x08, 0xba, 0x9e, 0x3d, 0xc3, 0xd3, 0x8f, 0xbd, 0xc0, 0x85, 0x96, 0xbd,
        0x9d, 0xda, 0x07, 0xbe, 0x90, 0xe2, 0x1d, 0x3b, 0x84, 0x6c, 0xe2, 0xbd,
        0x28, 0x37, 0x1f, 0x3c, 0x1a, 0xf5, 0xa5, 0x3d, 0x42, 0xdb, 0xac, 0x3c,
