#pragma once

#ifdef __has_attribute
#define HAVE_ATTRIBUTE(x) __has_attribute(x)
#else
#define HAVE_ATTRIBUTE(x) 0
#endif
#if HAVE_ATTRIBUTE(aligned) || (defined(__GNUC__) && !defined(__clang__))
#define DATA_ALIGN_ATTRIBUTE __attribute__((aligned(4)))
#else
#define DATA_ALIGN_ATTRIBUTE
#endif

// automatically configure network
#define TF_NUM_OPS 2
#define TF_NUM_INPUTS 4
#define TF_NUM_OUTPUTS 3
#define TF_OP_FULLYCONNECTED
#define TF_OP_SOFTMAX

// tf.resolver.AddFullyConnected();



// sample data
float x0[4] = {0.22222222222f, 0.62500000000f, 0.06779661017f, 0.04166666667f};
float x1[4] = {0.75000000000f, 0.50000000000f, 0.62711864407f, 0.54166666667f};
float x2[4] = {0.55555555556f, 0.54166666667f, 0.84745762712f, 1.00000000000f};


/** model size = 5048 bytes **/
const unsigned char irisModel[] DATA_ALIGN_ATTRIBUTE = { 0x1c, 0x00, 0x00, 0x00, 0x54, 0x46, 0x4c, 0x33, 0x14, 0x00, 0x20, 0x00, 0x1c, 0x00, 0x18, 0x00, 0x14, 0x00, 0x10, 0x00, 0x0c, 0x00, 0x00, 0x00, 0x08, 0x00, 0x04, 0x00, 0x14, 0x00, 0x00, 0x00, 0x1c, 0x00, 0x00, 0x00, 0x90, 0x00, 0x00, 0x00, 0xe8, 0x00, 0x00, 0x00, 0x88, 0x0d, 0x00, 0x00, 0x98, 0x0d, 0x00, 0x00, 0x54, 0x13, 0x00, 0x00, 0x03, 0x00, 0x00, 0x00, 0x01, 0x00, 0x00, 0x00, 0x10, 0x00, 0x00, 0x00, 0x00, 0x00, 0x0a, 0x00, 0x10, 0x00, 0x0c, 0x00, 0x08, 0x00, 0x04, 0x00, 0x0a, 0x00, 0x00, 0x00, 0x0c, 0x00, 0x00, 0x00, 0x1c, 0x00, 0x00, 0x00, 0x38, 0x00, 0x00, 0x00, 0x0f, 0x00, 0x00, 0x00, 0x73, 0x65, 0x72, 0x76, 0x69, 0x6e, 0x67, 0x5f, 0x64, 0x65, 0x66, 0x61, 0x75, 0x6c, 0x74, 0x00, 0x01, 0x00, 0x00, 0x00, 0x04, 0x00, 0x00, 0x00, 0x98, 0xff, 0xff, 0xff, 0x0a, 0x00, 0x00, 0x00, 0x04, 0x00, 0x00, 0x00, 0x07, 0x00, 0x00, 0x00, 0x64, 0x65, 0x6e, 0x73, 0x65, 0x5f, 0x32, 0x00, 0x01, 0x00, 0x00, 0x00, 0x04, 0x00, 0x00, 0x00, 0x5a, 0xf2, 0xff, 0xff, 0x04, 0x00, 0x00, 0x00, 0x0b, 0x00, 0x00, 0x00, 0x64, 0x65, 0x6e, 0x73, 0x65, 0x5f, 0x69, 0x6e, 0x70, 0x75, 0x74, 0x00, 0x02, 0x00, 0x00, 0x00, 0x34, 0x00, 0x00, 0x00, 0x04, 0x00, 0x00, 0x00, 0xdc, 0xff, 0xff, 0xff, 0x0d, 0x00, 0x00, 0x00, 0x04, 0x00, 0x00, 0x00, 0x13, 0x00, 0x00, 0x00, 0x43, 0x4f, 0x4e, 0x56, 0x45, 0x52, 0x53, 0x49, 0x4f, 0x4e, 0x5f, 0x4d, 0x45, 0x54, 0x41, 0x44, 0x41, 0x54, 0x41, 0x00, 0x08, 0x00, 0x0c, 0x00, 0x08, 0x00, 0x04, 0x00, 0x08, 0x00, 0x00, 0x00, 0x0c, 0x00, 0x00, 0x00, 0x04, 0x00, 0x00, 0x00, 0x13, 0x00, 0x00, 0x00, 0x6d, 0x69, 0x6e, 0x5f, 0x72, 0x75, 0x6e, 0x74, 0x69, 0x6d, 0x65, 0x5f, 0x76, 0x65, 0x72, 0x73, 0x69, 0x6f, 0x6e, 0x00, 0x0e, 0x00, 0x00, 0x00, 0x9c, 0x0c, 0x00, 0x00, 0x94, 0x0c, 0x00, 0x00, 0x44, 0x0c, 0x00, 0x00, 0x28, 0x0c, 0x00, 0x00, 0x98, 0x0b, 0x00, 0x00, 0x88, 0x09, 0x00, 0x00, 0x78, 0x01, 0x00, 0x00, 0xa8, 0x00, 0x00, 0x00, 0xa0, 0x00, 0x00, 0x00, 0x98, 0x00, 0x00, 0x00, 0x90, 0x00, 0x00, 0x00, 0x88, 0x00, 0x00, 0x00, 0x68, 0x00, 0x00, 0x00, 0x04, 0x00, 0x00, 0x00, 0x0a, 0xf3, 0xff, 0xff, 0x04, 0x00, 0x00, 0x00, 0x54, 0x00, 0x00, 0x00, 0x0c, 0x00, 0x00, 0x00, 0x08, 0x00, 0x0e, 0x00, 0x08, 0x00, 0x04, 0x00, 0x08, 0x00, 0x00, 0x00, 0x10, 0x00, 0x00, 0x00, 0x24, 0x00, 0x00, 0x00, 0x00, 0x00, 0x06, 0x00, 0x08, 0x00, 0x04, 0x00, 0x06, 0x00, 0x00, 0x00, 0x04, 0x00, 0x00, 0x00, 0x00, 0x00, 0x00, 0x00, 0x00, 0x00, 0x0a, 0x00, 0x10, 0x00, 0x0c, 0x00, 0x08, 0x00, 0x04, 0x00, 0x0a, 0x00, 0x00, 0x00, 0x02, 0x00, 0x00, 0x00, 0x02, 0x00, 0x00, 0x00, 0x04, 0x00, 0x00, 0x00, 0x06, 0x00, 0x00, 0x00, 0x32, 0x2e, 0x31, 0x35, 0x2e, 0x30, 0x00, 0x00, 0x6a, 0xf3, 0xff, 0xff, 0x04, 0x00, 0x00, 0x00, 0x10, 0x00, 0x00, 0x00, 0x31, 0x2e, 0x35, 0x2e, 0x30, 0x00, 0x00, 0x00, 0x00, 0x00, 0x00, 0x00, 0x00, 0x00, 0x00, 0x00, 0x78, 0xee, 0xff, 0xff, 0x7c, 0xee, 0xff, 0xff, 0x80, 0xee, 0xff, 0xff, 0x84, 0xee, 0xff, 0xff, 0x96, 0xf3, 0xff, 0xff, 0x04, 0x00, 0x00, 0x00, 0xc0, 0x00, 0x00, 0x00, 0x0a, 0x22, 0x86, 0xbe, 0xca, 0x24, 0x45, 0xbe, 0x87, 0x49, 0x9c, 0xbe, 0xe2, 0x92, 0xac, 0x3e, 0x26, 0x13, 0xfd, 0x3e, 0xf7, 0xd7, 0xd1, 0x3e, 0x53, 0x06, 0x0e, 0x3f, 0xe2, 0x1f, 0x0d, 0x3f, 0xb8, 0x85, 0x28, 0x3f, 0x97, 0xc0, 0x6d, 0x3e, 0xf4, 0xee, 0x3c, 0xbe, 0xd8, 0x13, 0x3f, 0xbf, 0xd7, 0x84, 0xcb, 0xbe, 0xdc, 0xc5, 0x7f, 0xbe, 0xc0, 0xe1, 0xeb, 0xbe, 0xe4, 0x13, 0xd3, 0x3e, 0xb9, 0xdc, 0xaf, 0x3e, 0x6a, 0x15, 0x54, 0x3d, 0x2c, 0x26, 0xed, 0xbe, 0x7a, 0x03, 0x32, 0x3f, 0x3a, 0xc9, 0x8f, 0xbe, 0x19, 0x7a, 0xb8, 0xbe, 0x13, 0x20, 0x95, 0xbe, 0x5d, 0x50, 0x4b, 0xbf, 0x03, 0x2c, 0x02, 0x3f, 0x98, 0x3c, 0xea, 0x3d, 0xcc, 0x3d, 0x4c, 0xbe, 0xfc, 0xc3, 0xd8, 0x3e, 0xc3, 0x25, 0x44, 0xbd, 0x99, 0xc7, 0xc9, 0xbe, 0x80, 0x14, 0x0f, 0x3c, 0x31, 0x4d, 0x35, 0xbd, 0x48, 0x18, 0xba, 0xbe, 0xb0, 0xe5, 0x9d, 0x3e, 0x7b, 0x66, 0x13, 0x3e, 0x78, 0xbf, 0x04, 0xbf, 0xa0, 0x1e, 0x67, 0xbd, 0xa4, 0x44, 0xf2, 0x3d, 0x00, 0xa5, 0x4a, 0xbf, 0x91, 0xfa, 0xf3, 0xbd, 0xed, 0xb2, 0xf3, 0xbe, 0x51, 0xff, 0x0b, 0xbf, 0x40, 0xc4, 0x84, 0xbe, 0xc7, 0x93, 0x2a, 0x3f, 0x24, 0x18, 0xe7, 0xbe, 0x47, 0xb5, 0xff, 0xbe, 0xd2, 0x63, 0x98, 0x3e, 0xaa, 0x46, 0xcf, 0x3e, 0x62, 0xf4, 0xff, 0xff, 0x04, 0x00, 0x00, 0x00, 0x00, 0x08, 0x00, 0x00, 0x8a, 0xa6, 0xde, 0x3c, 0xa3, 0xac, 0x30, 0xbd, 0xeb, 0xac, 0xf6, 0xbc, 0x0e, 0xb2, 0x6c, 0x3e, 0x4c, 0x81, 0x85, 0xbe, 0x58, 0x40, 0x39, 0x3e, 0x90, 0xab, 0xc2, 0x3d, 0x64, 0x12, 0x88, 0xbe, 0x06, 0xa0, 0x89, 0xbe, 0xfc, 0x69, 0xbd, 0xbd, 0x20, 0xe1, 0x2c, 0xbc, 0xbf, 0x1c, 0x32, 0x3b, 0xf5, 0x27, 0xaf, 0x3d, 0xb4, 0x75, 0xdc, 0xbc, 0x03, 0x2f, 0x70, 0x3e, 0x48, 0x80, 0x60, 0xbe, 0x53, 0x07, 0xb9, 0xbd, 0x3f, 0x95, 0x02, 0xbe, 0x68, 0x81, 0x5c, 0x3d, 0x90, 0xd1, 0x2f, 0xbd, 0x54, 0xa5, 0xf5, 0x3c, 0x41, 0x95, 0x9d, 0xbe, 0x6f, 0xe3, 0xd8, 0x3d, 0x31, 0x4c, 0xea, 0x3c, 0xe2, 0x6b, 0x14, 0xbe, 0xe6, 0x7d, 0xa6, 0xbd, 0xc3, 0x6e, 0x43, 0x3e, 0x2c, 0x33, 0x3b, 0xbe, 0x94, 0xd0, 0x5c, 0x3c, 0x5b, 0xd2, 0x98, 0x3d, 0x37, 0xc1, 0xad, 0xbe, 0x0d, 0x1a, 0x36, 0x3e, 0x31, 0x59, 0xa3, 0xbe, 0xfa, 0x9d, 0xfc, 0x3d, 0xd7, 0x4e, 0x9c, 0x3e, 0x7e, 0xed, 0x2f, 0xbe, 0x43, 0x38, 0x8c, 0x3e, 0xbc, 0x6f, 0xe8, 0x3d, 0x22, 0xe5, 0x7b, 0xbe, 0x18, 0x3a, 0xa1, 0x3d, 0xa8, 0x77, 0xfb, 0x3d, 0xe6, 0xe7, 0x61, 0xbe, 0x06, 0x92, 0x73, 0xbe, 0x14, 0xee, 0x83, 0x3e, 0xfa, 0x51, 0xaf, 0xbe, 0x74, 0xfa, 0x06, 0x3e, 0xda, 0x06, 0xa1, 0xbd, 0x8f, 0x56, 0x2b, 0x3e, 0xc0, 0xfb, 0x8c, 0x3d, 0xd8, 0x0b, 0x55, 0x3d, 0xfc, 0x79, 0xbb, 0xbd, 0x04, 0x58, 0x0a, 0x3e, 0x58, 0xc5, 0xd3, 0xbc, 0x61, 0xe3, 0x5b, 0xbd, 0x66, 0xb8, 0xe7, 0x3c, 0xae, 0x4c, 0x30, 0x3e, 0x9d, 0x74, 0x40, 0x3a, 0xdb, 0xaf, 0xc9, 0xbd, 0x44, 0xde, 0xf5, 0xbd, 0x5b, 0x1f, 0x91, 0xbe, 0x80, 0x94, 0x7f, 0xbd, 0x0c, 0x72, 0x5c, 0xbd, 0xfc, 0x4c, 0x45, 0xbd, 0x3a, 0x61, 0x1a, 0xbd, 0x5c, 0xac, 0x56, 0xbd, 0x1a, 0xf7, 0x2a, 0x3e, 0x60, 0xd7, 0x9b, 0x3d, 0x42, 0xa1, 0x2b, 0x3d, 0x40, 0xc7, 0xa0, 0x3c, 0x6c, 0x7c, 0x37, 0x3d, 0x9d, 0x1f, 0xae, 0xbe, 0x3c, 0xea, 0xe7, 0x3d, 0xee, 0x3d, 0xf8, 0xbc, 0xf9, 0xe8, 0x86, 0xbe, 0xfc, 0x56, 0x37, 0xbe, 0xea, 0xeb, 0x06, 0x3e, 0xf0, 0xff, 0xb6, 0x3d, 0xff, 0x9a, 0x81, 0xbe, 0x56, 0x70, 0x9d, 0x3e, 0x15, 0x8c, 0x65, 0xbc, 0x57, 0x98, 0xce, 0xbd, 0xe8, 0xc4, 0x2c, 0xbd, 0xd4, 0xf6, 0x9e, 0xbd, 0x3b, 0x12, 0x83, 0x3e, 0xa8, 0xf2, 0x4f, 0x3e, 0x77, 0x61, 0x8c, 0xbe, 0x59, 0x52, 0xcc, 0xbd, 0x00, 0x11, 0x73, 0x3e, 0xbf, 0xf5, 0x87, 0x3e, 0x1e, 0xae, 0x6c, 0xbe, 0x2e, 0xe3, 0x9c, 0x3e, 0x09, 0x00, 0xa2, 0xbe, 0x7b, 0xf7, 0x08, 0xbe, 0x0b, 0x94, 0xa8, 0xbe, 0x15, 0xa0, 0x3d, 0xbe, 0x22, 0x53, 0x9f, 0x3e, 0xad, 0x60, 0xa1, 0x3e, 0xda, 0xce, 0x77, 0x3e, 0x36, 0x6a, 0x46, 0xbd, 0xb4, 0x7b, 0x57, 0x3d, 0xa6, 0x32, 0x5e, 0x3e, 0xb1, 0x9d, 0x86, 0x3e, 0x50, 0x34, 0x5f, 0xbd, 0x75, 0x4b, 0xa7, 0x3e, 0xb2, 0xd2, 0x2f, 0xbe, 0xd0, 0x23, 0xfe, 0x3c, 0xcb, 0x75, 0x0c, 0xbe, 0xb9, 0x79, 0xe2, 0x3e, 0x89, 0xbb, 0x6a, 0xbe, 0xae, 0xeb, 0x80, 0xbe, 0xc9, 0x98, 0x63, 0x3e, 0x37, 0xe1, 0x34, 0x3e, 0x12, 0x3f, 0xb9, 0x3e, 0x22, 0x3f, 0xa2, 0xbe, 0xd0, 0x25, 0x22, 0xbd, 0x70, 0x18, 0x50, 0x3d, 0x16, 0x6d, 0x3e, 0xbd, 0x27, 0xf0, 0x43, 0x3d, 0xa2, 0x31, 0x75, 0xbe, 0x08, 0xe6, 0x0c, 0x3e, 0x2c, 0x5c, 0x68, 0x3e, 0x63, 0x2c, 0x79, 0xbd, 0xc3, 0x93, 0x52, 0xbb, 0xe2, 0xb8, 0xae, 0xbc, 0xda, 0xbc, 0xfb, 0xbd, 0x8a, 0x45, 0xec, 0x3e, 0x47, 0x7c, 0x60, 0xbc, 0x3a, 0xf6, 0x91, 0xbe, 0xbf, 0x98, 0xb3, 0x3e, 0xba, 0x51, 0xed, 0xbd, 0xb8, 0x3a, 0x49, 0xbe, 0x95, 0x28, 0x5d, 0xbe, 0x31, 0x29, 0xae, 0x3e, 0x5d, 0xcc, 0x33, 0xbe, 0x88, 0x2b, 0x37, 0xbd, 0x58, 0x37, 0x7f, 0xbd, 0x80, 0x63, 0xef, 0xbb, 0xd2, 0xcc, 0x53, 0x3e, 0x90, 0xbb, 0xc9, 0x3c, 0xc5, 0xe7, 0x91, 0x3e, 0x07, 0x6e, 0x81, 0x3e, 0x28, 0xde, 0xdc, 0xbd, 0x46, 0xea, 0x03, 0x3e, 0x66, 0x45, 0x5d, 0x3e, 0xba, 0x18, 0x70, 0x3e, 0xa8, 0xb4, 0x04, 0xbe, 0x00, 0xbc, 0x5c, 0xbd, 0x00, 0x9a, 0xfc, 0x3c, 0xad, 0xbc, 0x8f, 0xbe, 0xf8, 0x61, 0x9d, 0x3d, 0xfc, 0x8d, 0xc7, 0xbd, 0x9c, 0xaa, 0x53, 0xbe, 0x14, 0x78, 0x8b, 0xbd, 0x6c, 0x4b, 0xb2, 0xbe, 0x87, 0x53, 0x24, 0xbe, 0x42, 0x88, 0xe2, 0xbd, 0x09, 0xcb, 0x8b, 0x3e, 0xb3, 0x78, 0x73, 0xbe, 0x79, 0x30, 0x43, 0xbe, 0x3a, 0x9d, 0x3f, 0x3e, 0x20, 0x45, 0x13, 0x3d, 0xab, 0x45, 0x79, 0xbe, 0x92, 0xb8, 0x50, 0x3b, 0x70, 0x3d, 0xcd, 0xbc, 0x08, 0x30, 0x9a, 0xbd, 0xa2, 0xfd, 0x6a, 0x3e, 0xe6, 0x03, 0x45, 0x3e, 0x63, 0x84, 0x49, 0xbe, 0x5e, 0xb4, 0x5c, 0x3d, 0x37, 0x00, 0x9d, 0x3e, 0x3e, 0x73, 0xab, 0xbe, 0xce, 0x9b, 0x67, 0x3e, 0x46, 0x7e, 0xa1, 0xbe, 0x69, 0xd2, 0xdb, 0xbe, 0x8f, 0x8a, 0x57, 0x3e, 0xec, 0x43, 0x0c, 0xbd, 0x74, 0xb4, 0x89, 0xbe, 0xe8, 0x84, 0x99, 0x3d, 0x42, 0xd0, 0xb0, 0xbe, 0x80, 0xb9, 0x2b, 0x3c, 0xcf, 0x46, 0xd9, 0xbe, 0x45, 0xe1, 0xa0, 0xbe, 0x79, 0x2c, 0x8f, 0xbd, 0x3f, 0x56, 0x8a, 0x3e, 0x8e, 0x10, 0xac, 0xbe, 0xeb, 0x28, 0x61, 0x3e, 0x9e, 0x3f, 0x97, 0x3e, 0x05, 0xc8, 0x41, 0x3e, 0xc5, 0x57, 0x97, 0xbe, 0xbf, 0x45, 0xee, 0x3e, 0x89, 0xab, 0x72, 0x3e, 0xe1, 0x69, 0xe9, 0xbd, 0xc5, 0xd5, 0xee, 0xbe, 0x57, 0xd1, 0xbf, 0xbe, 0x8d, 0xbc, 0xc6, 0x3e, 0xbc, 0x9f, 0xbc, 0x3d, 0xdd, 0xa3, 0x9e, 0x3e, 0x96, 0x2c, 0x0b, 0x3c, 0x84, 0x12, 0x98, 0x3d, 0x33, 0x96, 0x0e, 0xbe, 0x39, 0xa2, 0x2d, 0xbd, 0x16, 0x5c, 0x5a, 0x3e, 0x66, 0xde, 0x32, 0x3e, 0x6e, 0xd8, 0x2d, 0x3e, 0x5a, 0x5a, 0xb7, 0xbe, 0x5e, 0xf6, 0x9e, 0xbe, 0x37, 0xe3, 0x3d, 0x3d, 0x3f, 0xe7, 0x1e, 0xbd, 0x1f, 0x79, 0x1f, 0x3e, 0x86, 0xba, 0x49, 0x3e, 0x26, 0xc0, 0x2e, 0x3e, 0x94, 0xe4, 0xf7, 0xbd, 0x9d, 0xeb, 0xa5, 0xbe, 0xe6, 0x41, 0x46, 0x3e, 0x87, 0xe7, 0x50, 0x3e, 0x7e, 0x3c, 0x0e, 0x3f, 0x33, 0x79, 0x32, 0x3c, 0x4f, 0xc0, 0xd5, 0x3e, 0x97, 0xee, 0x9a, 0x3e, 0xa0, 0xd6, 0x5a, 0x3e, 0x97, 0xe2, 0x61, 0x3e, 0x4f, 0x2e, 0x93, 0x3e, 0xa7, 0x60, 0xaa, 0x3e, 0x65, 0x37, 0x37, 0x3e, 0x5a, 0x06, 0x89, 0xbd, 0x6e, 0x45, 0xab, 0xbe, 0xff, 0x38, 0xb7, 0x3e, 0xb6, 0x18, 0xa4, 0x3e, 0xd4, 0xba, 0xdb, 0xbd, 0x24, 0x4f, 0xaa, 0xbd, 0xb0, 0x8e, 0xfa, 0xbc, 0xb6, 0x83, 0xe5, 0xbd, 0x96, 0x65, 0xc5, 0xbe, 0x59, 0x34, 0x13, 0xbe, 0xc2, 0xd7, 0x4e, 0x3e, 0x13, 0xaa, 0x06, 0x3f, 0xba, 0x03, 0x56, 0xbe, 0x66, 0x28, 0x9f, 0xbe, 0xd5, 0x72, 0xc4, 0x3e, 0x63, 0xbd, 0x94, 0xbe, 0x46, 0x07, 0x17, 0xbe, 0x88, 0xae, 0x33, 0xbd, 0x40, 0xe1, 0xcf, 0x3d, 0x96, 0x94, 0x01, 0x3e, 0xfa, 0xa0, 0xf1, 0xbd, 0xe5, 0x5c, 0xec, 0xbd, 0x96, 0x33, 0x38, 0x3d, 0xb9, 0x08, 0x01, 0x3f, 0x4a, 0xf1, 0x98, 0x3e, 0x65, 0x08, 0xa5, 0xbb, 0xec, 0xc7, 0x5f, 0x3e, 0x7b, 0x36, 0xcf, 0xbd, 0x3f, 0xe2, 0xef, 0x3c, 0xd3, 0xf4, 0xbc, 0x3e, 0x99, 0x48, 0x0e, 0x3e, 0x93, 0xb1, 0x1b, 0xbe, 0xc3, 0x40, 0x98, 0xbe, 0xb5, 0xc9, 0xd8, 0xbd, 0x23, 0x15, 0x35, 0xbe, 0xf9, 0x4b, 0xbf, 0x3e, 0xcb, 0xc8, 0x81, 0x3e, 0x99, 0x41, 0xa7, 0x3e, 0x0a, 0x5c, 0x6a, 0x3e, 0x20, 0xb3, 0x9e, 0xbd, 0xfc, 0x3b, 0x86, 0xbe, 0xb0, 0x6e, 0x3e, 0xbd, 0xc0, 0x97, 0x92, 0xbd, 0x6f, 0x56, 0x41, 0x3e, 0xdb, 0x31, 0x55, 0xbe, 0x9b, 0xbf, 0x30, 0x3e, 0xde, 0x6b, 0xd2, 0x3e, 0x5c, 0x15, 0x37, 0x3e, 0xe7, 0xbc, 0x7c, 0xbb, 0xae, 0xe6, 0xab, 0xbe, 0x21, 0xd6, 0x6a, 0xbe, 0xff, 0xe6, 0x94, 0x3e, 0xa7, 0x47, 0xdb, 0xbd, 0x95, 0xbb, 0xd0, 0xbe, 0xd4, 0xef, 0x84, 0xbd, 0xdb, 0xa5, 0x05, 0x3f, 0xa4, 0x99, 0x93, 0xbd, 0xfe, 0x9e, 0x6a, 0x3c, 0x54, 0x12, 0xe1, 0x3c, 0xc8, 0x7b, 0xac, 0x3e, 0x36, 0x8b, 0xa3, 0xbe, 0xbb, 0x41, 0x4f, 0x3e, 0x7f, 0x8b, 0x2e, 0xbe, 0xc3, 0x28, 0xa0, 0xbd, 0x78, 0x47, 0x50, 0x3e, 0xe4, 0xd3, 0x8e, 0x3e, 0x8d, 0xb7, 0xa8, 0x3e, 0x5d, 0xfe, 0xab, 0xbe, 0x0a, 0xfe, 0x7f, 0x3e, 0x99, 0xa0, 0x8c, 0xbc, 0x0a, 0x2f, 0x4e, 0x3e, 0xfd, 0xb3, 0x23, 0xbe, 0xe7, 0x9a, 0xe5, 0xbc, 0x99, 0x9c, 0xa3, 0xbe, 0xe0, 0xb5, 0x3b, 0xbc, 0x4d, 0xf7, 0x9f, 0x3e, 0x16, 0x78, 0xc0, 0xbd, 0x42, 0x66, 0x38, 0x3e, 0x0d, 0x99, 0x8e, 0x3e, 0x3a, 0x9e, 0xaf, 0x3e, 0xff, 0x66, 0x1f, 0xbe, 0x5c, 0x74, 0x7d, 0xbe, 0x60, 0xf2, 0x93, 0xbe, 0xc0, 0xc2, 0x16, 0xbe, 0x9e, 0x35, 0x7a, 0xbe, 0xe5, 0xae, 0x88, 0x3e, 0x67, 0xde, 0x81, 0xbe, 0x77, 0xd6, 0xa9, 0x3e, 0xb3, 0x2e, 0x1a, 0x3e, 0x29, 0x79, 0x82, 0xbe, 0xe0, 0x88, 0x0b, 0xbe, 0x07, 0x4c, 0x2f, 0xbe, 0xe3, 0x91, 0x80, 0x3d, 0xf5, 0x03, 0xfe, 0x3c, 0x03, 0x10, 0x85, 0xbe, 0xee, 0x3f, 0x79, 0x3e, 0x14, 0x00, 0x03, 0xbe, 0xba, 0x8d, 0x18, 0x3e, 0xbf, 0x94, 0x0f, 0x3e, 0xaa, 0xaf, 0xf5, 0xbd, 0x1a, 0x40, 0x7d, 0xbe, 0x0a, 0x59, 0x3e, 0xbe, 0xa1, 0xa9, 0x8f, 0xbe, 0xf6, 0x36, 0x30, 0x3e, 0x1d, 0xfe, 0x66, 0x3e, 0xf6, 0xfc, 0x9f, 0xbe, 0x0b, 0xc0, 0x14, 0xbe, 0xe3, 0x84, 0x38, 0xbe, 0xfc, 0xee, 0xf0, 0x3d, 0x64, 0xa0, 0x09, 0xbe, 0xa2, 0x35, 0x64, 0xbd, 0x7f, 0xed, 0x43, 0xbe, 0x78, 0xe5, 0xf3, 0x3d, 0x18, 0xa1, 0xbb, 0x3d, 0x5f, 0xd7, 0x7a, 0xbe, 0x12, 0x6b, 0x40, 0x3e, 0x2a, 0x83, 0x42, 0x3d, 0xb9, 0xb9, 0x82, 0x3e, 0xf5, 0x8b, 0x8a, 0xbe, 0xc4, 0xb1, 0x34, 0x3c, 0x89, 0x84, 0x43, 0x3d, 0x37, 0xaa, 0x8d, 0x3e, 0xa9, 0xbb, 0x86, 0x3e, 0x96, 0x96, 0x9b, 0xbe, 0x7a, 0x36, 0xfd, 0xbd, 0x70, 0x28, 0xa2, 0xbe, 0xf3, 0xd3, 0xfc, 0x3d, 0xa2, 0xbd, 0x4e, 0xbe, 0xb1, 0x56, 0xc5, 0x3d, 0xf3, 0x4a, 0x01, 0x3f, 0x7d, 0xe7, 0x17, 0xbe, 0x3b, 0x11, 0xcc, 0xbd, 0x94, 0xe3, 0xd1, 0xbd, 0x2a, 0xba, 0x71, 0xbd, 0xa5, 0xe6, 0x9c, 0x3e, 0x58, 0xfd, 0xa1, 0x3d, 0x01, 0xc8, 0x92, 0x3e, 0x85, 0x57, 0x3f, 0xbe, 0xd0, 0x89, 0xf5, 0x3d, 0x42, 0x40, 0xcb, 0xbe, 0xc3, 0x98, 0xc6, 0x3e, 0xba, 0x58, 0x1e, 0x3e, 0x5c, 0xde, 0x09, 0x3e, 0x3c, 0x6d, 0xe2, 0xbd, 0x99, 0x4c, 0x0d, 0x3f, 0x86, 0xd6, 0x55, 0x3e, 0xe6, 0x31, 0xda, 0xbd, 0xf8, 0xcb, 0x89, 0x3d, 0x8d, 0x3f, 0x98, 0x3e, 0xf7, 0x7f, 0x44, 0x3e, 0x47, 0xd9, 0x8e, 0x3e, 0x62, 0x01, 0x0f, 0xbf, 0xd2, 0x1a, 0x93, 0xbd, 0xe1, 0xc9, 0xca, 0xbd, 0xd1, 0x3d, 0x86, 0xbd, 0xbb, 0x36, 0xcb, 0x3e, 0x4a, 0x92, 0x4e, 0xbe, 0x9f, 0xc5, 0x66, 0xbe, 0xe1, 0xf9, 0xbb, 0x3e, 0x79, 0xc3, 0x18, 0x3f, 0x6e, 0x1b, 0x8e, 0xbe, 0x40, 0x87, 0x21, 0x3e, 0x28, 0x4e, 0x0e, 0x3e, 0xbb, 0x6a, 0x52, 0x3e, 0x4a, 0x3b, 0x46, 0x3e, 0xd3, 0x03, 0x86, 0x3e, 0x7b, 0x35, 0xa1, 0xbe, 0xa6, 0xe4, 0x37, 0xbe, 0x88, 0x74, 0x6d, 0xbe, 0xbd, 0x56, 0xa3, 0x3e, 0x94, 0x92, 0x40, 0xbe, 0x6d, 0x31, 0x3c, 0x3c, 0x21, 0xdd, 0x66, 0xbe, 0xf8, 0xc2, 0xcc, 0xbd, 0x73, 0xce, 0x93, 0x3b, 0x12, 0x46, 0xaa, 0xbe, 0x44, 0x73, 0xa5, 0xbe, 0xc4, 0x66, 0x9c, 0xbd, 0x44, 0x11, 0x9d, 0xbd, 0x21, 0xc4, 0x47, 0xbe, 0x12, 0x34, 0x8d, 0xbe, 0x75, 0xb0, 0xb3, 0x3e, 0xb6, 0x7e, 0x2e, 0xbd, 0x38, 0x32, 0xec, 0xbd, 0x6e, 0x40, 0x6d, 0x3e, 0xce, 0xfa, 0x84, 0xbe, 0xdb, 0x1c, 0x87, 0xbc, 0x93, 0x96, 0xf0, 0xbd, 0xb0, 0x2e, 0xb4, 0xbc, 0x5e, 0x57, 0x93, 0x3e, 0x86, 0x22, 0x23, 0xbd, 0x24, 0x0b, 0xac, 0xbe, 0xbd, 0xa8, 0x39, 0x3e, 0x8c, 0x34, 0xa6, 0xbe, 0xd6, 0xdf, 0x5c, 0x3e, 0x45, 0x9f, 0x83, 0xbe, 0x96, 0xf9, 0x5a, 0x3e, 0xb9, 0xd4, 0x5f, 0x3e, 0xc5, 0x58, 0x85, 0x3e, 0x04, 0xcd, 0x42, 0xbe, 0xcc, 0x3e, 0x20, 0xbd, 0xc0, 0x0e, 0x5d, 0xbe, 0x20, 0x34, 0xf1, 0xbc, 0x54, 0x29, 0x0f, 0xbe, 0x6a, 0xa4, 0x3f, 0xbe, 0xc1, 0xda, 0x7f, 0xbe, 0xff, 0xae, 0x95, 0xbe, 0x04, 0x56, 0xc3, 0x3d, 0xbb, 0x9e, 0x02, 0x3d, 0x0c, 0x98, 0xe8, 0x3d, 0xbc, 0x7f, 0xb3, 0x3d, 0x74, 0xfd, 0xa8, 0xbe, 0x05, 0x06, 0x56, 0x3e, 0xa9, 0xe8, 0x3d, 0x3e, 0x4c, 0xa4, 0xf9, 0xbd, 0xb8, 0x8b, 0x69, 0x3d, 0xd7, 0x4e, 0x62, 0x3e, 0xaf, 0x0f, 0x8d, 0xbe, 0x58, 0xe4, 0x7b, 0x3e, 0xc9, 0xf1, 0x7d, 0xbc, 0xc0, 0x1e, 0x7c, 0xbd, 0x68, 0x13, 0x74, 0xbd, 0x8f, 0xa1, 0x83, 0xbe, 0x52, 0xf7, 0x75, 0x3d, 0x74, 0x93, 0xdd, 0x3d, 0x68, 0xd6, 0x9f, 0x3e, 0xb3, 0x06, 0x51, 0xbe, 0xe9, 0xa5, 0x77, 0xbd, 0xfe, 0x7e, 0x47, 0x3e, 0x93, 0x91, 0xde, 0x3d, 0x72, 0x88, 0xab, 0xbe, 0xe5, 0x36, 0xa8, 0x3e, 0x1b, 0xfa, 0x95, 0x3e, 0x7a, 0x3e, 0xb1, 0xbe, 0x4b, 0x42, 0x8f, 0x3e, 0xcd, 0x78, 0xbb, 0x3d, 0x9c, 0x1c, 0xb4, 0x3e, 0xbc, 0x92, 0xe2, 0x3d, 0xaf, 0xb9, 0x1a, 0xbd, 0x54, 0x67, 0xa4, 0xbe, 0x19, 0xb9, 0x92, 0xbd, 0x76, 0x0a, 0x45, 0x3e, 0xd0, 0xbc, 0x87, 0x3c, 0x0c, 0x73, 0xb6, 0x3d, 0x60, 0x84, 0xee, 0x3d, 0x1f, 0x3b, 0xdc, 0x3e, 0xd4, 0x44, 0xa1, 0x3d, 0x62, 0xb9, 0x44, 0xbe, 0x08, 0xa4, 0x2d, 0x3e, 0x2a, 0xbb, 0x63, 0x3d, 0x2b, 0x1f, 0x57, 0xbe, 0xc9, 0x14, 0x8d, 0x3c, 0x3e, 0x3a, 0xe2, 0xbc, 0x66, 0x81, 0xac, 0xbe, 0x9e, 0x9c, 0xb8, 0x3e, 0x69, 0xc7, 0x6b, 0x3e, 0x12, 0x9b, 0xad, 0xbc, 0x3f, 0x51, 0x08, 0x3e, 0xab, 0x11, 0x21, 0x3e, 0xbd, 0x91, 0xbb, 0x3e, 0xee, 0x42, 0x8b, 0xbe, 0x8b, 0x3f, 0xa9, 0x3d, 0x9c, 0x2f, 0xed, 0xbd, 0x69, 0x29, 0xb3, 0x3e, 0xcf, 0x4c, 0xd2, 0xbe, 0xa4, 0x9a, 0x6f, 0xbe, 0xd3, 0x2c, 0xa4, 0x3e, 0xfd, 0xc6, 0x35, 0x3e, 0x70, 0xfa, 0xdb, 0xbc, 0x9b, 0x63, 0x16, 0x3e, 0xee, 0x1a, 0x61, 0xbe, 0xfc, 0xc8, 0xa7, 0x3e, 0x17, 0x80, 0x83, 0xbe, 0xef, 0xfe, 0x0b, 0xbe, 0x78, 0xfd, 0x43, 0xbe, 0x3e, 0xb1, 0xa2, 0xbe, 0x4e, 0xb2, 0x28, 0x3c, 0x16, 0xc5, 0x9b, 0xbd, 0x92, 0x88, 0x71, 0x3e, 0x7c, 0x5f, 0x9d, 0x3d, 0xd0, 0x6b, 0x5f, 0x3e, 0x29, 0x53, 0xbc, 0xbd, 0x07, 0xe5, 0x99, 0xbe, 0xfe, 0x98, 0xed, 0x3d, 0xf7, 0xc0, 0x96, 0x3d, 0xe6, 0xe9, 0xbb, 0x3e, 0x87, 0xc6, 0x40, 0x3e, 0x22, 0x3f, 0x0f, 0x3e, 0x6e, 0xfc, 0xff, 0xff, 0x04, 0x00, 0x00, 0x00, 0x00, 0x02, 0x00, 0x00, 0x54, 0x9d, 0x24, 0x3e, 0xf4, 0x08, 0x0a, 0xbe, 0x7c, 0xe6, 0x01, 0x3f, 0xd2, 0xb4, 0x9b, 0xbd, 0xb9, 0x05, 0x8d, 0x3e, 0x28, 0xae, 0x30, 0xbd, 0xce, 0xcd, 0xf5, 0x3e, 0x3c, 0x68, 0xe0, 0x3e, 0x8b, 0xf7, 0x87, 0xbe, 0xea, 0x2b, 0x5f, 0x3e, 0x7a, 0x31, 0xf8, 0xbd, 0xb4, 0x89, 0x53, 0x3e, 0x9e, 0xe7, 0x9e, 0x3d, 0x74, 0x2b, 0xc2, 0x3e, 0x76, 0x37, 0x8e, 0xbe, 0x63, 0xf2, 0xb6, 0x3d, 0xc2, 0x04, 0x9c, 0xbe, 0xb6, 0x96, 0xc3, 0xbe, 0xa8, 0x7b, 0x6b, 0xbe, 0x6c, 0x27, 0x84, 0x3e, 0xca, 0xd9, 0xfd, 0x38, 0xc2, 0xe1, 0x99, 0xbe, 0xa3, 0x49, 0x24, 0x3e, 0x04, 0xdf, 0x68, 0xbd, 0x8d, 0x23, 0x2b, 0xbe, 0x40, 0x64, 0x90, 0x3c, 0x88, 0x52, 0x27, 0xbd, 0x88, 0xeb, 0x88, 0xbd, 0x76, 0xa7, 0xa4, 0x3e, 0xa0, 0xa0, 0x75, 0xbe, 0x80, 0x37, 0x98, 0xbc, 0x2f, 0x0f, 0xa8, 0xbe, 0x03, 0xf4, 0xf7, 0x3c, 0x86, 0x9b, 0x27, 0xbe, 0x3c, 0xe9, 0xd0, 0x3e, 0xa3, 0x41, 0x92, 0x3e, 0x04, 0x35, 0x8f, 0xbe, 0xe2, 0x7b, 0x18, 0xbe, 0x6c, 0xfb, 0x30, 0xbe, 0xe6, 0x73, 0x4f, 0xbe, 0x40, 0xc3, 0x9f, 0xbb, 0xf0, 0x69, 0x97, 0xbc, 0xd4, 0xbc, 0xbd, 0xbd, 0xe8, 0xb2, 0x6e, 0x3d, 0x27, 0x1d, 0xcc, 0x3e, 0x73, 0x9b, 0x18, 0x3f, 0xb4, 0x8c, 0xd9, 0xbe, 0xc2, 0x43, 0xc6, 0xbe, 0xcf, 0x3b, 0xbb, 0xbd, 0x66, 0xf8, 0x0d, 0xbe, 0x6e, 0x13, 0x14, 0x3d, 0xc9, 0x29, 0x22, 0x3f, 0x6c, 0xf8, 0xe2, 0x3d, 0xd6, 0xc8, 0x7a, 0xbe, 0x66, 0x9e, 0xf3, 0x3e, 0xc3, 0xce, 0x4f, 0x3e, 0x47, 0xa5, 0xc5, 0x3d, 0x62, 0x08, 0x92, 0x3e, 0x52, 0x03, 0x2b, 0xbe, 0x7d, 0x17, 0x49, 0x3e, 0x5e, 0x43, 0x33, 0x3e, 0x7f, 0x0b, 0x8b, 0xbc, 0xf3, 0xba, 0xd7, 0xbd, 0x28, 0xa2, 0xa6, 0xbd, 0xa6, 0x45, 0x3c, 0xbe, 0xd3, 0x02, 0xa7, 0xbd, 0x02, 0x07, 0x90, 0x3e, 0x3c, 0x25, 0x74, 0x3e, 0x62, 0x4a, 0x18, 0xbe, 0xae, 0x64, 0xaa, 0xbe, 0xa8, 0x8c, 0x8d, 0xbe, 0xcc, 0x03, 0xb0, 0x3e, 0x95, 0x38, 0x91, 0xbe, 0x00, 0x2a, 0xfd, 0xbc, 0xc6, 0x7c, 0xa0, 0x3e, 0x5e, 0x37, 0x97, 0xbe, 0xd5, 0x28, 0x98, 0xbe, 0xb4, 0x92, 0x4c, 0xbe, 0x8a, 0xcb, 0x8c, 0xbe, 0xcc, 0x92, 0xb4, 0x3e, 0x3e, 0xf3, 0x65, 0x3e, 0x48, 0xa4, 0xa1, 0x3c, 0x94, 0x47, 0x89, 0x3e, 0x30, 0x18, 0x17, 0x3f, 0x8c, 0x68, 0xab, 0x3e, 0x63, 0x57, 0x17, 0xbe, 0x69, 0xa1, 0xfd, 0xbd, 0x68, 0x41, 0xa5, 0x3e, 0xcb, 0xe0, 0x67, 0x3e, 0xfb, 0x97, 0xcc, 0x3e, 0x88, 0x21, 0x9b, 0xbe, 0xf7, 0x43, 0xfb, 0x3e, 0x08, 0xfb, 0x80, 0xbe, 0x93, 0x1e, 0xf9, 0x3e, 0xc6, 0xe1, 0x3b, 0xbe, 0x67, 0x6d, 0xea, 0xbd, 0x4d, 0x55, 0xa2, 0x3b, 0xd3, 0x06, 0x2a, 0xbe, 0xf9, 0x56, 0x22, 0x3e, 0xaf, 0x0d, 0xe0, 0xbc, 0xf6, 0x14, 0xb1, 0xbe, 0x3e, 0xfc, 0x00, 0x3f, 0xaf, 0x19, 0x82, 0x3c, 0x11, 0x4a, 0xc4, 0x3d, 0x7e, 0x1a, 0x22, 0x3c, 0x5b, 0x3c, 0x06, 0x3f, 0x93, 0xc9, 0x73, 0xbc, 0x52, 0xd5, 0x13, 0xbe, 0x5c, 0x2a, 0x13, 0x3f, 0x4c, 0x6c, 0x3c, 0x3e, 0xad, 0x49, 0x99, 0x3e, 0x72, 0x08, 0xaa, 0x3e, 0x69, 0xe6, 0xf0, 0xbe, 0x4b, 0xfd, 0x25, 0xbe, 0x9b, 0xb0, 0x92, 0x3e, 0xa5, 0x67, 0x4c, 0x3e, 0x92, 0x12, 0x62, 0xbe, 0xa6, 0x84, 0xe8, 0x3e, 0x6d, 0x93, 0xf3, 0xbe, 0xc3, 0x72, 0x0e, 0x3e, 0xd5, 0xcc, 0x6a, 0xbe, 0x46, 0xc4, 0xf7, 0x3e, 0x10, 0xbd, 0xf2, 0x3d, 0x64, 0x7b, 0xa1, 0x3e, 0x51, 0x86, 0xc3, 0x3e, 0x6e, 0xde, 0xaf, 0xba, 0x36, 0x22, 0xec, 0x3d, 0x6b, 0x5a, 0x81, 0x3d, 0x7a, 0xfe, 0xff, 0xff, 0x04, 0x00, 0x00, 0x00, 0x80, 0x00, 0x00, 0x00, 0x8e, 0xdf, 0x01, 0x3c, 0xf6, 0x67, 0x75, 0xbd, 0xa4, 0x87, 0x88, 0x3d, 0x01, 0xa7, 0xab, 0x3d, 0x00, 0x00, 0x00, 0x00, 0x2b, 0x36, 0x12, 0xbc, 0x00, 0x00, 0x00, 0x00, 0x00, 0x00, 0x00, 0x00, 0x0d, 0x35, 0x15, 0x3d, 0x00, 0x00, 0x00, 0x00, 0x00, 0x00, 0x00, 0x00, 0x3e, 0xb0, 0x53, 0x3e, 0x3f, 0x44, 0x24, 0x3d, 0x66, 0xbe, 0xa3, 0x3c, 0xb2, 0x81, 0x20, 0x3e, 0xfe, 0xaa, 0x04, 0xbd, 0xd2, 0x2e, 0x37, 0x3e, 0x00, 0x00, 0x00, 0x00, 0x00, 0x00, 0x00, 0x00, 0x00, 0x00, 0x00, 0x00, 0xc8, 0x8b, 0xbe, 0xbd, 0x5a, 0x8b, 0x1f, 0x3c, 0x06, 0x98, 0x77, 0xbc, 0xe4, 0x82, 0x5f, 0x3e, 0xb6, 0x43, 0xa4, 0xbd, 0xe0, 0x41, 0xc2, 0x3d, 0xdb, 0x94, 0xdb, 0x3d, 0x2e, 0xc4, 0x3e, 0x3e, 0x3d, 0x65, 0xa3, 0xbd, 0x23, 0x46, 0x7a, 0x3e, 0x6e, 0x20, 0x12, 0x3e, 0xdc, 0xee, 0x90, 0xbc, 0x06, 0xff, 0xff, 0xff, 0x04, 0x00, 0x00, 0x00, 0x0c, 0x00, 0x00, 0x00, 0x68, 0xe5, 0x80, 0x3d, 0xc0, 0x36, 0x7f, 0x3d, 0xb9, 0xee, 0x01, 0xbe, 0x1e, 0xff, 0xff, 0xff, 0x04, 0x00, 0x00, 0x00, 0x40, 0x00, 0x00, 0x00, 0x33, 0x89, 0x9c, 0xbd, 0xd5, 0x59, 0xe1, 0xbc, 0x68, 0x60, 0x4a, 0xbd, 0xb4, 0x77, 0x03, 0x3e, 0x00, 0x00, 0x00, 0x00, 0x04, 0x16, 0xb3, 0x3d, 0x34, 0xfd, 0x22, 0x3e, 0xc8, 0x26, 0x10, 0x3e, 0xfc, 0xb0, 0x3c, 0x3e, 0x1e, 0x93, 0x0c, 0x3a, 0xe2, 0xa0, 0xa6, 0xbc, 0x3d, 0x33, 0xeb, 0x3d, 0x9d, 0x1a, 0x59, 0xbc, 0xc2, 0x4b, 0x83, 0xbc, 0x4d, 0x98, 0x79, 0x3d, 0xeb, 0x27, 0x89, 0xbd, 0x5c, 0xfa, 0xff, 0xff, 0x60, 0xfa, 0xff, 0xff, 0x0f, 0x00, 0x00, 0x00, 0x4d, 0x4c, 0x49, 0x52, 0x20, 0x43, 0x6f, 0x6e, 0x76, 0x65, 0x72, 0x74, 0x65, 0x64, 0x2e, 0x00, 0x01, 0x00, 0x00, 0x00, 0x14, 0x00, 0x00, 0x00, 0x00, 0x00, 0x0e, 0x00, 0x18, 0x00, 0x14, 0x00, 0x10, 0x00, 0x0c, 0x00, 0x08, 0x00, 0x04, 0x00, 0x0e, 0x00, 0x00, 0x00, 0x14, 0x00, 0x00, 0x00, 0x1c, 0x00, 0x00, 0x00, 0x24, 0x01, 0x00, 0x00, 0x28, 0x01, 0x00, 0x00, 0x2c, 0x01, 0x00, 0x00, 0x04, 0x00, 0x00, 0x00, 0x6d, 0x61, 0x69, 0x6e, 0x00, 0x00, 0x00, 0x00, 0x04, 0x00, 0x00, 0x00, 0xcc, 0x00, 0x00, 0x00, 0x84, 0x00, 0x00, 0x00, 0x50, 0x00, 0x00, 0x00, 0x14, 0x00, 0x00, 0x00, 0x00, 0x00, 0x0e, 0x00, 0x1a, 0x00, 0x14, 0x00, 0x10, 0x00, 0x0c, 0x00, 0x0b, 0x00, 0x04, 0x00, 0x0e, 0x00, 0x00, 0x00, 0x1c, 0x00, 0x00, 0x00, 0x00, 0x00, 0x00, 0x09, 0x1c, 0x00, 0x00, 0x00, 0x20, 0x00, 0x00, 0x00, 0x01, 0x00, 0x00, 0x00, 0x00, 0x00, 0x06, 0x00, 0x08, 0x00, 0x04, 0x00, 0x06, 0x00, 0x00, 0x00, 0x00, 0x00, 0x80, 0x3f, 0x01, 0x00, 0x00, 0x00, 0x0a, 0x00, 0x00, 0x00, 0x01, 0x00, 0x00, 0x00, 0x09, 0x00, 0x00, 0x00, 0x9a, 0xff, 0xff, 0xff, 0x10, 0x00, 0x00, 0x00, 0x00, 0x00, 0x00, 0x08, 0x0c, 0x00, 0x00, 0x00, 0x10, 0x00, 0x00, 0x00, 0x24, 0xfb, 0xff, 0xff, 0x01, 0x00, 0x00, 0x00, 0x09, 0x00, 0x00, 0x00, 0x03, 0x00, 0x00, 0x00, 0x08, 0x00, 0x00, 0x00, 0x06, 0x00, 0x00, 0x00, 0x02, 0x00, 0x00, 0x00, 0xca, 0xff, 0xff, 0xff, 0x10, 0x00, 0x00, 0x00, 0x00, 0x00, 0x00, 0x08, 0x10, 0x00, 0x00, 0x00, 0x14, 0x00, 0x00, 0x00, 0xba, 0xff, 0xff, 0xff, 0x00, 0x00, 0x00, 0x01, 0x01, 0x00, 0x00, 0x00, 0x08, 0x00, 0x00, 0x00, 0x03, 0x00, 0x00, 0x00, 0x07, 0x00, 0x00, 0x00, 0x05, 0x00, 0x00, 0x00, 0x01, 0x00, 0x00, 0x00, 0x00, 0x00, 0x0e, 0x00, 0x16, 0x00, 0x00, 0x00, 0x10, 0x00, 0x0c, 0x00, 0x0b, 0x00, 0x04, 0x00, 0x0e, 0x00, 0x00, 0x00, 0x18, 0x00, 0x00, 0x00, 0x00, 0x00, 0x00, 0x08, 0x18, 0x00, 0x00, 0x00, 0x1c, 0x00, 0x00, 0x00, 0x00, 0x00, 0x06, 0x00, 0x08, 0x00, 0x07, 0x00, 0x06, 0x00, 0x00, 0x00, 0x00, 0x00, 0x00, 0x01, 0x01, 0x00, 0x00, 0x00, 0x07, 0x00, 0x00, 0x00, 0x03, 0x00, 0x00, 0x00, 0x00, 0x00, 0x00, 0x00, 0x04, 0x00, 0x00, 0x00, 0x03, 0x00, 0x00, 0x00, 0x01, 0x00, 0x00, 0x00, 0x0a, 0x00, 0x00, 0x00, 0x01, 0x00, 0x00, 0x00, 0x00, 0x00, 0x00, 0x00, 0x0b, 0x00, 0x00, 0x00, 0x04, 0x04, 0x00, 0x00, 0x94, 0x03, 0x00, 0x00, 0x24, 0x03, 0x00, 0x00, 0xd0, 0x02, 0x00, 0x00, 0x88, 0x02, 0x00, 0x00, 0x3c, 0x02, 0x00, 0x00, 0xf0, 0x01, 0x00, 0x00, 0x68, 0x01, 0x00, 0x00, 0xd8, 0x00, 0x00, 0x00, 0x60, 0x00, 0x00, 0x00, 0x04, 0x00, 0x00, 0x00, 0x3e, 0xfc, 0xff, 0xff, 0x00, 0x00, 0x00, 0x01, 0x14, 0x00, 0x00, 0x00, 0x1c, 0x00, 0x00, 0x00, 0x1c, 0x00, 0x00, 0x00, 0x0b, 0x00, 0x00, 0x00, 0x34, 0x00, 0x00, 0x00, 0x02, 0x00, 0x00, 0x00, 0xff, 0xff, 0xff, 0xff, 0x03, 0x00, 0x00, 0x00, 0x28, 0xfc, 0xff, 0xff, 0x19, 0x00, 0x00, 0x00, 0x53, 0x74, 0x61, 0x74, 0x65, 0x66, 0x75, 0x6c, 0x50, 0x61, 0x72, 0x74, 0x69, 0x74, 0x69, 0x6f, 0x6e, 0x65, 0x64, 0x43, 0x61, 0x6c, 0x6c, 0x3a, 0x30, 0x00, 0x00, 0x00, 0x02, 0x00, 0x00, 0x00, 0x01, 0x00, 0x00, 0x00, 0x03, 0x00, 0x00, 0x00, 0x96, 0xfc, 0xff, 0xff, 0x00, 0x00, 0x00, 0x01, 0x14, 0x00, 0x00, 0x00, 0x1c, 0x00, 0x00, 0x00, 0x1c, 0x00, 0x00, 0x00, 0x0a, 0x00, 0x00, 0x00, 0x50, 0x00, 0x00, 0x00, 0x02, 0x00, 0x00, 0x00, 0xff, 0xff, 0xff, 0xff, 0x03, 0x00, 0x00, 0x00, 0x80, 0xfc, 0xff, 0xff, 0x34, 0x00, 0x00, 0x00, 0x73, 0x65, 0x71, 0x75, 0x65, 0x6e, 0x74, 0x69, 0x61, 0x6c, 0x2f, 0x64, 0x65, 0x6e, 0x73, 0x65, 0x5f, 0x32, 0x2f, 0x4d, 0x61, 0x74, 0x4d, 0x75, 0x6c, 0x3b, 0x73, 0x65, 0x71, 0x75, 0x65, 0x6e, 0x74, 0x69, 0x61, 0x6c, 0x2f, 0x64, 0x65, 0x6e, 0x73, 0x65, 0x5f, 0x32, 0x2f, 0x42, 0x69, 0x61, 0x73, 0x41, 0x64, 0x64, 0x00, 0x00, 0x00, 0x00, 0x02, 0x00, 0x00, 0x00, 0x01, 0x00, 0x00, 0x00, 0x03, 0x00, 0x00, 0x00, 0x0a, 0xfd, 0xff, 0xff, 0x00, 0x00, 0x00, 0x01, 0x14, 0x00, 0x00, 0x00, 0x1c, 0x00, 0x00, 0x00, 0x1c, 0x00, 0x00, 0x00, 0x09, 0x00, 0x00, 0x00, 0x68, 0x00, 0x00, 0x00, 0x02, 0x00, 0x00, 0x00, 0xff, 0xff, 0xff, 0xff, 0x10, 0x00, 0x00, 0x00, 0xf4, 0xfc, 0xff, 0xff, 0x4c, 0x00, 0x00, 0x00, 0x73, 0x65, 0x71, 0x75, 0x65, 0x6e, 0x74, 0x69, 0x61, 0x6c, 0x2f, 0x64, 0x65, 0x6e, 0x73, 0x65, 0x5f, 0x31, 0x2f, 0x4d, 0x61, 0x74, 0x4d, 0x75, 0x6c, 0x3b, 0x73, 0x65, 0x71, 0x75, 0x65, 0x6e, 0x74, 0x69, 0x61, 0x6c, 0x2f, 0x64, 0x65, 0x6e, 0x73, 0x65, 0x5f, 0x31, 0x2f, 0x52, 0x65, 0x6c, 0x75, 0x3b, 0x73, 0x65, 0x71, 0x75, 0x65, 0x6e, 0x74, 0x69, 0x61, 0x6c, 0x2f, 0x64, 0x65, 0x6e, 0x73, 0x65, 0x5f, 0x31, 0x2f, 0x42, 0x69, 0x61, 0x73, 0x41, 0x64, 0x64, 0x00, 0x00, 0x00, 0x00, 0x02, 0x00, 0x00, 0x00, 0x01, 0x00, 0x00, 0x00, 0x10, 0x00, 0x00, 0x00, 0x96, 0xfd, 0xff, 0xff, 0x00, 0x00, 0x00, 0x01, 0x14, 0x00, 0x00, 0x00, 0x1c, 0x00, 0x00, 0x00, 0x1c, 0x00, 0x00, 0x00, 0x08, 0x00, 0x00, 0x00, 0x60, 0x00, 0x00, 0x00, 0x02, 0x00, 0x00, 0x00, 0xff, 0xff, 0xff, 0xff, 0x20, 0x00, 0x00, 0x00, 0x80, 0xfd, 0xff, 0xff, 0x46, 0x00, 0x00, 0x00, 0x73, 0x65, 0x71, 0x75, 0x65, 0x6e, 0x74, 0x69, 0x61, 0x6c, 0x2f, 0x64, 0x65, 0x6e, 0x73, 0x65, 0x2f, 0x4d, 0x61, 0x74, 0x4d, 0x75, 0x6c, 0x3b, 0x73, 0x65, 0x71, 0x75, 0x65, 0x6e, 0x74, 0x69, 0x61, 0x6c, 0x2f, 0x64, 0x65, 0x6e, 0x73, 0x65, 0x2f, 0x52, 0x65, 0x6c, 0x75, 0x3b, 0x73, 0x65, 0x71, 0x75, 0x65, 0x6e, 0x74, 0x69, 0x61, 0x6c, 0x2f, 0x64, 0x65, 0x6e, 0x73, 0x65, 0x2f, 0x42, 0x69, 0x61, 0x73, 0x41, 0x64, 0x64, 0x00, 0x00, 0x02, 0x00, 0x00, 0x00, 0x01, 0x00, 0x00, 0x00, 0x20, 0x00, 0x00, 0x00, 0x86, 0xfe, 0xff, 0xff, 0x00, 0x00, 0x00, 0x01, 0x10, 0x00, 0x00, 0x00, 0x10, 0x00, 0x00, 0x00, 0x07, 0x00, 0x00, 0x00, 0x28, 0x00, 0x00, 0x00, 0xf4, 0xfd, 0xff, 0xff, 0x19, 0x00, 0x00, 0x00, 0x73, 0x65, 0x71, 0x75, 0x65, 0x6e, 0x74, 0x69, 0x61, 0x6c, 0x2f, 0x64, 0x65, 0x6e, 0x73, 0x65, 0x5f, 0x32, 0x2f, 0x4d, 0x61, 0x74, 0x4d, 0x75, 0x6c, 0x00, 0x00, 0x00, 0x02, 0x00, 0x00, 0x00, 0x03, 0x00, 0x00, 0x00, 0x10, 0x00, 0x00, 0x00, 0xce, 0xfe, 0xff, 0xff, 0x00, 0x00, 0x00, 0x01, 0x10, 0x00, 0x00, 0x00, 0x10, 0x00, 0x00, 0x00, 0x06, 0x00, 0x00, 0x00, 0x28, 0x00, 0x00, 0x00, 0x3c, 0xfe, 0xff, 0xff, 0x19, 0x00, 0x00, 0x00, 0x73, 0x65, 0x71, 0x75, 0x65, 0x6e, 0x74, 0x69, 0x61, 0x6c, 0x2f, 0x64, 0x65, 0x6e, 0x73, 0x65, 0x5f, 0x31, 0x2f, 0x4d, 0x61, 0x74, 0x4d, 0x75, 0x6c, 0x00, 0x00, 0x00, 0x02, 0x00, 0x00, 0x00, 0x10, 0x00, 0x00, 0x00, 0x20, 0x00, 0x00, 0x00, 0x16, 0xff, 0xff, 0xff, 0x00, 0x00, 0x00, 0x01, 0x10, 0x00, 0x00, 0x00, 0x10, 0x00, 0x00, 0x00, 0x05, 0x00, 0x00, 0x00, 0x24, 0x00, 0x00, 0x00, 0x84, 0xfe, 0xff, 0xff, 0x17, 0x00, 0x00, 0x00, 0x73, 0x65, 0x71, 0x75, 0x65, 0x6e, 0x74, 0x69, 0x61, 0x6c, 0x2f, 0x64, 0x65, 0x6e, 0x73, 0x65, 0x2f, 0x4d, 0x61, 0x74, 0x4d, 0x75, 0x6c, 0x00, 0x02, 0x00, 0x00, 0x00, 0x20, 0x00, 0x00, 0x00, 0x04, 0x00, 0x00, 0x00, 0x5a, 0xff, 0xff, 0xff, 0x00, 0x00, 0x00, 0x01, 0x10, 0x00, 0x00, 0x00, 0x10, 0x00, 0x00, 0x00, 0x04, 0x00, 0x00, 0x00, 0x34, 0x00, 0x00, 0x00, 0xc8, 0xfe, 0xff, 0xff, 0x27, 0x00, 0x00, 0x00, 0x73, 0x65, 0x71, 0x75, 0x65, 0x6e, 0x74, 0x69, 0x61, 0x6c, 0x2f, 0x64, 0x65, 0x6e, 0x73, 0x65, 0x2f, 0x42, 0x69, 0x61, 0x73, 0x41, 0x64, 0x64, 0x2f, 0x52, 0x65, 0x61, 0x64, 0x56, 0x61, 0x72, 0x69, 0x61, 0x62, 0x6c, 0x65, 0x4f, 0x70, 0x00, 0x01, 0x00, 0x00, 0x00, 0x20, 0x00, 0x00, 0x00, 0xaa, 0xff, 0xff, 0xff, 0x00, 0x00, 0x00, 0x01, 0x10, 0x00, 0x00, 0x00, 0x10, 0x00, 0x00, 0x00, 0x03, 0x00, 0x00, 0x00, 0x38, 0x00, 0x00, 0x00, 0x18, 0xff, 0xff, 0xff, 0x29, 0x00, 0x00, 0x00, 0x73, 0x65, 0x71, 0x75, 0x65, 0x6e, 0x74, 0x69, 0x61, 0x6c, 0x2f, 0x64, 0x65, 0x6e, 0x73, 0x65, 0x5f, 0x32, 0x2f, 0x42, 0x69, 0x61, 0x73, 0x41, 0x64, 0x64, 0x2f, 0x52, 0x65, 0x61, 0x64, 0x56, 0x61, 0x72, 0x69, 0x61, 0x62, 0x6c, 0x65, 0x4f, 0x70, 0x00, 0x00, 0x00, 0x01, 0x00, 0x00, 0x00, 0x03, 0x00, 0x00, 0x00, 0x00, 0x00, 0x16, 0x00, 0x18, 0x00, 0x14, 0x00, 0x00, 0x00, 0x10, 0x00, 0x0c, 0x00, 0x08, 0x00, 0x00, 0x00, 0x00, 0x00, 0x00, 0x00, 0x07, 0x00, 0x16, 0x00, 0x00, 0x00, 0x00, 0x00, 0x00, 0x01, 0x10, 0x00, 0x00, 0x00, 0x10, 0x00, 0x00, 0x00, 0x02, 0x00, 0x00, 0x00, 0x38, 0x00, 0x00, 0x00, 0x84, 0xff, 0xff, 0xff, 0x29, 0x00, 0x00, 0x00, 0x73, 0x65, 0x71, 0x75, 0x65, 0x6e, 0x74, 0x69, 0x61, 0x6c, 0x2f, 0x64, 0x65, 0x6e, 0x73, 0x65, 0x5f, 0x31, 0x2f, 0x42, 0x69, 0x61, 0x73, 0x41, 0x64, 0x64, 0x2f, 0x52, 0x65, 0x61, 0x64, 0x56, 0x61, 0x72, 0x69, 0x61, 0x62, 0x6c, 0x65, 0x4f, 0x70, 0x00, 0x00, 0x00, 0x01, 0x00, 0x00, 0x00, 0x10, 0x00, 0x00, 0x00, 0x00, 0x00, 0x16, 0x00, 0x1c, 0x00, 0x18, 0x00, 0x00, 0x00, 0x14, 0x00, 0x10, 0x00, 0x0c, 0x00, 0x00, 0x00, 0x00, 0x00, 0x08, 0x00, 0x07, 0x00, 0x16, 0x00, 0x00, 0x00, 0x00, 0x00, 0x00, 0x01, 0x14, 0x00, 0x00, 0x00, 0x20, 0x00, 0x00, 0x00, 0x20, 0x00, 0x00, 0x00, 0x01, 0x00, 0x00, 0x00, 0x3c, 0x00, 0x00, 0x00, 0x02, 0x00, 0x00, 0x00, 0xff, 0xff, 0xff, 0xff, 0x04, 0x00, 0x00, 0x00, 0x04, 0x00, 0x04, 0x00, 0x04, 0x00, 0x00, 0x00, 0x1d, 0x00, 0x00, 0x00, 0x73, 0x65, 0x72, 0x76, 0x69, 0x6e, 0x67, 0x5f, 0x64, 0x65, 0x66, 0x61, 0x75, 0x6c, 0x74, 0x5f, 0x64, 0x65, 0x6e, 0x73, 0x65, 0x5f, 0x69, 0x6e, 0x70, 0x75, 0x74, 0x3a, 0x30, 0x00, 0x00, 0x00, 0x02, 0x00, 0x00, 0x00, 0x01, 0x00, 0x00, 0x00, 0x04, 0x00, 0x00, 0x00, 0x02, 0x00, 0x00, 0x00, 0x20, 0x00, 0x00, 0x00, 0x04, 0x00, 0x00, 0x00, 0xf4, 0xff, 0xff, 0xff, 0x19, 0x00, 0x00, 0x00, 0x00, 0x00, 0x00, 0x19, 0x0c, 0x00, 0x0c, 0x00, 0x0b, 0x00, 0x00, 0x00, 0x00, 0x00, 0x04, 0x00, 0x0c, 0x00, 0x00, 0x00, 0x09, 0x00, 0x00, 0x00, 0x00, 0x00, 0x00, 0x09 };