#ifdef __has_attribute
#define HAVE_ATTRIBUTE(x) __has_attribute(x)
#else
#define HAVE_ATTRIBUTE(x) 0
#endif
#if HAVE_ATTRIBUTE(aligned) || (defined(__GNUC__) && !defined(__clang__))
#define DATA_ALIGN_ATTRIBUTE __attribute__((aligned(4)))
#else
#define DATA_ALIGN_ATTRIBUTE
#endif

const unsigned char model_data[] DATA_ALIGN_ATTRIBUTE = {
        0x1c, 0x00, 0x00, 0x00, 0x54, 0x46, 0x4c, 0x33, 0x00, 0x00, 0x12, 0x00,
        0x1c, 0x00, 0x04, 0x00, 0x08, 0x00, 0x0c, 0x00, 0x10, 0x00, 0x14, 0x00,
        0x00, 0x00, 0x18, 0x00, 0x12, 0x00, 0x00, 0x00, 0x03, 0x00, 0x00, 0x00,
        0x78, 0x0a, 0x00, 0x00, 0x44, 0x06, 0x00, 0x00, 0x2c, 0x06, 0x00, 0x00,
        0x34, 0x00, 0x00, 0x00, 0x04, 0x00, 0x00, 0x00, 0x01, 0x00, 0x00, 0x00,
        0x04, 0x00, 0x00, 0x00, 0x2c, 0xf6, 0xff, 0xff, 0x08, 0x00, 0x00, 0x00,
        0x0b, 0x00, 0x00, 0x00, 0x13, 0x00, 0x00, 0x00, 0x6d, 0x69, 0x6e, 0x5f,
        0x72, 0x75, 0x6e, 0x74, 0x69, 0x6d, 0x65, 0x5f, 0x76, 0x65, 0x72, 0x73,
        0x69, 0x6f, 0x6e, 0x00, 0x0c, 0x00, 0x00, 0x00, 0xec, 0x05, 0x00, 0x00,
        0x5c, 0x05, 0x00, 0x00, 0x3c, 0x05, 0x00, 0x00, 0xec, 0x04, 0x00, 0x00,
        0xdc, 0x00, 0x00, 0x00, 0x8c, 0x00, 0x00, 0x00, 0x84, 0x00, 0x00, 0x00,
        0x7c, 0x00, 0x00, 0x00, 0x2c, 0x00, 0x00, 0x00, 0x24, 0x00, 0x00, 0x00,
        0x1c, 0x00, 0x00, 0x00, 0x04, 0x00, 0x00, 0x00, 0xd6, 0xfa, 0xff, 0xff,
        0x04, 0x00, 0x00, 0x00, 0x05, 0x00, 0x00, 0x00, 0x31, 0x2e, 0x35, 0x2e,
        0x30, 0x00, 0x00, 0x00, 0x34, 0xf6, 0xff, 0xff, 0x38, 0xf6, 0xff, 0xff,
        0xf2, 0xfa, 0xff, 0xff, 0x04, 0x00, 0x00, 0x00, 0x40, 0x00, 0x00, 0x00,
        0xc0, 0xdf, 0xa4, 0xbd, 0xdd, 0xd2, 0x2c, 0x3f, 0x4c, 0xae, 0xc3, 0xbd,
        0xd0, 0xd9, 0x08, 0xbf, 0x54, 0x03, 0xe2, 0x3e, 0x96, 0xf6, 0xae, 0x3b,
        0x84, 0x2f, 0x81, 0xbe, 0x5b, 0x20, 0xce, 0xbe, 0x8d, 0x37, 0xf0, 0x3e,
        0x24, 0x5d, 0xa3, 0x3e, 0x87, 0x49, 0xd5, 0xbe, 0x00, 0x5a, 0x74, 0xbe,
        0xb8, 0xe1, 0xc1, 0xbd, 0x5e, 0x59, 0x0a, 0xbe, 0x00, 0xa6, 0x8e, 0xbc,
        0x70, 0xc9, 0x8f, 0xbd, 0x88, 0xf6, 0xff, 0xff, 0x8c, 0xf6, 0xff, 0xff,
        0x46, 0xfb, 0xff, 0xff, 0x04, 0x00, 0x00, 0x00, 0x40, 0x00, 0x00, 0x00,
        0x00, 0x00, 0x00, 0x00, 0x0f, 0x99, 0x00, 0x3f, 0x00, 0x00, 0x00, 0x00,
        0x00, 0x00, 0x00, 0x00, 0x50, 0x79, 0x00, 0xbf, 0x1d, 0xc4, 0x0b, 0xbd,
        0x00, 0x00, 0x00, 0x00, 0x00, 0x00, 0x00, 0x00, 0x8f, 0xa7, 0x77, 0xbf,
        0xbf, 0xe7, 0x7d, 0xbf, 0x00, 0x00, 0x00, 0x00, 0x00, 0x00, 0x00, 0x00,
        0x00, 0x00, 0x00, 0x00, 0x00, 0x00, 0x00, 0x00, 0x00, 0x00, 0x00, 0x00,
        0x00, 0x00, 0x00, 0x00, 0x92, 0xfb, 0xff, 0xff, 0x04, 0x00, 0x00, 0x00,
        0x00, 0x04, 0x00, 0x00, 0xf5, 0xe1, 0xbc, 0x3e, 0x10, 0xd5, 0x17, 0xbe,
        0x87, 0xf5, 0xdc, 0x3e, 0x97, 0xdc, 0xa5, 0x3e, 0xc6, 0xb4, 0x92, 0xbe,
        0x5a, 0x76, 0x64, 0x3e, 0xc1, 0xb1, 0x99, 0x3e, 0xbf, 0xa6, 0xd6, 0x3e,
        0xea, 0x0b, 0x32, 0xbe, 0xef, 0xdb, 0xc3, 0xbe, 0x94, 0x5a, 0x61, 0xbe,
        0x80, 0xfe, 0x89, 0xbc, 0x24, 0x47, 0x9f, 0x3d, 0x02, 0xa6, 0x7e, 0xbe,
        0x3f, 0x41, 0xab, 0x3e, 0xd2, 0x10, 0x41, 0x3e, 0x6c, 0x25, 0x0d, 0xbe,
        0xe6, 0x0a, 0xd2, 0xbe, 0x46, 0x81, 0x21, 0xbe, 0x00, 0x42, 0xa4, 0xbe,
        0x7f, 0x64, 0x9d, 0x3e, 0xa5, 0x44, 0xbe, 0x3e, 0xe8, 0xcc, 0x0a, 0xbd,
        0x18, 0x53, 0x04, 0xbe, 0x35, 0x29, 0x3f, 0x3e, 0x54, 0x62, 0x78, 0x3e,
        0xae, 0x2c, 0x72, 0x3e, 0x73, 0x58, 0xd3, 0xbe, 0x36, 0x89, 0xa6, 0xbe,
        0xdc, 0x5d, 0xa7, 0x3d, 0xea, 0xf6, 0x7f, 0x3e, 0x62, 0x18, 0xad, 0xbe,
        0x5a, 0x53, 0x20, 0x3e, 0xbc, 0x70, 0x1a, 0xbe, 0xe9, 0x39, 0x4e, 0xbe,
        0x20, 0x82, 0x33, 0xbe, 0x64, 0x50, 0x91, 0xbd, 0x6a, 0xf9, 0x26, 0xbe,
        0x63, 0x62, 0x4c, 0xbe, 0xe3, 0xd5, 0xa4, 0xbe, 0x6a, 0x34, 0x9d, 0xbe,
        0x7c, 0x20, 0xdc, 0x3d, 0xb0, 0x07, 0x0f, 0xbe, 0xd8, 0xc8, 0xc6, 0xbe,
        0xb0, 0xa5, 0xea, 0xbd, 0x22, 0xb4, 0x06, 0xbe, 0xcc, 0x50, 0xc7, 0x3d,
        0x30, 0x27, 0x57, 0xbe, 0x43, 0x63, 0x95, 0xbe, 0x67, 0x61, 0x1a, 0xbe,
        0x1b, 0xc3, 0xa4, 0x3e, 0xae, 0xf4, 0x02, 0xbe, 0x4c, 0x7e, 0xbf, 0xbd,
        0x0f, 0x77, 0x1a, 0x3c, 0x14, 0x38, 0xab, 0x3d, 0x8a, 0x35, 0x21, 0x3e,
        0xab, 0x50, 0x89, 0x3e, 0xa2, 0xe0, 0x0c, 0x3e, 0x76, 0x26, 0xcd, 0xbe,
        0xc0, 0x51, 0x7c, 0x3c, 0xf7, 0x82, 0x80, 0x3e, 0xeb, 0x4e, 0xc3, 0x3e,
        0x10, 0x26, 0x3c, 0xbd, 0x4c, 0x32, 0xd7, 0x3d, 0xe6, 0x32, 0xd3, 0xbe,
        0x76, 0x1f, 0xda, 0x3e, 0xb3, 0x80, 0x99, 0x3e, 0x5c, 0x2d, 0x82, 0xbd,
        0x6e, 0x04, 0xd7, 0xbe, 0x2a, 0xc1, 0x0a, 0x3e, 0x64, 0x5e, 0xb5, 0x3d,
        0x95, 0x94, 0xbe, 0x3e, 0x3c, 0x86, 0x34, 0xbf, 0x53, 0x6d, 0x45, 0xbc,
        0x9d, 0x26, 0xc9, 0x3e, 0x87, 0x35, 0xbc, 0x3e, 0xa0, 0xe9, 0x74, 0xbd,
        0x43, 0x98, 0x85, 0x3e, 0x80, 0x65, 0x98, 0x3b, 0x72, 0x80, 0xd0, 0xbe,
        0x94, 0xed, 0xd4, 0x3d, 0xf0, 0x3d, 0x12, 0xbd, 0x14, 0x9d, 0xed, 0x3d,
        0x20, 0x07, 0x5d, 0x3c, 0x1a, 0xb5, 0x17, 0xbe, 0xe0, 0x0c, 0xe7, 0x3c,
        0x8d, 0x8c, 0xba, 0xbe, 0xdd, 0x63, 0x9b, 0x3e, 0x18, 0x84, 0xeb, 0xbd,
        0x0b, 0x3c, 0xcb, 0x3e, 0xaa, 0x1f, 0x10, 0x3e, 0xf8, 0x71, 0x54, 0x3d,
        0x80, 0x70, 0x8c, 0xbd, 0xa7, 0xab, 0xdd, 0xbe, 0x17, 0x97, 0xa7, 0x3e,
        0xb0, 0x55, 0xaa, 0xbc, 0x55, 0x4b, 0xdd, 0x3e, 0x50, 0x86, 0x23, 0xbe,
        0x40, 0x80, 0x8b, 0xbb, 0x08, 0x26, 0x7f, 0x3d, 0xf8, 0xd1, 0xb0, 0xbe,
        0xa6, 0x0b, 0xb0, 0xbe, 0x78, 0xd0, 0x8e, 0xbe, 0x20, 0xd0, 0x6f, 0xbc,
        0x4f, 0xb2, 0x80, 0x3e, 0x40, 0x93, 0x77, 0x3c, 0x40, 0xbe, 0x1e, 0xbd,
        0x2a, 0x46, 0x6f, 0x3e, 0x85, 0xeb, 0x87, 0xbe, 0x2c, 0x39, 0xa1, 0xbe,
        0x2d, 0xd4, 0xb0, 0x3e, 0x2c, 0x76, 0x2e, 0xbe, 0x82, 0x89, 0x78, 0x3e,
        0x27, 0xda, 0x10, 0x3f, 0xba, 0x55, 0x4f, 0x3e, 0xe0, 0x89, 0x94, 0xbc,
        0x11, 0xb3, 0x92, 0xbf, 0x40, 0x4b, 0xd7, 0xbe, 0x6c, 0xe9, 0xdf, 0x3d,
        0x30, 0x91, 0x31, 0xbe, 0xda, 0x63, 0x94, 0xbf, 0x9f, 0x70, 0x3d, 0xbe,
        0x92, 0xf4, 0x43, 0x3e, 0x61, 0x4e, 0x8d, 0x3e, 0xf2, 0xfd, 0x7a, 0x3e,
        0xe7, 0xc8, 0xbf, 0xbe, 0x80, 0xff, 0xb4, 0xbe, 0xa4, 0xd4, 0xfd, 0xbd,
        0x90, 0xbe, 0x01, 0xbe, 0x74, 0x96, 0x30, 0x3c, 0xe4, 0x11, 0xb7, 0xbd,
        0x99, 0x41, 0xa3, 0x3e, 0x77, 0x24, 0xd5, 0x3d, 0xfa, 0x71, 0x23, 0x3e,
        0x94, 0x6f, 0xe0, 0x3d, 0xcf, 0x1f, 0xc1, 0x3e, 0x26, 0x53, 0xa3, 0xbe,
        0x0b, 0xfd, 0xa1, 0xbe, 0x00, 0x3e, 0xb7, 0xbc, 0x77, 0xc9, 0x9a, 0x3e,
        0xe9, 0x64, 0x8d, 0x3e, 0x67, 0xd0, 0xa6, 0xbe, 0x40, 0x38, 0xed, 0xbb,
        0x1b, 0x1d, 0x69, 0xbe, 0xce, 0xfc, 0x85, 0xbe, 0x05, 0xe5, 0x20, 0x3f,
        0x00, 0x55, 0x27, 0xbb, 0x40, 0x7d, 0x0a, 0xbd, 0x5b, 0xdd, 0xb4, 0xbe,
        0x04, 0x6a, 0x90, 0xbe, 0xd1, 0xab, 0xa7, 0x3e, 0xf0, 0xf7, 0x7d, 0xbe,
        0xad, 0x65, 0x4a, 0xbf, 0x9a, 0x2f, 0xa6, 0xbf, 0x88, 0x87, 0xf5, 0xbd,
        0xd8, 0xad, 0xb5, 0xbd, 0xfa, 0xc1, 0x8f, 0xbe, 0x86, 0xf5, 0x5c, 0x3e,
        0x25, 0x4c, 0xc0, 0x3e, 0x44, 0x6b, 0xe3, 0x3d, 0x99, 0x41, 0x47, 0xbe,
        0xb0, 0x46, 0xa3, 0xbe, 0x70, 0xb7, 0x94, 0xbe, 0x14, 0xbb, 0xce, 0x3d,
        0x86, 0x4a, 0x5e, 0x3e, 0x19, 0xc1, 0xa1, 0x3e, 0x18, 0xc5, 0x0f, 0xbd,
        0x52, 0xf6, 0x2d, 0x3e, 0x10, 0xde, 0x57, 0x3d, 0x10, 0x27, 0xca, 0xbc,
        0x00, 0xe8, 0x26, 0xbc, 0x8d, 0x76, 0x94, 0x3e, 0xcc, 0x1b, 0xbd, 0xbd,
        0x5c, 0x25, 0xa8, 0xbe, 0x00, 0x9f, 0x62, 0xbb, 0x66, 0xf8, 0x5c, 0x3e,
        0x78, 0x97, 0x8f, 0xbd, 0x50, 0x72, 0xbd, 0xbc, 0xc0, 0x5b, 0xc7, 0xbc,
        0x64, 0x51, 0xd8, 0x3d, 0x2c, 0x3f, 0xaa, 0xbe, 0x0a, 0x7a, 0x93, 0xbe,
        0xad, 0x01, 0xb5, 0x3e, 0xd0, 0xda, 0xf1, 0xbd, 0xaa, 0x67, 0xd9, 0xbe,
        0x50, 0xf8, 0xda, 0xbc, 0x34, 0x06, 0x6a, 0xbe, 0xcc, 0x73, 0x34, 0xbe,
        0xa6, 0x42, 0x30, 0x3e, 0x6a, 0x47, 0x20, 0xbe, 0x26, 0xf7, 0x83, 0xbe,
        0xe0, 0x41, 0xd0, 0xbd, 0xd9, 0xca, 0xaf, 0x3e, 0xb5, 0x6a, 0x5f, 0xbd,
        0x26, 0x6a, 0x6a, 0xbe, 0x21, 0xec, 0xa3, 0x3e, 0x7a, 0x98, 0xaa, 0xba,
        0x16, 0xdc, 0xb9, 0x3e, 0x82, 0x03, 0x3b, 0xbe, 0x6b, 0x8f, 0xa7, 0x3e,
        0x92, 0x84, 0x62, 0x3d, 0x10, 0x8b, 0x0a, 0x3e, 0x5b, 0xa7, 0x91, 0x3e,
        0x7f, 0x12, 0xc2, 0xbe, 0xec, 0xc4, 0xf0, 0xbd, 0xd3, 0xed, 0x83, 0x3e,
        0xf0, 0x51, 0x93, 0xbd, 0x22, 0x8d, 0x17, 0x3e, 0x76, 0xca, 0x7b, 0x3e,
        0x00, 0x1f, 0x28, 0xbe, 0x6f, 0x5b, 0xcf, 0xbe, 0xfe, 0x8f, 0x17, 0x3e,
        0x5e, 0xe5, 0x97, 0xbe, 0xde, 0x55, 0x3e, 0x3e, 0x88, 0xc0, 0x42, 0xbd,
        0xaa, 0x88, 0x7b, 0x3e, 0xfe, 0xd1, 0x07, 0x3e, 0xe0, 0x2c, 0x36, 0x3d,
        0xf8, 0x6c, 0x99, 0xbe, 0x30, 0x5c, 0x83, 0xbc, 0x3c, 0xd2, 0xf2, 0x3d,
        0x21, 0x6d, 0xc9, 0xbe, 0x18, 0x51, 0x22, 0xbd, 0xee, 0xc3, 0x1d, 0xbe,
        0xec, 0xdc, 0x97, 0xbe, 0x63, 0x72, 0xdd, 0xbe, 0x88, 0x54, 0x16, 0x3d,
        0x84, 0xec, 0xf4, 0xbd, 0x20, 0x89, 0x25, 0xbd, 0xfa, 0x8f, 0x82, 0xbe,
        0x8b, 0xd7, 0x93, 0xbe, 0x52, 0xf8, 0x14, 0xbe, 0x28, 0x37, 0x02, 0xbd,
        0x9e, 0x3b, 0x2a, 0xbe, 0xee, 0x4c, 0x06, 0x3e, 0x90, 0x63, 0x13, 0xbe,
        0x9d, 0x67, 0x45, 0xbe, 0xf1, 0x2c, 0xa9, 0xbe, 0x11, 0x7b, 0x88, 0x3e,
        0x87, 0x5a, 0xab, 0x3e, 0xe0, 0x64, 0x37, 0xbd, 0x4f, 0x29, 0xdf, 0x3e,
        0x92, 0xd7, 0x53, 0x3e, 0x2f, 0x33, 0x49, 0xbe, 0x33, 0xf0, 0xaf, 0x3d,
        0x60, 0x2a, 0x72, 0xbe, 0xb2, 0x84, 0x15, 0xbe, 0xef, 0xf2, 0x94, 0x3e,
        0x42, 0xa9, 0x42, 0xbf, 0x4f, 0xac, 0x93, 0xbf, 0xd5, 0x57, 0x4c, 0xbe,
        0x7e, 0xc7, 0xa2, 0xbe, 0xf2, 0x61, 0xb6, 0xbe, 0x3d, 0x64, 0x9a, 0x3e,
        0x47, 0xe4, 0xb2, 0x3e, 0x17, 0xa4, 0xd5, 0x3e, 0x9e, 0xff, 0xff, 0xff,
        0x04, 0x00, 0x00, 0x00, 0x40, 0x00, 0x00, 0x00, 0x00, 0x00, 0x00, 0x00,
        0xe4, 0x1e, 0x4a, 0xbd, 0x00, 0x00, 0x00, 0x00, 0xe1, 0x4e, 0xb4, 0xbd,
        0xd5, 0x4d, 0x64, 0xbe, 0x00, 0x00, 0x00, 0x00, 0x00, 0x00, 0x00, 0x00,
        0x50, 0x4b, 0x6b, 0x3f, 0x2c, 0xa4, 0xa3, 0xbd, 0xcf, 0xe0, 0x84, 0xbd,
        0x00, 0x00, 0x00, 0x00, 0x00, 0x00, 0x00, 0x00, 0xd1, 0xe3, 0xb8, 0xbd,
        0x00, 0x00, 0x00, 0x00, 0x00, 0x00, 0x00, 0x00, 0x99, 0x6d, 0xd3, 0x3e,
        0xea, 0xff, 0xff, 0xff, 0x04, 0x00, 0x00, 0x00, 0x08, 0x00, 0x00, 0x00,
        0x21, 0x88, 0x45, 0xbe, 0x09, 0xee, 0x96, 0x3f, 0x00, 0x00, 0x06, 0x00,
        0x08, 0x00, 0x04, 0x00, 0x06, 0x00, 0x00, 0x00, 0x04, 0x00, 0x00, 0x00,
        0x80, 0x00, 0x00, 0x00, 0x7a, 0x53, 0x7b, 0xbe, 0x0c, 0x1e, 0xb2, 0x3d,
        0xb0, 0xd9, 0x25, 0x3e, 0x2d, 0x2d, 0xba, 0x3e, 0xde, 0x16, 0xb1, 0x3f,
        0x84, 0xab, 0xd9, 0x3e, 0xfc, 0x40, 0xfb, 0xbe, 0x18, 0xe3, 0x28, 0x3f,
        0xc1, 0x55, 0xbe, 0xbe, 0xce, 0xaf, 0xbb, 0x3f, 0xcc, 0xef, 0x0b, 0x3f,
        0x00, 0x9a, 0x7d, 0x3c, 0xa6, 0x57, 0xca, 0x3e, 0x38, 0x48, 0xf4, 0x3e,
        0x0c, 0x8e, 0x0c, 0xbf, 0x53, 0x88, 0xbd, 0xbf, 0x80, 0x94, 0x16, 0xbd,
        0x6b, 0x21, 0xbf, 0xbe, 0x36, 0x61, 0xe2, 0xbe, 0xfc, 0x72, 0x1f, 0xbe,
        0x73, 0x53, 0x82, 0xbd, 0x5a, 0x07, 0x8b, 0x3e, 0x24, 0xd3, 0x71, 0x3e,
        0x85, 0x9a, 0x8d, 0x3f, 0xc9, 0x73, 0x4c, 0x3e, 0x8d, 0x6e, 0x93, 0xbf,
        0xf0, 0x02, 0x22, 0x3e, 0xc2, 0x9c, 0x85, 0x3e, 0x02, 0xcc, 0x96, 0xbe,
        0x24, 0xab, 0x57, 0x3e, 0x20, 0xd8, 0x44, 0xbd, 0x94, 0xd1, 0xdd, 0xbf,
        0xdc, 0xfb, 0xff, 0xff, 0x0f, 0x00, 0x00, 0x00, 0x54, 0x4f, 0x43, 0x4f,
        0x20, 0x43, 0x6f, 0x6e, 0x76, 0x65, 0x72, 0x74, 0x65, 0x64, 0x2e, 0x00,
        0x01, 0x00, 0x00, 0x00, 0x10, 0x00, 0x00, 0x00, 0x0c, 0x00, 0x14, 0x00,
        0x04, 0x00, 0x08, 0x00, 0x0c, 0x00, 0x10, 0x00, 0x0c, 0x00, 0x00, 0x00,
        0xf0, 0x00, 0x00, 0x00, 0xe4, 0x00, 0x00, 0x00, 0xd8, 0x00, 0x00, 0x00,
        0x04, 0x00, 0x00, 0x00, 0x03, 0x00, 0x00, 0x00, 0x90, 0x00, 0x00, 0x00,
        0x48, 0x00, 0x00, 0x00, 0x04, 0x00, 0x00, 0x00, 0xce, 0xff, 0xff, 0xff,
        0x00, 0x00, 0x00, 0x08, 0x18, 0x00, 0x00, 0x00, 0x0c, 0x00, 0x00, 0x00,
        0x04, 0x00, 0x00, 0x00, 0x40, 0xfc, 0xff, 0xff, 0x01, 0x00, 0x00, 0x00,
        0x00, 0x00, 0x00, 0x00, 0x03, 0x00, 0x00, 0x00, 0x07, 0x00, 0x00, 0x00,
        0x08, 0x00, 0x00, 0x00, 0x09, 0x00, 0x00, 0x00, 0x00, 0x00, 0x0e, 0x00,
        0x14, 0x00, 0x00, 0x00, 0x08, 0x00, 0x0c, 0x00, 0x07, 0x00, 0x10, 0x00,
        0x0e, 0x00, 0x00, 0x00, 0x00, 0x00, 0x00, 0x08, 0x1c, 0x00, 0x00, 0x00,
        0x10, 0x00, 0x00, 0x00, 0x04, 0x00, 0x00, 0x00, 0xba, 0xff, 0xff, 0xff,
        0x00, 0x00, 0x00, 0x01, 0x01, 0x00, 0x00, 0x00, 0x07, 0x00, 0x00, 0x00,
        0x03, 0x00, 0x00, 0x00, 0x04, 0x00, 0x00, 0x00, 0x05, 0x00, 0x00, 0x00,
        0x06, 0x00, 0x00, 0x00, 0x00, 0x00, 0x0e, 0x00, 0x16, 0x00, 0x00, 0x00,
        0x08, 0x00, 0x0c, 0x00, 0x07, 0x00, 0x10, 0x00, 0x0e, 0x00, 0x00, 0x00,
        0x00, 0x00, 0x00, 0x08, 0x24, 0x00, 0x00, 0x00, 0x18, 0x00, 0x00, 0x00,
        0x0c, 0x00, 0x00, 0x00, 0x00, 0x00, 0x06, 0x00, 0x08, 0x00, 0x07, 0x00,
        0x06, 0x00, 0x00, 0x00, 0x00, 0x00, 0x00, 0x01, 0x01, 0x00, 0x00, 0x00,
        0x04, 0x00, 0x00, 0x00, 0x03, 0x00, 0x00, 0x00, 0x01, 0x00, 0x00, 0x00,
        0x02, 0x00, 0x00, 0x00, 0x03, 0x00, 0x00, 0x00, 0x01, 0x00, 0x00, 0x00,
        0x00, 0x00, 0x00, 0x00, 0x01, 0x00, 0x00, 0x00, 0x01, 0x00, 0x00, 0x00,
        0x0a, 0x00, 0x00, 0x00, 0xec, 0x02, 0x00, 0x00, 0x84, 0x02, 0x00, 0x00,
        0x24, 0x02, 0x00, 0x00, 0xdc, 0x01, 0x00, 0x00, 0x98, 0x01, 0x00, 0x00,
        0x38, 0x01, 0x00, 0x00, 0xf0, 0x00, 0x00, 0x00, 0xac, 0x00, 0x00, 0x00,
        0x4c, 0x00, 0x00, 0x00, 0x04, 0x00, 0x00, 0x00, 0x4a, 0xfd, 0xff, 0xff,
        0x38, 0x00, 0x00, 0x00, 0x02, 0x00, 0x00, 0x00, 0x0c, 0x00, 0x00, 0x00,
        0x04, 0x00, 0x00, 0x00, 0x3c, 0xfd, 0xff, 0xff, 0x1e, 0x00, 0x00, 0x00,
        0x73, 0x65, 0x71, 0x75, 0x65, 0x6e, 0x74, 0x69, 0x61, 0x6c, 0x2f, 0x64,
        0x65, 0x6e, 0x73, 0x65, 0x5f, 0x32, 0x2f, 0x4d, 0x61, 0x74, 0x4d, 0x75,
        0x6c, 0x5f, 0x62, 0x69, 0x61, 0x73, 0x00, 0x00, 0x01, 0x00, 0x00, 0x00,
        0x02, 0x00, 0x00, 0x00, 0x8e, 0xfd, 0xff, 0xff, 0x4c, 0x00, 0x00, 0x00,
        0x01, 0x00, 0x00, 0x00, 0x0c, 0x00, 0x00, 0x00, 0x04, 0x00, 0x00, 0x00,
        0x80, 0xfd, 0xff, 0xff, 0x32, 0x00, 0x00, 0x00, 0x73, 0x65, 0x71, 0x75,
        0x65, 0x6e, 0x74, 0x69, 0x61, 0x6c, 0x2f, 0x64, 0x65, 0x6e, 0x73, 0x65,
        0x5f, 0x32, 0x2f, 0x4d, 0x61, 0x74, 0x4d, 0x75, 0x6c, 0x2f, 0x52, 0x65,
        0x61, 0x64, 0x56, 0x61, 0x72, 0x69, 0x61, 0x62, 0x6c, 0x65, 0x4f, 0x70,
        0x2f, 0x74, 0x72, 0x61, 0x6e, 0x73, 0x70, 0x6f, 0x73, 0x65, 0x00, 0x00,
        0x02, 0x00, 0x00, 0x00, 0x02, 0x00, 0x00, 0x00, 0x10, 0x00, 0x00, 0x00,
        0xea, 0xfd, 0xff, 0xff, 0x30, 0x00, 0x00, 0x00, 0x0a, 0x00, 0x00, 0x00,
        0x0c, 0x00, 0x00, 0x00, 0x04, 0x00, 0x00, 0x00, 0xdc, 0xfd, 0xff, 0xff,
        0x17, 0x00, 0x00, 0x00, 0x73, 0x65, 0x71, 0x75, 0x65, 0x6e, 0x74, 0x69,
        0x61, 0x6c, 0x2f, 0x64, 0x65, 0x6e, 0x73, 0x65, 0x5f, 0x31, 0x2f, 0x52,
        0x65, 0x6c, 0x75, 0x00, 0x02, 0x00, 0x00, 0x00, 0x01, 0x00, 0x00, 0x00,
        0x10, 0x00, 0x00, 0x00, 0x2a, 0xfe, 0xff, 0xff, 0x38, 0x00, 0x00, 0x00,
        0x03, 0x00, 0x00, 0x00, 0x0c, 0x00, 0x00, 0x00, 0x04, 0x00, 0x00, 0x00,
        0x1c, 0xfe, 0xff, 0xff, 0x1e, 0x00, 0x00, 0x00, 0x73, 0x65, 0x71, 0x75,
        0x65, 0x6e, 0x74, 0x69, 0x61, 0x6c, 0x2f, 0x64, 0x65, 0x6e, 0x73, 0x65,
        0x5f, 0x31, 0x2f, 0x4d, 0x61, 0x74, 0x4d, 0x75, 0x6c, 0x5f, 0x62, 0x69,
        0x61, 0x73, 0x00, 0x00, 0x01, 0x00, 0x00, 0x00, 0x10, 0x00, 0x00, 0x00,
        0x6e, 0xfe, 0xff, 0xff, 0x4c, 0x00, 0x00, 0x00, 0x04, 0x00, 0x00, 0x00,
        0x0c, 0x00, 0x00, 0x00, 0x04, 0x00, 0x00, 0x00, 0x60, 0xfe, 0xff, 0xff,
        0x32, 0x00, 0x00, 0x00, 0x73, 0x65, 0x71, 0x75, 0x65, 0x6e, 0x74, 0x69,
        0x61, 0x6c, 0x2f, 0x64, 0x65, 0x6e, 0x73, 0x65, 0x5f, 0x31, 0x2f, 0x4d,
        0x61, 0x74, 0x4d, 0x75, 0x6c, 0x2f, 0x52, 0x65, 0x61, 0x64, 0x56, 0x61,
        0x72, 0x69, 0x61, 0x62, 0x6c, 0x65, 0x4f, 0x70, 0x2f, 0x74, 0x72, 0x61,
        0x6e, 0x73, 0x70, 0x6f, 0x73, 0x65, 0x00, 0x00, 0x02, 0x00, 0x00, 0x00,
        0x10, 0x00, 0x00, 0x00, 0x10, 0x00, 0x00, 0x00, 0xca, 0xfe, 0xff, 0xff,
        0x30, 0x00, 0x00, 0x00, 0x07, 0x00, 0x00, 0x00, 0x0c, 0x00, 0x00, 0x00,
        0x04, 0x00, 0x00, 0x00, 0xbc, 0xfe, 0xff, 0xff, 0x15, 0x00, 0x00, 0x00,
        0x73, 0x65, 0x71, 0x75, 0x65, 0x6e, 0x74, 0x69, 0x61, 0x6c, 0x2f, 0x64,
        0x65, 0x6e, 0x73, 0x65, 0x2f, 0x52, 0x65, 0x6c, 0x75, 0x00, 0x00, 0x00,
        0x02, 0x00, 0x00, 0x00, 0x01, 0x00, 0x00, 0x00, 0x10, 0x00, 0x00, 0x00,
        0x0a, 0xff, 0xff, 0xff, 0x38, 0x00, 0x00, 0x00, 0x05, 0x00, 0x00, 0x00,
        0x0c, 0x00, 0x00, 0x00, 0x04, 0x00, 0x00, 0x00, 0xfc, 0xfe, 0xff, 0xff,
        0x1c, 0x00, 0x00, 0x00, 0x73, 0x65, 0x71, 0x75, 0x65, 0x6e, 0x74, 0x69,
        0x61, 0x6c, 0x2f, 0x64, 0x65, 0x6e, 0x73, 0x65, 0x2f, 0x4d, 0x61, 0x74,
        0x4d, 0x75, 0x6c, 0x5f, 0x62, 0x69, 0x61, 0x73, 0x00, 0x00, 0x00, 0x00,
        0x01, 0x00, 0x00, 0x00, 0x10, 0x00, 0x00, 0x00, 0x4e, 0xff, 0xff, 0xff,
        0x4c, 0x00, 0x00, 0x00, 0x08, 0x00, 0x00, 0x00, 0x0c, 0x00, 0x00, 0x00,
        0x04, 0x00, 0x00, 0x00, 0x40, 0xff, 0xff, 0xff, 0x30, 0x00, 0x00, 0x00,
        0x73, 0x65, 0x71, 0x75, 0x65, 0x6e, 0x74, 0x69, 0x61, 0x6c, 0x2f, 0x64,
        0x65, 0x6e, 0x73, 0x65, 0x2f, 0x4d, 0x61, 0x74, 0x4d, 0x75, 0x6c, 0x2f,
        0x52, 0x65, 0x61, 0x64, 0x56, 0x61, 0x72, 0x69, 0x61, 0x62, 0x6c, 0x65,
        0x4f, 0x70, 0x2f, 0x74, 0x72, 0x61, 0x6e, 0x73, 0x70, 0x6f, 0x73, 0x65,
        0x00, 0x00, 0x00, 0x00, 0x02, 0x00, 0x00, 0x00, 0x10, 0x00, 0x00, 0x00,
        0x01, 0x00, 0x00, 0x00, 0xaa, 0xff, 0xff, 0xff, 0x44, 0x00, 0x00, 0x00,
        0x06, 0x00, 0x00, 0x00, 0x2c, 0x00, 0x00, 0x00, 0x0c, 0x00, 0x00, 0x00,
        0x08, 0x00, 0x0c, 0x00, 0x04, 0x00, 0x08, 0x00, 0x08, 0x00, 0x00, 0x00,
        0x10, 0x00, 0x00, 0x00, 0x04, 0x00, 0x00, 0x00, 0x01, 0x00, 0x00, 0x00,
        0x00, 0x00, 0x7f, 0x43, 0x01, 0x00, 0x00, 0x00, 0x00, 0x00, 0x00, 0x00,
        0x0b, 0x00, 0x00, 0x00, 0x64, 0x65, 0x6e, 0x73, 0x65, 0x5f, 0x69, 0x6e,
        0x70, 0x75, 0x74, 0x00, 0x02, 0x00, 0x00, 0x00, 0x01, 0x00, 0x00, 0x00,
        0x01, 0x00, 0x00, 0x00, 0x00, 0x00, 0x0e, 0x00, 0x14, 0x00, 0x04, 0x00,
        0x00, 0x00, 0x08, 0x00, 0x0c, 0x00, 0x10, 0x00, 0x0e, 0x00, 0x00, 0x00,
        0x28, 0x00, 0x00, 0x00, 0x09, 0x00, 0x00, 0x00, 0x10, 0x00, 0x00, 0x00,
        0x08, 0x00, 0x00, 0x00, 0x04, 0x00, 0x04, 0x00, 0x04, 0x00, 0x00, 0x00,
        0x08, 0x00, 0x00, 0x00, 0x49, 0x64, 0x65, 0x6e, 0x74, 0x69, 0x74, 0x79,
        0x00, 0x00, 0x00, 0x00, 0x02, 0x00, 0x00, 0x00, 0x01, 0x00, 0x00, 0x00,
        0x02, 0x00, 0x00, 0x00, 0x01, 0x00, 0x00, 0x00, 0x10, 0x00, 0x00, 0x00,
        0x00, 0x00, 0x0a, 0x00, 0x0c, 0x00, 0x07, 0x00, 0x00, 0x00, 0x08, 0x00,
        0x0a, 0x00, 0x00, 0x00, 0x00, 0x00, 0x00, 0x09, 0x03, 0x00, 0x00, 0x00
};
const int model_data_len = 2748;
